{
  "version": "1.0",
  "truncation": null,
  "padding": null,
  "added_tokens": [
    {
      "id": 0,
      "content": "<pad>",
      "single_word": false,
      "lstrip": false,
      "rstrip": false,
      "normalized": false,
      "special": true
    },
    {
      "id": 1,
      "content": "<bos>",
      "single_word": false,
      "lstrip": false,
      "rstrip": false,
      "normalized": false,
      "special": true
    },
    {
      "id": 2,
      "content": "<eos>",
      "single_word": false,
      "lstrip": false,
      "rstrip": false,
      "normalized": false,
      "special": true
    },
    {
      "id": 3,
      "content": "<unk>",
      "single_word": false,
      "lstrip": false,
      "rstrip": false,
      "normalized": false,
      "special": true
    },
    {
      "id": 4,
      "content": "<user>",
      "single_word": false,
      "lstrip": false,
      "rstrip": false,
      "normalized": false,
      "special": true
    },
    {
      "id": 5,
      "content": "<assistant>",
      "single_word": false,
      "lstrip": false,
      "rstrip": false,
      "normalized": false,
      "special": true
    }
  ],
  "normalizer": {
    "type": "NFC"
  },
  "pre_tokenizer": {
    "type": "ByteLevel",
    "add_prefix_space": false,
    "trim_offsets": true,
    "use_regex": true
  },
  "post_processor": null,
  "decoder": {
    "type": "ByteLevel",
    "add_prefix_space": true,
    "trim_offsets": true,
    "use_regex": true
  },
  "model": {
    "type": "BPE",
    "dropout": null,
    "unk_token": "<unk>",
    "continuing_subword_prefix": null,
    "end_of_word_suffix": null,
    "fuse_unk": false,
    "byte_fallback": false,
    "ignore_merges": false,
    "vocab": {
      "<pad>": 0,
      "<bos>": 1,
      "<eos>": 2,
      "<unk>": 3,
      "<user>": 4,
      "<assistant>": 5,
      "!": 6,
      "\"": 7,
      "#": 8,
      "$": 9,
      "%": 10,
      "&": 11,
      "'": 12,
      "(": 13,
      ")": 14,
      "*": 15,
      "+": 16,
      ",": 17,
      "-": 18,
      ".": 19,
      "/": 20,
      "0": 21,
      "1": 22,
      "2": 23,
      "3": 24,
      "4": 25,
      "5": 26,
      "6": 27,
      "7": 28,
      "8": 29,
      "9": 30,
      ":": 31,
      ";": 32,
      "<": 33,
      "=": 34,
      ">": 35,
      "?": 36,
      "@": 37,
      "A": 38,
      "B": 39,
      "C": 40,
      "D": 41,
      "E": 42,
      "F": 43,
      "G": 44,
      "H": 45,
      "I": 46,
      "J": 47,
      "K": 48,
      "L": 49,
      "M": 50,
      "N": 51,
      "O": 52,
      "P": 53,
      "Q": 54,
      "R": 55,
      "S": 56,
      "T": 57,
      "U": 58,
      "V": 59,
      "W": 60,
      "X": 61,
      "Y": 62,
      "Z": 63,
      "[": 64,
      "\\": 65,
      "]": 66,
      "^": 67,
      "_": 68,
      "`": 69,
      "a": 70,
      "b": 71,
      "c": 72,
      "d": 73,
      "e": 74,
      "f": 75,
      "g": 76,
      "h": 77,
      "i": 78,
      "j": 79,
      "k": 80,
      "l": 81,
      "m": 82,
      "n": 83,
      "o": 84,
      "p": 85,
      "q": 86,
      "r": 87,
      "s": 88,
      "t": 89,
      "u": 90,
      "v": 91,
      "w": 92,
      "x": 93,
      "y": 94,
      "z": 95,
      "{": 96,
      "|": 97,
      "}": 98,
      "~": 99,
      "¡": 100,
      "¢": 101,
      "£": 102,
      "¤": 103,
      "¥": 104,
      "¦": 105,
      "§": 106,
      "¨": 107,
      "©": 108,
      "ª": 109,
      "«": 110,
      "¬": 111,
      "®": 112,
      "¯": 113,
      "°": 114,
      "±": 115,
      "²": 116,
      "³": 117,
      "´": 118,
      "µ": 119,
      "¶": 120,
      "·": 121,
      "¸": 122,
      "¹": 123,
      "º": 124,
      "»": 125,
      "¼": 126,
      "½": 127,
      "¾": 128,
      "¿": 129,
      "À": 130,
      "Á": 131,
      "Â": 132,
      "Ã": 133,
      "Ä": 134,
      "Å": 135,
      "Æ": 136,
      "Ç": 137,
      "È": 138,
      "É": 139,
      "Ê": 140,
      "Ë": 141,
      "Ì": 142,
      "Í": 143,
      "Î": 144,
      "Ï": 145,
      "Ð": 146,
      "Ñ": 147,
      "Ò": 148,
      "Ó": 149,
      "Ô": 150,
      "Õ": 151,
      "Ö": 152,
      "×": 153,
      "Ø": 154,
      "Ù": 155,
      "Ú": 156,
      "Û": 157,
      "Ü": 158,
      "Ý": 159,
      "Þ": 160,
      "ß": 161,
      "à": 162,
      "á": 163,
      "â": 164,
      "ã": 165,
      "ä": 166,
      "å": 167,
      "æ": 168,
      "ç": 169,
      "è": 170,
      "é": 171,
      "ê": 172,
      "ë": 173,
      "ì": 174,
      "í": 175,
      "î": 176,
      "ï": 177,
      "ð": 178,
      "ñ": 179,
      "ò": 180,
      "ó": 181,
      "ô": 182,
      "õ": 183,
      "ö": 184,
      "÷": 185,
      "ø": 186,
      "ù": 187,
      "ú": 188,
      "û": 189,
      "ü": 190,
      "ý": 191,
      "þ": 192,
      "ÿ": 193,
      "Ā": 194,
      "ā": 195,
      "Ă": 196,
      "ă": 197,
      "Ą": 198,
      "ą": 199,
      "Ć": 200,
      "ć": 201,
      "Ĉ": 202,
      "ĉ": 203,
      "Ċ": 204,
      "ċ": 205,
      "Č": 206,
      "č": 207,
      "Ď": 208,
      "ď": 209,
      "Đ": 210,
      "đ": 211,
      "Ē": 212,
      "ē": 213,
      "Ĕ": 214,
      "ĕ": 215,
      "Ė": 216,
      "ė": 217,
      "Ę": 218,
      "ę": 219,
      "Ě": 220,
      "ě": 221,
      "Ĝ": 222,
      "ĝ": 223,
      "Ğ": 224,
      "ğ": 225,
      "Ġ": 226,
      "ġ": 227,
      "Ģ": 228,
      "ģ": 229,
      "Ĥ": 230,
      "ĥ": 231,
      "Ħ": 232,
      "ħ": 233,
      "Ĩ": 234,
      "ĩ": 235,
      "Ī": 236,
      "ī": 237,
      "Ĭ": 238,
      "ĭ": 239,
      "Į": 240,
      "į": 241,
      "İ": 242,
      "ı": 243,
      "Ĳ": 244,
      "ĳ": 245,
      "Ĵ": 246,
      "ĵ": 247,
      "Ķ": 248,
      "ķ": 249,
      "ĸ": 250,
      "Ĺ": 251,
      "ĺ": 252,
      "Ļ": 253,
      "ļ": 254,
      "Ľ": 255,
      "ľ": 256,
      "Ŀ": 257,
      "ŀ": 258,
      "Ł": 259,
      "ł": 260,
      "Ń": 261,
      "Ġt": 262,
      "he": 263,
      "Ġa": 264,
      "in": 265,
      "ĠĠ": 266,
      "Ġthe": 267,
      "Ġs": 268,
      "Ġo": 269,
      "Ġw": 270,
      "re": 271,
      "ha": 272,
      "nd": 273,
      "er": 274,
      "Ġb": 275,
      "is": 276,
      "ing": 277,
      "le": 278,
      "âĢ": 279,
      "ĠĠĠĠ": 280,
      "it": 281,
      "ou": 282,
      "Ġm": 283,
      "ed": 284,
      "Ġf": 285,
      "Ġc": 286,
      "on": 287,
      "Ġof": 288,
      "en": 289,
      "or": 290,
      "ar": 291,
      "Ġin": 292,
      "Ġand": 293,
      "ll": 294,
      "st": 295,
      "Ġh": 296,
      "an": 297,
      "at": 298,
      "Ġto": 299,
      "Ġd": 300,
      "Ġp": 301,
      "es": 302,
      "om": 303,
      "hat": 304,
      "Ġl": 305,
      "Ġn": 306,
      "ow": 307,
      "Ġth": 308,
      "as": 309,
      "Ġhe": 310,
      "ut": 311,
      "ĠĠĠĠĠĠĠĠ": 312,
      "ly": 313,
      "Ġha": 314,
      "Ġbe": 315,
      "ic": 316,
      "se": 317,
      "im": 318,
      "âĢĻ": 319,
      "Ġg": 320,
      "Ġthat": 321,
      "gh": 322,
      "Ġe": 323,
      "ot": 324,
      "Ġit": 325,
      "ĠI": 326,
      "ld": 327,
      "al": 328,
      "Ġu": 329,
      "Ġon": 330,
      "Ġhis": 331,
      "id": 332,
      "ve": 333,
      "ver": 334,
      "et": 335,
      "ir": 336,
      "Ġst": 337,
      "ad": 338,
      "ith": 339,
      "ac": 340,
      "Ġy": 341,
      "ent": 342,
      "ay": 343,
      "the": 344,
      "Ġse": 345,
      "ro": 346,
      "Ġwith": 347,
      "âĢĶ": 348,
      "ur": 349,
      "Ġas": 350,
      "Ġfor": 351,
      "ght": 352,
      "Ġis": 353,
      "ain": 354,
      "Ġwh": 355,
      "hale": 356,
      "âĢľ": 357,
      "Ġre": 358,
      "ce": 359,
      "ke": 360,
      "Ġwas": 361,
      "and": 362,
      "ion": 363,
      "âĢĿ": 364,
      "ri": 365,
      "ĠA": 366,
      "oo": 367,
      "ĠS": 368,
      "il": 369,
      "Ġall": 370,
      "Ġwe": 371,
      "ch": 372,
      "Ġan": 373,
      "am": 374,
      "Ġat": 375,
      "ore": 376,
      "ĠT": 377,
      "ter": 378,
      "qu": 379,
      "ast": 380,
      "Ġsh": 381,
      "Ġthis": 382,
      "Ġso": 383,
      "if": 384,
      "rom": 385,
      "Ġnot": 386,
      "Ġsu": 387,
      "Ġyou": 388,
      "Ġhim": 389,
      "ill": 390,
      "all": 391,
      "Ġwhale": 392,
      "ous": 393,
      "ec": 394,
      "ight": 395,
      "ĠĠĠĠĠĠĠĠĠĠĠĠĠĠĠĠ": 396,
      "th": 397,
      "Ġby": 398,
      "ap": 399,
      "Ġup": 400,
      "ip": 401,
      "ul": 402,
      "ome": 403,
      "Ġbut": 404,
      "Ġr": 405,
      "to": 406,
      "Ġfrom": 407,
      "ble": 408,
      "ss": 409,
      "ard": 410,
      "Ġle": 411,
      "ag": 412,
      "em": 413,
      "ĠB": 414,
      "Ġv": 415,
      "Ġme": 416,
      "ĠC": 417,
      "ould": 418,
      "ong": 419,
      "Ġsp": 420,
      "ck": 421,
      "ĠW": 422,
      "red": 423,
      "Ġor": 424,
      "ant": 425,
      "un": 426,
      "Ġone": 427,
      "her": 428,
      "ers": 429,
      "Ġwhe": 430,
      "Ġbo": 431,
      "el": 432,
      "Ġsa": 433,
      "ound": 434,
      "ĠP": 435,
      "art": 436,
      "out": 437,
      "ess": 438,
      "led": 439,
      "Ġli": 440,
      "ough": 441,
      "ost": 442,
      "Ġcon": 443,
      "um": 444,
      "han": 445,
      "Ġhave": 446,
      "us": 447,
      "Ġthere": 448,
      "Ġal": 449,
      "Ġman": 450,
      "Ġhad": 451,
      "own": 452,
      "ich": 453,
      "Ġde": 454,
      "Ġun": 455,
      "po": 456,
      "Ġmy": 457,
      "ther": 458,
      "ĠH": 459,
      "ted": 460,
      "of": 461,
      "ust": 462,
      "od": 463,
      "tain": 464,
      "ak": 465,
      "Ġwere": 466,
      "one": 467,
      "per": 468,
      "Ġsome": 469,
      "Ġnow": 470,
      "very": 471,
      "Ġtheir": 472,
      "Ġk": 473,
      "Ġwhich": 474,
      "lf": 475,
      "ra": 476,
      "ind": 477,
      "ig": 478,
      "Ġout": 479,
      "ist": 480,
      "Ġno": 481,
      "Ġcom": 482,
      "ide": 483,
      "ort": 484,
      "Ġne": 485,
      "Ġare": 486,
      "ood": 487,
      "ĠF": 488,
      "Ġfe": 489,
      "ook": 490,
      "ack": 491,
      "ate": 492,
      "ĠSt": 493,
      "Ġship": 494,
      "ge": 495,
      "ĠThe": 496,
      "Ġye": 497,
      "lo": 498,
      "Ġj": 499,
      "reat": 500,
      "res": 501,
      "able": 502,
      "Ġwho": 503,
      "Ġthey": 504,
      "Ġthen": 505,
      "hab": 506,
      "ue": 507,
      "ĠN": 508,
      "Ġwhen": 509,
      "ine": 510,
      "Ġex": 511,
      "ame": 512,
      "Ġinto": 513,
      "Ġupon": 514,
      "Ġdo": 515,
      "ĠâĢľ": 516,
      "Ġwor": 517,
      "Ġlike": 518,
      "Ġthem": 519,
      "ĠL": 520,
      "ish": 521,
      "iv": 522,
      "Ġab": 523,
      "ation": 524,
      "ious": 525,
      ".âĢĿ": 526,
      "ĠBut": 527,
      "pe": 528,
      "uck": 529,
      "ile": 530,
      "ive": 531,
      "Ġag": 532,
      "ĠD": 533,
      "Ġover": 534,
      "Ġmore": 535,
      "ub": 536,
      "hed": 537,
      "ct": 538,
      "Ġother": 539,
      "ĠG": 540,
      "ally": 541,
      "ĠM": 542,
      "Ġpl": 543,
      "av": 544,
      "te": 545,
      "ĠAhab": 546,
      "ite": 547,
      "Ġpo": 548,
      "Ġbl": 549,
      "ĠĠĠ": 550,
      "ies": 551,
      "ie": 552,
      "Ġwhat": 553,
      "ity": 554,
      "Ġtim": 555,
      "ings": 556,
      "Ġpro": 557,
      "equ": 558,
      "ep": 559,
      "ks": 560,
      "Ġseem": 561,
      "ect": 562,
      "Ġold": 563,
      "nt": 564,
      "Ġaf": 565,
      "self": 566,
      "Ġro": 567,
      "Ġtr": 568,
      "ree": 569,
      "Ġsea": 570,
      "Ġboat": 571,
      "less": 572,
      "we": 573,
      "ab": 574,
      "ull": 575,
      "ling": 576,
      "ud": 577,
      "Ġany": 578,
      "ol": 579,
      "way": 580,
      "Ġif": 581,
      "The": 582,
      "fore": 583,
      "Ġkn": 584,
      "ance": 585,
      "ward": 586,
      "ass": 587,
      "ure": 588,
      "Ġbeen": 589,
      "ick": 590,
      "ake": 591,
      "ning": 592,
      "Ġwould": 593,
      "nder": 594,
      "ace": 595,
      "Ġcan": 596,
      "Ġhar": 597,
      "Ġtw": 598,
      "ĠĠĠĠĠĠĠĠĠĠĠĠĠĠĠĠĠĠĠĠĠĠĠĠ": 599,
      "Ġgo": 600,
      "Ġthou": 601,
      "Ġstr": 602,
      "be": 603,
      "our": 604,
      "ness": 605,
      "tle": 606,
      "Ġthese": 607,
      "Ġher": 608,
      "Ġwill": 609,
      "Ġhead": 610,
      "Ġdown": 611,
      "hing": 612,
      "ye": 613,
      "man": 614,
      "pp": 615,
      "Ġqu": 616,
      "Ġhand": 617,
      "ars": 618,
      "har": 619,
      "aptain": 620,
      "are": 621,
      "ated": 622,
      "Ġonly": 623,
      "Ġar": 624,
      "Ġits": 625,
      "est": 626,
      "Ġagain": 627,
      "Ġho": 628,
      "Ġco": 629,
      "ose": 630,
      "!âĢĿ": 631,
      "ber": 632,
      "ire": 633,
      "age": 634,
      "Ġwat": 635,
      "Ġsuch": 636,
      "Ġam": 637,
      "Ġus": 638,
      "ng": 639,
      "ĠO": 640,
      "ven": 641,
      "Ġthr": 642,
      "wn": 643,
      "Ġlong": 644,
      ",âĢĿ": 645,
      "ell": 646,
      "ord": 647,
      "Ġpart": 648,
      "Ġthan": 649,
      "Ġsay": 650,
      "ink": 651,
      "Ġper": 652,
      "ry": 653,
      "Ġtime": 654,
      "Ġabout": 655,
      "ho": 656,
      "Ġpre": 657,
      "uch": 658,
      "Ġgreat": 659,
      "Ġsaid": 660,
      "Ġen": 661,
      "ise": 662,
      "Ġgr": 663,
      "ĠWhale": 664,
      "cc": 665,
      "Ġthough": 666,
      "ting": 667,
      "his": 668,
      "Ġim": 669,
      "ubb": 670,
      "Ġsee": 671,
      "ĠAnd": 672,
      "ild": 673,
      "most": 674,
      "that": 675,
      "Ġhere": 676,
      "Ġstill": 677,
      "Ġvery": 678,
      "Ġmust": 679,
      "Ġhas": 680,
      "pt": 681,
      "sp": 682,
      "les": 683,
      "ark": 684,
      "ĠĠĠĠĠĠĠĠĠĠĠĠĠĠĠĠĠĠĠĠĠĠĠĠĠĠĠĠ": 685,
      "arb": 686,
      "Ġbr": 687,
      "anc": 688,
      "Ġafter": 689,
      "Ġfl": 690,
      "Ġoff": 691,
      "Ġlast": 692,
      "urn": 693,
      "eg": 694,
      "Ġway": 695,
      "Ġthose": 696,
      "Ġtwo": 697,
      "Ġsc": 698,
      "Ġmost": 699,
      "Ġyour": 700,
      "Que": 701,
      "Ġsw": 702,
      "ail": 703,
      "Ġsm": 704,
      "?âĢĿ": 705,
      "ĠE": 706,
      "Ġyet": 707,
      "ful": 708,
      "ary": 709,
      "Ġdid": 710,
      "Ġlook": 711,
      "ows": 712,
      "Ġbefore": 713,
      "ever": 714,
      "Ġcomp": 715,
      "li": 716,
      "ade": 717,
      "rew": 718,
      "ittle": 719,
      "Ġhow": 720,
      "au": 721,
      "ried": 722,
      "Ġseemed": 723,
      "ff": 724,
      "head": 725,
      "Ġsl": 726,
      "ath": 727,
      "men": 728,
      "Ġmay": 729,
      "equeg": 730,
      "Queequeg": 731,
      "irst": 732,
      "Ġ_": 733,
      "ĠHe": 734,
      "Ġri": 735,
      "Ġdec": 736,
      "ife": 737,
      "co": 738,
      "Ġround": 739,
      "Ġmen": 740,
      "ons": 741,
      "Ġday": 742,
      "sh": 743,
      "oy": 744,
      "ĠR": 745,
      "ĠStubb": 746,
      "ving": 747,
      "by": 748,
      "Ġad": 749,
      "Ġtoo": 750,
      "iz": 751,
      "ved": 752,
      "Ġsail": 753,
      "Ġmight": 754,
      "Ġdis": 755,
      "But": 756,
      "Ġside": 757,
      "Ġown": 758,
      "Ġlittle": 759,
      "ian": 760,
      "Ġevery": 761,
      "ions": 762,
      "Ġcr": 763,
      "ign": 764,
      "Ġharpo": 765,
      "ĠJ": 766,
      "Ġsha": 767,
      "Ġthrough": 768,
      "omet": 769,
      "ice": 770,
      "other": 771,
      "Ġwhere": 772,
      "Ġthree": 773,
      "ty": 774,
      "Ġgl": 775,
      "Ġwhales": 776,
      "ment": 777,
      "ors": 778,
      "for": 779,
      "Ġour": 780,
      "Ġind": 781,
      "ts": 782,
      "Ġrem": 783,
      "ory": 784,
      "so": 785,
      "ĠIt": 786,
      "ach": 787,
      "igh": 788,
      "Ġshould": 789,
      "ER": 790,
      "aw": 791,
      "ern": 792,
      "Ġfirst": 793,
      "ang": 794,
      "Ġbeing": 795,
      "Ġcould": 796,
      "Ġnever": 797,
      "Ġ(": 798,
      "Ġsame": 799,
      "Ġmuch": 800,
      "Ġcal": 801,
      "ft": 802,
      "ĠQueequeg": 803,
      "Ġwhile": 804,
      "Ġcont": 805,
      "Ġke": 806,
      "HA": 807,
      "cl": 808,
      "Ġfo": 809,
      "arbuck": 810,
      "not": 811,
      "ped": 812,
      "ject": 813,
      "ular": 814,
      "ial": 815,
      "ible": 816,
      "Ġcl": 817,
      "ren": 818,
      "orn": 819,
      ".âĢĶ": 820,
      "Ġever": 821,
      "Ġlo": 822,
      "oun": 823,
      "mer": 824,
      "here": 825,
      "Ġob": 826,
      "Ġpr": 827,
      "Ġgood": 828,
      "fe": 829,
      "ps": 830,
      "Ġstand": 831,
      "ĠCaptain": 832,
      "Ġback": 833,
      "Ġwater": 834,
      "wh": 835,
      "erm": 836,
      "Ġbet": 837,
      "Ġeven": 838,
      "Ġhimself": 839,
      "wards": 840,
      "ĠY": 841,
      "ied": 842,
      "ily": 843,
      "pl": 844,
      "hes": 845,
      "Ġsomet": 846,
      "land": 847,
      "ves": 848,
      "Ġmat": 849,
      "llow": 850,
      "but": 851,
      "Ġthing": 852,
      "ib": 853,
      "Ġent": 854,
      "Ġinst": 855,
      "ating": 856,
      "Ġdes": 857,
      "ical": 858,
      "ĠIn": 859,
      "Ġalmost": 860,
      "yes": 861,
      "ering": 862,
      "act": 863,
      "Ġcha": 864,
      "ĠStarbuck": 865,
      "bo": 866,
      "com": 867,
      "ount": 868,
      "Ġmade": 869,
      "sel": 870,
      "Ġknow": 871,
      "ple": 872,
      "Ġch": 873,
      "Ġcar": 874,
      "ĠFor": 875,
      "Ġthought": 876,
      "II": 877,
      "pen": 878,
      "oth": 879,
      "TER": 880,
      "XX": 881,
      "ather": 882,
      "Ġwhite": 883,
      "Ġcons": 884,
      "equod": 885,
      "ans": 886,
      "Ġsub": 887,
      "Ġste": 888,
      "den": 889,
      "gg": 890,
      "Ġacc": 891,
      "Ġwell": 892,
      "aking": 893,
      "ten": 894,
      "Ġaway": 895,
      "Ġworld": 896,
      "with": 897,
      "perm": 898,
      "ah": 899,
      "vi": 900,
      "Ġsort": 901,
      "Ġfar": 902,
      "Ġdist": 903,
      "Ġend": 904,
      "king": 905,
      "ence": 906,
      "Ġpres": 907,
      "Ġlife": 908,
      "ĠCHA": 909,
      "hen": 910,
      "âĢĺ": 911,
      "Ġeyes": 912,
      "Ġwithout": 913,
      "ne": 914,
      "Ġmar": 915,
      "Ġamong": 916,
      "ener": 917,
      "ations": 918,
      "read": 919,
      "Ġunder": 920,
      "ung": 921,
      "ĠCHAP": 922,
      "ced": 923,
      "ask": 924,
      "ĠCHAPTER": 925,
      "ched": 926,
      "up": 927,
      "end": 928,
      "Ġshe": 929,
      "als": 930,
      "Ġdeck": 931,
      "Ġland": 932,
      "Ġseen": 933,
      "Ġsun": 934,
      "like": 935,
      "Ġturn": 936,
      "int": 937,
      "ash": 938,
      "irc": 939,
      "ching": 940,
      "ĠPequod": 941,
      "iled": 942,
      "Ġtell": 943,
      "Ġwo": 944,
      "Ġmany": 945,
      "ucket": 946,
      "ered": 947,
      "Ġsir": 948,
      "Ġcrew": 949,
      "ange": 950,
      "ase": 951,
      "Ġwind": 952,
      "ertain": 953,
      "Ġcried": 954,
      "Ġnight": 955,
      "Ġbod": 956,
      "air": 957,
      "ress": 958,
      "Ġmast": 959,
      "Ġpass": 960,
      "!âĢĶ": 961,
      "der": 962,
      "Ġair": 963,
      "Ġfull": 964,
      "Ġlight": 965,
      "ĠSo": 966,
      "az": 967,
      "ex": 968,
      "med": 969,
      "su": 970,
      "Ġsk": 971,
      "Ġcome": 972,
      "Ġbel": 973,
      "Ġlet": 974,
      "Ġcomm": 975,
      "ix": 976,
      "Ġwha": 977,
      "its": 978,
      "Ġfore": 979,
      "ĠWh": 980,
      "Ġinter": 981,
      "Ġthink": 982,
      "whale": 983,
      "Ġtill": 984,
      "ower": 985,
      "Ġboats": 986,
      "ship": 987,
      "sed": 988,
      "Ġsou": 989,
      "oment": 990,
      "Ġshar": 991,
      "Ġheart": 992,
      "Ġonce": 993,
      "HE": 994,
      "ave": 995,
      "Ġir": 996,
      "athan": 997,
      "ove": 998,
      "Ġthings": 999,
      "Ġheav": 1000,
      "ale": 1001,
      "ser": 1002,
      "und": 1003,
      "Ġthee": 1004,
      "Ġdr": 1005,
      "viathan": 1006,
      "._": 1007,
      "get": 1008,
      "ures": 1009,
      "antucket": 1010,
      "Ġalong": 1011,
      "Ġbro": 1012,
      "aring": 1013,
      "Ġpe": 1014,
      "right": 1015,
      "Ġhold": 1016,
      "berg": 1017,
      "con": 1018,
      "ken": 1019,
      "Ġfound": 1020,
      "Ġcur": 1021,
      "Ġpur": 1022,
      "ĠTh": 1023,
      "ways": 1024,
      "ls": 1025,
      "Ġset": 1026,
      "Ġsur": 1027,
      "ingly": 1028,
      "ene": 1029,
      "ates": 1030,
      "Ġhalf": 1031,
      "Ġbec": 1032,
      "ĠSperm": 1033,
      "Ġagainst": 1034,
      "ause": 1035,
      "now": 1036,
      "iness": 1037,
      "Ġwhole": 1038,
      "Ġmon": 1039,
      "ĠTHE": 1040,
      "ween": 1041,
      "ngth": 1042,
      "ew": 1043,
      "ock": 1044,
      "itud": 1045,
      "Ġmoment": 1046,
      "Ġem": 1047,
      "Ġeach": 1048,
      "ides": 1049,
      "ump": 1050,
      "Ġdead": 1051,
      "Ġimp": 1052,
      "ances": 1053,
      "Ġsmall": 1054,
      "gin": 1055,
      "Ġthy": 1056,
      "ĠGod": 1057,
      "Ġstrange": 1058,
      "me": 1059,
      "Ġapp": 1060,
      "Ġsight": 1061,
      "Ġsoon": 1062,
      "eed": 1063,
      "fin": 1064,
      "ition": 1065,
      "Ġcaptain": 1066,
      "ason": 1067,
      "Ġear": 1068,
      "ters": 1069,
      "Ġplace": 1070,
      "Ġhands": 1071,
      "Ġarm": 1072,
      "str": 1073,
      "ict": 1074,
      "Ġsaw": 1075,
      "Ġfeet": 1076,
      "ĠNantucket": 1077,
      "Ġhard": 1078,
      "vent": 1079,
      "ished": 1080,
      "Ġfish": 1081,
      "arge": 1082,
      "ently": 1083,
      "ific": 1084,
      "Ġleg": 1085,
      "Ġwork": 1086,
      "Ġharpoone": 1087,
      "ping": 1088,
      "ying": 1089,
      "isher": 1090,
      "Ġcame": 1091,
      "Ġcirc": 1092,
      "Ġcertain": 1093,
      "Ġinc": 1094,
      "Ġline": 1095,
      "Ġjust": 1096,
      "Ġget": 1097,
      "ross": 1098,
      "pose": 1099,
      "ĠThere": 1100,
      "Ġblack": 1101,
      "Ġtake": 1102,
      "Ġwr": 1103,
      "Ġboth": 1104,
      "ither": 1105,
      "Ġgener": 1106,
      "was": 1107,
      "leg": 1108,
      "Ġheard": 1109,
      "In": 1110,
      "lask": 1111,
      "tr": 1112,
      "ual": 1113,
      "vil": 1114,
      "Ġsle": 1115,
      "Ġhigh": 1116,
      "eth": 1117,
      "Ġtimes": 1118,
      "Ġbody": 1119,
      "Ġwhaling": 1120,
      "ared": 1121,
      "reen": 1122,
      "ens": 1123,
      "Ġbetween": 1124,
      ",âĢĶ": 1125,
      "It": 1126,
      "go": 1127,
      "Ġmake": 1128,
      "ster": 1129,
      "ds": 1130,
      "outh": 1131,
      "ane": 1132,
      "Ġnat": 1133,
      "Ġhel": 1134,
      "imes": 1135,
      "Ġfeel": 1136,
      "Ġsomething": 1137,
      "ged": 1138,
      "Ġsperm": 1139,
      "Ġcalled": 1140,
      "Ġthus": 1141,
      "uten": 1142,
      "Ġanother": 1143,
      "tern": 1144,
      "Ġswe": 1145,
      "Ġdon": 1146,
      "ĠFlask": 1147,
      "ĠĠĠĠĠĠĠĠĠĠĠĠĠĠĠĠĠĠĠĠĠĠĠĠĠĠĠĠĠ": 1148,
      "Ġright": 1149,
      "He": 1150,
      "sc": 1151,
      "ured": 1152,
      "ĠV": 1153,
      "Ġbur": 1154,
      "Ġhor": 1155,
      "ime": 1156,
      "Ġpoor": 1157,
      "And": 1158,
      "from": 1159,
      "uff": 1160,
      "what": 1161,
      "Ġwild": 1162,
      "ising": 1163,
      "Ġtowards": 1164,
      "this": 1165,
      "ked": 1166,
      "Ġopen": 1167,
      "Ġeye": 1168,
      "Ġreg": 1169,
      "akes": 1170,
      "Ġpresent": 1171,
      "gr": 1172,
      "iar": 1173,
      "Ġche": 1174,
      "Ġclo": 1175,
      "Ġdark": 1176,
      "there": 1177,
      "Ġspout": 1178,
      "arted": 1179,
      "Ġfew": 1180,
      "utenberg": 1181,
      "ient": 1182,
      "Ġcap": 1183,
      "ened": 1184,
      "Ġdou": 1185,
      "Ġlarge": 1186,
      "ult": 1187,
      "ĠPro": 1188,
      "ner": 1189,
      "Ġte": 1190,
      "Ġfin": 1191,
      "Ġele": 1192,
      "ained": 1193,
      "Ġvoy": 1194,
      "raw": 1195,
      "Ġnear": 1196,
      "Ġinstant": 1197,
      "dden": 1198,
      "ee": 1199,
      "wor": 1200,
      "Ġwent": 1201,
      "Ġput": 1202,
      "Ġel": 1203,
      "ool": 1204,
      "ĠĠĠĠĠĠĠĠĠĠĠĠĠĠĠĠĠĠĠĠĠĠĠĠĠĠĠĠĠĠĠĠ": 1205,
      "him": 1206,
      "side": 1207,
      "Ġnor": 1208,
      "Ġread": 1209,
      "Ġrun": 1210,
      "ĠMo": 1211,
      "abin": 1212,
      "chan": 1213,
      "de": 1214,
      "ming": 1215,
      "where": 1216,
      "Ġwar": 1217,
      "rem": 1218,
      "haps": 1219,
      "nded": 1220,
      "Ġflo": 1221,
      "Ġhum": 1222,
      "Ġname": 1223,
      "ets": 1224,
      "ĠWhat": 1225,
      "Ġdoes": 1226,
      "ably": 1227,
      "ier": 1228,
      "tom": 1229,
      "ider": 1230,
      "Ġstre": 1231,
      "Ġstri": 1232,
      "Ġjo": 1233,
      "iously": 1234,
      "fl": 1235,
      "ĠâĢĻ": 1236,
      "Ġinv": 1237,
      "ank": 1238,
      "ĠAs": 1239,
      "Ġsup": 1240,
      "gether": 1241,
      "Ġtou": 1242,
      "Ġbed": 1243,
      "Ġchan": 1244,
      "onah": 1245,
      "owed": 1246,
      "Ġseas": 1247,
      "ceed": 1248,
      "Now": 1249,
      "Ġmind": 1250,
      "Ġcreat": 1251,
      "Ġnothing": 1252,
      "Ġsudden": 1253,
      "ecul": 1254,
      "Ġlength": 1255,
      "aves": 1256,
      "St": 1257,
      "What": 1258,
      "ring": 1259,
      "Ġter": 1260,
      "Ġface": 1261,
      "ically": 1262,
      "cean": 1263,
      "Ġspe": 1264,
      "Ġconc": 1265,
      "clud": 1266,
      "ĠWhite": 1267,
      "Ġiron": 1268,
      "mast": 1269,
      "ĠU": 1270,
      "ince": 1271,
      "Ġoil": 1272,
      "Ġbre": 1273,
      "Ġfur": 1274,
      "Ġfisher": 1275,
      "Ġlay": 1276,
      "amp": 1277,
      "ĠLe": 1278,
      "Ġsoul": 1279,
      "eculiar": 1280,
      "you": 1281,
      "Ġhat": 1282,
      "Ġmo": 1283,
      "Ġmid": 1284,
      "Ġhun": 1285,
      "icular": 1286,
      "Ġstood": 1287,
      "Ġyears": 1288,
      "ived": 1289,
      "Ġseems": 1290,
      "how": 1291,
      "ler": 1292,
      "lled": 1293,
      "no": 1294,
      "pro": 1295,
      "Ġsing": 1296,
      "ĠĠĠĠĠĠĠ": 1297,
      "ited": 1298,
      "Ġcra": 1299,
      "enc": 1300,
      "ĠThis": 1301,
      "ape": 1302,
      "Ġalso": 1303,
      "Ġjaw": 1304,
      "Ġwhose": 1305,
      "ief": 1306,
      "Ġdays": 1307,
      "Ġshall": 1308,
      "Ġkeep": 1309,
      "Ġentire": 1310,
      "ially": 1311,
      "Ġact": 1312,
      "Ġbus": 1313,
      "lent": 1314,
      "Ġfr": 1315,
      "Ġcut": 1316,
      "Ġlow": 1317,
      "ents": 1318,
      "Ġexp": 1319,
      "ĠOh": 1320,
      "br": 1321,
      "op": 1322,
      "wise": 1323,
      "ins": 1324,
      "ines": 1325,
      "Ġsign": 1326,
      "iss": 1327,
      "Ġcle": 1328,
      "Ġcor": 1329,
      "ont": 1330,
      "orning": 1331,
      "Ġhour": 1332,
      "Ġbest": 1333,
      "ural": 1334,
      "ĠDick": 1335,
      "Ġplain": 1336,
      "Ġposs": 1337,
      "ildad": 1338,
      "Ġharpoon": 1339,
      "Ġmatter": 1340,
      "ĠProject": 1341,
      "mm": 1342,
      "ities": 1343,
      "ought": 1344,
      "orm": 1345,
      "arr": 1346,
      "Ġdro": 1347,
      "aced": 1348,
      "Ġatt": 1349,
      "thing": 1350,
      "ards": 1351,
      "ĠJonah": 1352,
      "selves": 1353,
      "Ġdoub": 1354,
      "Ġ1": 1355,
      "Ġtail": 1356,
      "Ġap": 1357,
      "Ġsn": 1358,
      "Ġchar": 1359,
      "ones": 1360,
      "Ġhear": 1361,
      "Ġere": 1362,
      "ĠInd": 1363,
      "âĢĶâĢľ": 1364,
      "Ġform": 1365,
      "Ġrep": 1366,
      "oft": 1367,
      "aught": 1368,
      "Ġindeed": 1369,
      "eleg": 1370,
      "io": 1371,
      "kes": 1372,
      "old": 1373,
      "Ġsound": 1374,
      "Ġcabin": 1375,
      "eness": 1376,
      "arn": 1377,
      "Ġitself": 1378,
      "Ġboard": 1379,
      "irect": 1380,
      "Ġsometimes": 1381,
      "itude": 1382,
      "full": 1383,
      "nding": 1384,
      "Ġcall": 1385,
      "owing": 1386,
      "Ġrest": 1387,
      "eck": 1388,
      "ĠPip": 1389,
      "Ġships": 1390,
      "Ġgoing": 1391,
      "cond": 1392,
      "boat": 1393,
      "spe": 1394,
      "Ġes": 1395,
      "Ġbene": 1396,
      "Ġfast": 1397,
      "Ġfour": 1398,
      "urning": 1399,
      "ift": 1400,
      "Ġperhaps": 1401,
      "Ġenough": 1402,
      "Ġcomple": 1403,
      "ized": 1404,
      "Ġstanding": 1405,
      "ĠMoby": 1406,
      "?âĢĶ": 1407,
      "Th": 1408,
      "aid": 1409,
      "Ġocc": 1410,
      "rest": 1411,
      "Ġdel": 1412,
      "Ġpeculiar": 1413,
      "Ġwithin": 1414,
      "Ġalways": 1415,
      "Ġdeep": 1416,
      "rave": 1417,
      "Ġnew": 1418,
      "ĠGutenberg": 1419,
      "Ġaff": 1420,
      "Ġknown": 1421,
      "Ġsleep": 1422,
      "Ġvoyage": 1423,
      "ĠLeviathan": 1424,
      "mon": 1425,
      "ond": 1426,
      "ually": 1427,
      "inted": 1428,
      "Ġbul": 1429,
      "Ġmain": 1430,
      "Ġfire": 1431,
      "any": 1432,
      "illed": 1433,
      "Ġshort": 1434,
      "ousand": 1435,
      "Ġvast": 1436,
      "aken": 1437,
      "tered": 1438,
      "long": 1439,
      "Ġmark": 1440,
      "uth": 1441,
      "see": 1442,
      "ĠBildad": 1443,
      "Ġvis": 1444,
      "Ġmean": 1445,
      "Ġlive": 1446,
      "anger": 1447,
      "bed": 1448,
      "iver": 1449,
      "Ġsat": 1450,
      "Ġsqu": 1451,
      "Ġwood": 1452,
      "Ġdone": 1453,
      "Ġreason": 1454,
      "ously": 1455,
      "Ġleast": 1456,
      "agg": 1457,
      "Ġsav": 1458,
      "Ġliving": 1459,
      "ĠNo": 1460,
      "Ġword": 1461,
      "Ġblood": 1462,
      "Ġwaters": 1463,
      "Ġsmo": 1464,
      "which": 1465,
      "Ġclose": 1466,
      "bl": 1467,
      "nce": 1468,
      "sm": 1469,
      "sw": 1470,
      "Ġbow": 1471,
      "let": 1472,
      "Ġgive": 1473,
      "ided": 1474,
      "Ġsec": 1475,
      "ains": 1476,
      "âĢľâĢĺ": 1477,
      "ĠAt": 1478,
      "Ġyoung": 1479,
      "Ġwhether": 1480,
      "Ġdeath": 1481,
      "ately": 1482,
      "Ġcontin": 1483,
      "Ġbecause": 1484,
      "),": 1485,
      "ded": 1486,
      "iet": 1487,
      "pr": 1488,
      "sail": 1489,
      "under": 1490,
      "ĠK": 1491,
      "Ġocean": 1492,
      "ret": 1493,
      "Ġfam": 1494,
      "lly": 1495,
      "Ġgiv": 1496,
      "entle": 1497,
      "Ġsol": 1498,
      "Ġves": 1499,
      "ĠPeleg": 1500,
      "Ġdevil": 1501,
      "pos": 1502,
      "Ġtrue": 1503,
      "Ġcannot": 1504,
      "Ġhowever": 1505,
      "Ġharpooneer": 1506,
      "bs": 1507,
      "ches": 1508,
      "gan": 1509,
      "lish": 1510,
      "over": 1511,
      "ug": 1512,
      "ys": 1513,
      "Ġsim": 1514,
      "had": 1515,
      "Ġhome": 1516,
      "Ġpers": 1517,
      "Ġthir": 1518,
      "ident": 1519,
      "ilt": 1520,
      "ĠThat": 1521,
      "Ġleft": 1522,
      "antic": 1523,
      "els": 1524,
      "ĠNor": 1525,
      "Ġprof": 1526,
      "Ġroll": 1527,
      "Ġ(_": 1528,
      "Ġbetter": 1529,
      "Ġconsider": 1530,
      "Ġgeneral": 1531,
      "Ġvessel": 1532,
      "ĠX": 1533,
      "ĠâĢĺ": 1534,
      "Ġmate": 1535,
      "Ġmouth": 1536,
      "Ġfind": 1537,
      "Ġcent": 1538,
      "Ġstra": 1539,
      "Ġres": 1540,
      "Ġwhalemen": 1541,
      "ages": 1542,
      "Ġmyself": 1543,
      "Ġpoint": 1544,
      "Ġbeneath": 1545,
      ";âĢĶ": 1546,
      "ru": 1547,
      "Ġwant": 1548,
      "ised": 1549,
      "Ġcol": 1550,
      "stance": 1551,
      "Ġlad": 1552,
      "ĠIf": 1553,
      "Ġless": 1554,
      "Ġneed": 1555,
      "aving": 1556,
      "Ġprec": 1557,
      "ĠEng": 1558,
      "Ġcommand": 1559,
      "ixed": 1560,
      "Ġbusiness": 1561,
      "Ġac": 1562,
      "Ġoars": 1563,
      "iffe": 1564,
      "Ġrather": 1565,
      "Ġvo": 1566,
      "Ġspec": 1567,
      "ortal": 1568,
      "Ġfear": 1569,
      "Ġprev": 1570,
      "Ġadv": 1571,
      "Ġfollow": 1572,
      "undred": 1573,
      "Ġcircum": 1574,
      "ĠIndian": 1575,
      "fully": 1576,
      "Aye": 1577,
      "ike": 1578,
      "pent": 1579,
      "some": 1580,
      "inc": 1581,
      "ined": 1582,
      "ouse": 1583,
      "Ġmorning": 1584,
      "Ġfri": 1585,
      "Ġcour": 1586,
      "Ġcase": 1587,
      "Ġinf": 1588,
      "ative": 1589,
      "vest": 1590,
      "aces": 1591,
      "Ġforth": 1592,
      "Ġret": 1593,
      "ries": 1594,
      "hold": 1595,
      "Ġcalm": 1596,
      "ibly": 1597,
      "Ġturned": 1598,
      "Ġwonder": 1599,
      "Ġearth": 1600,
      "when": 1601,
      "Ġver": 1602,
      "Ġsy": 1603,
      "Ġsince": 1604,
      "Ġmad": 1605,
      "Ġoften": 1606,
      "Ġint": 1607,
      "stand": 1608,
      "Ġport": 1609,
      "owly": 1610,
      "ottom": 1611,
      "iding": 1612,
      "Ġseam": 1613,
      "cept": 1614,
      "tering": 1615,
      "Ġsuper": 1616,
      "ected": 1617,
      "Ġorder": 1618,
      "kn": 1619,
      "par": 1620,
      "Ġwide": 1621,
      "ream": 1622,
      "Ġfine": 1623,
      "ays": 1624,
      "ĠNow": 1625,
      "ivory": 1626,
      "iew": 1627,
      "iest": 1628,
      "spect": 1629,
      "Ġcomplete": 1630,
      "ma": 1631,
      "my": 1632,
      "war": 1633,
      "reg": 1634,
      "rent": 1635,
      "Ġins": 1636,
      "Ġhaving": 1637,
      "uring": 1638,
      "ĠCh": 1639,
      "cks": 1640,
      "ists": 1641,
      "There": 1642,
      "Ġart": 1643,
      "Ġcop": 1644,
      "Ġlooked": 1645,
      "As": 1646,
      "more": 1647,
      "oes": 1648,
      "pect": 1649,
      "Ġinte": 1650,
      "Ġhundred": 1651,
      "Ġdirect": 1652,
      "Ġpit": 1653,
      "Ġthousand": 1654,
      "Ġgone": 1655,
      "ached": 1656,
      "Ġsecond": 1657,
      "agn": 1658,
      "offin": 1659,
      "ĠThey": 1660,
      "ield": 1661,
      "ĠĠĠĠĠĠĠĠĠĠĠĠĠĠĠĠĠĠĠĠĠĠĠĠĠĠĠĠĠĠ": 1662,
      "Ġswim": 1663,
      "heads": 1664,
      "ments": 1665,
      "Ahab": 1666,
      "ef": 1667,
      "line": 1668,
      "Ġaye": 1669,
      "Ġbows": 1670,
      "isted": 1671,
      "stern": 1672,
      "ater": 1673,
      "Ġpull": 1674,
      "Ġgentle": 1675,
      "otion": 1676,
      "Ġund": 1677,
      "Ġwhy": 1678,
      "Ġabove": 1679,
      "Ġparticular": 1680,
      "rence": 1681,
      "meric": 1682,
      "board": 1683,
      "eer": 1684,
      "ms": 1685,
      "ople": 1686,
      "ph": 1687,
      "rous": 1688,
      "Ġaw": 1689,
      "inct": 1690,
      "oud": 1691,
      "Ġmer": 1692,
      "Ġcas": 1693,
      "Ġcare": 1694,
      "ense": 1695,
      "Ġdraw": 1696,
      "iff": 1697,
      "ement": 1698,
      "Ġmere": 1699,
      "Ġord": 1700,
      "Ġdep": 1701,
      "ĠHow": 1702,
      "ĠMr": 1703,
      "tego": 1704,
      "Ġheads": 1705,
      "ashtego": 1706,
      "OR": 1707,
      "Oh": 1708,
      "coun": 1709,
      "dle": 1710,
      "lic": 1711,
      "night": 1712,
      "ze": 1713,
      "hand": 1714,
      "esides": 1715,
      "Ġlower": 1716,
      "Ġgreen": 1717,
      "Ġuse": 1718,
      "iling": 1719,
      "elt": 1720,
      "ĠNew": 1721,
      "Ġcru": 1722,
      "XXX": 1723,
      "Ġbroad": 1724,
      "Ġelse": 1725,
      "Ġfurther": 1726,
      "Ġcraft": 1727,
      "00": 1728,
      "face": 1729,
      "hind": 1730,
      "light": 1731,
      "look": 1732,
      "Ġturning": 1733,
      "Ġtaken": 1734,
      "Ġop": 1735,
      "lect": 1736,
      "itting": 1737,
      "Ġmass": 1738,
      "Ġfle": 1739,
      "Ġcount": 1740,
      "Ġtop": 1741,
      "ute": 1742,
      "Ġhapp": 1743,
      "Ġstart": 1744,
      "Ġref": 1745,
      "emed": 1746,
      "Ġquick": 1747,
      "Ġchase": 1748,
      "Ġsavage": 1749,
      "af": 1750,
      "cri": 1751,
      "gy": 1752,
      "ience": 1753,
      "Ġser": 1754,
      "Ġsile": 1755,
      "Ġsix": 1756,
      "Ġtow": 1757,
      "Ġtogether": 1758,
      "Ġpar": 1759,
      "Ġnum": 1760,
      "Ġgaz": 1761,
      "ots": 1762,
      "theless": 1763,
      "though": 1764,
      "Ġview": 1765,
      "Ġgold": 1766,
      "Ġperil": 1767,
      "Ġgrand": 1768,
      "ĠRight": 1769,
      "Ġperson": 1770,
      "Ġstraight": 1771,
      "cast": 1772,
      "ior": 1773,
      "pec": 1774,
      "val": 1775,
      "who": 1776,
      "Ġ*": 1777,
      "have": 1778,
      "Ġbook": 1779,
      "Ġfro": 1780,
      "Ġcry": 1781,
      "Ġcross": 1782,
      "Ġbegan": 1783,
      "ention": 1784,
      "then": 1785,
      "Ġrece": 1786,
      "ĠTo": 1787,
      "Ġcomes": 1788,
      "Ġthemselves": 1789,
      "Ġlooking": 1790,
      "Ġobject": 1791,
      "III": 1792,
      "Ġwond": 1793,
      "Ġfishery": 1794,
      "aus": 1795,
      "bod": 1796,
      "round": 1797,
      "vo": 1798,
      "Ġivory": 1799,
      "Ġtem": 1800,
      "Ġori": 1801,
      "Ġmur": 1802,
      "veral": 1803,
      "Ġass": 1804,
      "Ġlean": 1805,
      "Ġtherefore": 1806,
      "Ġfellow": 1807,
      "Ġquar": 1808,
      "Ġcontr": 1809,
      "Ġchap": 1810,
      "eel": 1811,
      "fort": 1812,
      "jo": 1813,
      "pre": 1814,
      "ron": 1815,
      "xt": 1816,
      "Ġterm": 1817,
      "Ġwaves": 1818,
      "Ġbit": 1819,
      "Ġbottom": 1820,
      "ĠĠĠĠĠ": 1821,
      "Ġdri": 1822,
      "Ġforward": 1823,
      "Ġreve": 1824,
      "ĠAr": 1825,
      "oose": 1826,
      "ĠTashtego": 1827,
      "Ġspir": 1828,
      "Ġaloft": 1829,
      "ĠNot": 1830,
      "Ġext": 1831,
      "Ġrope": 1832,
      "Ġobser": 1833,
      "while": 1834,
      "gging": 1835,
      "Ġbelow": 1836,
      "Ġappe": 1837,
      "Ġvoice": 1838,
      "penter": 1839,
      "Ġfriend": 1840,
      "cr": 1841,
      "ric": 1842,
      "uous": 1843,
      "uct": 1844,
      "Ġten": 1845,
      "erning": 1846,
      "Ġfree": 1847,
      "Ġfair": 1848,
      "Ġdiv": 1849,
      "Ġlost": 1850,
      "Ġglo": 1851,
      "Ġequ": 1852,
      "ades": 1853,
      "they": 1854,
      "Ġred": 1855,
      "Ġrel": 1856,
      "ĠAmeric": 1857,
      "ored": 1858,
      "Ġlee": 1859,
      "ants": 1860,
      "Ġkind": 1861,
      "iles": 1862,
      "Ġplan": 1863,
      "Ġproper": 1864,
      "Ġtry": 1865,
      "Ġgoes": 1866,
      "Ġwatch": 1867,
      "ĠOn": 1868,
      "Ġparts": 1869,
      "Ġflu": 1870,
      "Ġslowly": 1871,
      "ĠYou": 1872,
      "Ġstead": 1873,
      "upon": 1874,
      "Ġcurious": 1875,
      "Ġpursu": 1876,
      "Ġharpooneers": 1877,
      "IL": 1878,
      "No": 1879,
      "Qu": 1880,
      "can": 1881,
      "mb": 1882,
      "mmer": 1883,
      "tw": 1884,
      "uge": 1885,
      "Ġtable": 1886,
      "Ġwa": 1887,
      "Ġmine": 1888,
      "Ġcook": 1889,
      "Ġple": 1890,
      "asy": 1891,
      "Ġgu": 1892,
      "Ġgot": 1893,
      "Ġstern": 1894,
      "acc": 1895,
      "ĠSe": 1896,
      "ssed": 1897,
      "Ġvar": 1898,
      "Ġspr": 1899,
      "Ġconf": 1900,
      "ods": 1901,
      "Ġdoor": 1902,
      "were": 1903,
      "pping": 1904,
      "pped": 1905,
      "Ġused": 1906,
      "Ġswift": 1907,
      "Ġsailor": 1908,
      "Ġcommon": 1909,
      "Ġsharp": 1910,
      "Ġhelp": 1911,
      "ĠEnglish": 1912,
      "pecially": 1913,
      "Ġorigin": 1914,
      "Wh": 1915,
      "down": 1916,
      "gl": 1917,
      "phan": 1918,
      "rap": 1919,
      "Ġut": 1920,
      "Ġtri": 1921,
      "Ġtaking": 1922,
      "Ġbat": 1923,
      "Ġbreat": 1924,
      "Ġmin": 1925,
      "Ġfif": 1926,
      "Ġfres": 1927,
      "Ġcast": 1928,
      "Ġlaw": 1929,
      "Ġnigh": 1930,
      "ashed": 1931,
      "Ġbehind": 1932,
      "aged": 1933,
      "Ġmeans": 1934,
      "umb": 1935,
      "ush": 1936,
      "ushed": 1937,
      "ively": 1938,
      "Ġrolled": 1939,
      "Ġstrong": 1940,
      "Ġground": 1941,
      "Ġtook": 1942,
      "Ġsailors": 1943,
      "Ġchief": 1944,
      "Ġpeople": 1945,
      "Ġpurpose": 1946,
      "Ġbreak": 1947,
      "cha": 1948,
      "ead": 1949,
      "olo": 1950,
      "ugg": 1951,
      "yed": 1952,
      "inks": 1953,
      "Ġwake": 1954,
      "lest": 1955,
      "Ġmis": 1956,
      "Ġmild": 1957,
      "Ġmagn": 1958,
      "Ġfact": 1959,
      "oman": 1960,
      "Ġlat": 1961,
      "Ġstep": 1962,
      "acing": 1963,
      "them": 1964,
      "aint": 1965,
      "Ġrec": 1966,
      "Ġsure": 1967,
      "Ġwhaleman": 1968,
      "unt": 1969,
      "rawn": 1970,
      "Ġnoble": 1971,
      "Ġcoming": 1972,
      "Ġknew": 1973,
      "Ġstranger": 1974,
      "Ġquest": 1975,
      "Ġsays": 1976,
      "ancing": 1977,
      "Ġoffic": 1978,
      "Ġkept": 1979,
      "Ġaccount": 1980,
      "Ġmarin": 1981,
      "Ġsharks": 1982,
      "Ġheaven": 1983,
      "Ġbroken": 1984,
      "Ġteeth": 1985,
      "Ġchance": 1986,
      "Ġspeak": 1987,
      "At": 1988,
      "day": 1989,
      "deck": 1990,
      "ned": 1991,
      "oard": 1992,
      "rist": 1993,
      "hel": 1994,
      "inary": 1995,
      "iter": 1996,
      "Ġmaking": 1997,
      "Ġfelt": 1998,
      "Ġinvest": 1999,
      "Ġtold": 2000,
      "Ġdart": 2001,
      "Ġph": 2002,
      "Ġthick": 2003,
      "ĠĠĠĠĠĠĠĠĠ": 2004,
      "Ġhamm": 2005,
      "Ġstory": 2006,
      "their": 2007,
      "Ġseveral": 2008,
      "Ġwhom": 2009,
      "ĠSp": 2010,
      "ilar": 2011,
      "ames": 2012,
      "Ġsoft": 2013,
      "ipe": 2014,
      "Ġleap": 2015,
      "ĠBy": 2016,
      "antly": 2017,
      "pend": 2018,
      "Ġprod": 2019,
      "Ġprop": 2020,
      "Ġstruck": 2021,
      "Ġhope": 2022,
      "ancy": 2023,
      "Ġbelong": 2024,
      "Ġmonster": 2025,
      "cons": 2026,
      "nat": 2027,
      "will": 2028,
      "Ġbone": 2029,
      "Ġmut": 2030,
      "Ġmist": 2031,
      "Ġfurn": 2032,
      "Ġcaught": 2033,
      "ening": 2034,
      "Ġpri": 2035,
      "Ġlim": 2036,
      "Ġlance": 2037,
      "lying": 2038,
      "Ġgre": 2039,
      "ality": 2040,
      "ribut": 2041,
      "ified": 2042,
      "Ġra": 2043,
      "Ġleviathan": 2044,
      "Ġspo": 2045,
      "Ġnext": 2046,
      "ĠThen": 2047,
      "Ġworks": 2048,
      "ives": 2049,
      "Ġblue": 2050,
      "Ġroom": 2051,
      "Ġqueer": 2052,
      "Ġslight": 2053,
      "Ġmighty": 2054,
      "Ġshad": 2055,
      "ĠYet": 2056,
      "Ġdrag": 2057,
      "reenland": 2058,
      "Ġsuddenly": 2059,
      "Ġterr": 2060,
      "Ġsingle": 2061,
      ".âĢĻ": 2062,
      "For": 2063,
      "LE": 2064,
      "ND": 2065,
      "So": 2066,
      "do": 2067,
      "hore": 2068,
      "ired": 2069,
      "kilt": 2070,
      "lin": 2071,
      "last": 2072,
      "ses": 2073,
      "Ġide": 2074,
      "ints": 2075,
      "ery": 2076,
      "Ġbarb": 2077,
      "Ġbones": 2078,
      "len": 2079,
      "ĠĠĠĠĠĠ": 2080,
      "itted": 2081,
      "Ġmod": 2082,
      "Ġmoun": 2083,
      "Ġfixed": 2084,
      "Ġhur": 2085,
      "Ġpower": 2086,
      "Ġbegin": 2087,
      "ĠIs": 2088,
      "vered": 2089,
      "irm": 2090,
      "Ġstorm": 2091,
      "acle": 2092,
      "Ġisland": 2093,
      "Ġwhit": 2094,
      "kelet": 2095,
      "rible": 2096,
      "bled": 2097,
      "ĠWith": 2098,
      "Ġsailed": 2099,
      "Ġalone": 2100,
      "aked": 2101,
      "Ġfell": 2102,
      "ĠLord": 2103,
      "ivid": 2104,
      "Ġanything": 2105,
      "Ġencoun": 2106,
      "Ġimm": 2107,
      "ĠĠĠĠĠĠĠĠĠĠĠĠĠĠĠĠĠĠĠĠĠĠĠĠĠĠĠĠĠĠĠ": 2108,
      "lied": 2109,
      "Ġfoot": 2110,
      "ready": 2111,
      "itudes": 2112,
      "Ġtouching": 2113,
      "Ġclear": 2114,
      "Ġhours": 2115,
      "Ġdoubt": 2116,
      "castle": 2117,
      "Whale": 2118,
      "ging": 2119,
      "ky": 2120,
      "ob": 2121,
      "yal": 2122,
      "Ġtal": 2123,
      "Ġsnow": 2124,
      "Ġwall": 2125,
      "Ġbar": 2126,
      "ises": 2127,
      "Ġmakes": 2128,
      "Ġcat": 2129,
      "onor": 2130,
      "Ġhull": 2131,
      "Ġhouse": 2132,
      "Ġdet": 2133,
      "Ġpal": 2134,
      "Ġev": 2135,
      "Ġeff": 2136,
      "acific": 2137,
      "anded": 2138,
      "ĠAn": 2139,
      "que": 2140,
      "Ġshow": 2141,
      "thr": 2142,
      "Ġval": 2143,
      "elled": 2144,
      "ĠHis": 2145,
      "Ġkill": 2146,
      "iving": 2147,
      "ĠDe": 2148,
      "ubber": 2149,
      "Ġothers": 2150,
      "Ġblind": 2151,
      "Ġwhatever": 2152,
      "Ġbrain": 2153,
      "Ġlove": 2154,
      "Ġpassed": 2155,
      "Ġnatural": 2156,
      "Ġhoriz": 2157,
      "Ġregular": 2158,
      "cluded": 2159,
      "ifferent": 2160,
      "Ġcourse": 2161,
      "known": 2162,
      "Captain": 2163,
      "_,": 2164,
      "aff": 2165,
      "ding": 2166,
      "ia": 2167,
      "mn": 2168,
      "nib": 2169,
      "sl": 2170,
      "Ġid": 2171,
      "het": 2172,
      "Ġsal": 2173,
      "Ġwal": 2174,
      "Ġble": 2175,
      "Ġbir": 2176,
      "Ġmortal": 2177,
      "Ġfre": 2178,
      "ats": 2179,
      "Ġdim": 2180,
      "Ġdem": 2181,
      "Ġdarted": 2182,
      "asion": 2183,
      "ashing": 2184,
      "Ġgun": 2185,
      "Ġeither": 2186,
      "Ġaspect": 2187,
      "Ġweather": 2188,
      "Ġang": 2189,
      "Ġsho": 2190,
      "Ġsole": 2191,
      "thy": 2192,
      "top": 2193,
      "together": 2194,
      "cked": 2195,
      "ĠWe": 2196,
      "Ġmanner": 2197,
      "posed": 2198,
      "Ġplay": 2199,
      "Ġprov": 2200,
      "lessly": 2201,
      "icked": 2202,
      "Ġaround": 2203,
      "Ġbrow": 2204,
      "Ġremain": 2205,
      "Ġmates": 2206,
      "Ġcarry": 2207,
      "Ġdistance": 2208,
      "Ġsky": 2209,
      "Ġregard": 2210,
      "Ġcapt": 2211,
      "Ġconcerning": 2212,
      "Ġcutting": 2213,
      "Ġespecially": 2214,
      "warks": 2215,
      "Ġwondrous": 2216,
      "Ġquarter": 2217,
      "Ġfresh": 2218,
      "?âĢĻ": 2219,
      "aim": 2220,
      "mod": 2221,
      "ued": 2222,
      "ught": 2223,
      "would": 2224,
      "Ġve": 2225,
      "Ġign": 2226,
      "Ġbill": 2227,
      "Ġfat": 2228,
      "Ġfier": 2229,
      "Ġcoffin": 2230,
      "arily": 2231,
      "Ġdam": 2232,
      "Ġpict": 2233,
      "set": 2234,
      "Ġevent": 2235,
      "vers": 2236,
      "acious": 2237,
      "Ġashore": 2238,
      "ĠAll": 2239,
      "ores": 2240,
      "ĠTr": 2241,
      "Ġsupp": 2242,
      "ulous": 2243,
      "Ġrap": 2244,
      "Ġvic": 2245,
      "ĠPer": 2246,
      "Ġsomehow": 2247,
      "ieve": 2248,
      "ĠĠĠĠĠĠĠĠĠĠĠĠĠĠĠĠĠĠĠĠĠĠĠĠĠ": 2249,
      "Ġcond": 2250,
      "Ġcoast": 2251,
      "ney": 2252,
      "ressed": 2253,
      "Ġplainly": 2254,
      "Ġesc": 2255,
      "aggoo": 2256,
      "Ġfamous": 2257,
      "Ġprecise": 2258,
      "Ġprevious": 2259,
      "Ġflukes": 2260,
      "Ġvarious": 2261,
      "IS": 2262,
      "aul": 2263,
      "cient": 2264,
      "don": 2265,
      "ires": 2266,
      "swe": 2267,
      "time": 2268,
      "into": 2269,
      "Ġmus": 2270,
      "Ġfive": 2271,
      "orr": 2272,
      "Ġhuge": 2273,
      "att": 2274,
      "ator": 2275,
      "Ġden": 2276,
      "Ġdream": 2277,
      "asure": 2278,
      "uty": 2279,
      "sequ": 2280,
      "enty": 2281,
      "Ġsepar": 2282,
      "ĠAl": 2283,
      "ility": 2284,
      "Ġshot": 2285,
      "ifted": 2286,
      "appe": 2287,
      "Ġlearn": 2288,
      "ager": 2289,
      "ĠCape": 2290,
      "ĠPar": 2291,
      "ĠPacific": 2292,
      "off": 2293,
      "Ġago": 2294,
      "ĠDon": 2295,
      "ĠDaggoo": 2296,
      "Ġplaced": 2297,
      "Ġproceed": 2298,
      "before": 2299,
      "Ġquite": 2300,
      "Ġsaying": 2301,
      "ĠHere": 2302,
      "Ġadd": 2303,
      "ize": 2304,
      "izing": 2305,
      "rench": 2306,
      "comp": 2307,
      "whales": 2308,
      "Ġsurface": 2309,
      "Ġsweet": 2310,
      "Ġburst": 2311,
      "Ġhuman": 2312,
      "Ġcopy": 2313,
      "keleton": 2314,
      ",âĢĻ": 2315,
      "_)": 2316,
      "cted": 2317,
      "dis": 2318,
      "ear": 2319,
      "every": 2320,
      "lt": 2321,
      "lord": 2322,
      "mates": 2323,
      "sha": 2324,
      "vals": 2325,
      "Ġill": 2326,
      "Ġice": 2327,
      "Ġborn": 2328,
      "itary": 2329,
      "stit": 2330,
      "Ġpil": 2331,
      "Ġnarr": 2332,
      "Ġgro": 2333,
      "Ġrespect": 2334,
      "Ġlead": 2335,
      "again": 2336,
      "Ġmeet": 2337,
      "unk": 2338,
      "Ġboy": 2339,
      "Ġtrans": 2340,
      "harpo": 2341,
      "inking": 2342,
      "Ġeng": 2343,
      "Ġbrought": 2344,
      "Ġadm": 2345,
      "Ġdisco": 2346,
      "Ġcrow": 2347,
      "Ġcarpenter": 2348,
      "Ġforehead": 2349,
      "ĠThough": 2350,
      "Ġready": 2351,
      "Ġrunning": 2352,
      "Ġcreature": 2353,
      "Ġseamen": 2354,
      "Ġgentlemen": 2355,
      "Ġsilent": 2356,
      ":âĢĶ": 2357,
      "Fish": 2358,
      "IN": 2359,
      "IV": 2360,
      "OO": 2361,
      "cing": 2362,
      "cal": 2363,
      "clo": 2364,
      "fast": 2365,
      "gn": 2366,
      "por": 2367,
      "inter": 2368,
      "Ġbound": 2369,
      "iting": 2370,
      "Ġma": 2371,
      "Ġce": 2372,
      "Ġinten": 2373,
      "lling": 2374,
      "stic": 2375,
      "Ġpat": 2376,
      "oms": 2377,
      "Ġlur": 2378,
      "utch": 2379,
      "uttle": 2380,
      "sea": 2381,
      "Ġgave": 2382,
      "Ġetern": 2383,
      "Ġeasy": 2384,
      "Ġvain": 2385,
      "ĠCan": 2386,
      "unning": 2387,
      "Ġdeg": 2388,
      "Ġjack": 2389,
      "resent": 2390,
      "ĠMan": 2391,
      "Ġblubber": 2392,
      "Ġrigging": 2393,
      "Ġsails": 2394,
      "ians": 2395,
      "common": 2396,
      "Ġarms": 2397,
      "Ġhelm": 2398,
      "Ġnearly": 2399,
      "Ġbulk": 2400,
      "ĠKing": 2401,
      "Ġcompletely": 2402,
      "ĠChrist": 2403,
      "Ġterms": 2404,
      "Ġidea": 2405,
      "AR": 2406,
      "ailed": 2407,
      "cried": 2408,
      "des": 2409,
      "fo": 2410,
      "onder": 2411,
      "vol": 2412,
      "zz": 2413,
      "ĠQu": 2414,
      "inn": 2415,
      "ert": 2416,
      "inging": 2417,
      "Ġmet": 2418,
      "Ġdie": 2419,
      "Ġprom": 2420,
      "Ġpul": 2421,
      "Ġlau": 2422,
      "ĠĠĠĠĠĠĠĠĠĠ": 2423,
      "Ġgir": 2424,
      "Ġeight": 2425,
      "Ġstro": 2426,
      "acy": 2427,
      "acet": 2428,
      "ioned": 2429,
      "rif": 2430,
      "Ġant": 2431,
      "Ġshr": 2432,
      "Ġupper": 2433,
      "poss": 2434,
      "Ġkilled": 2435,
      "Ġnose": 2436,
      "ĠSteel": 2437,
      "Ġabs": 2438,
      "Ġaft": 2439,
      "Ġtruth": 2440,
      "ĠĠĠĠĠĠĠĠĠĠĠĠĠĠĠĠĠĠĠĠĠĠĠĠĠĠĠ": 2441,
      "Ġquiet": 2442,
      "ording": 2443,
      "Ġsailing": 2444,
      "Ġthoughts": 2445,
      "Ġturns": 2446,
      "Ġpassage": 2447,
      "medi": 2448,
      "Ġshark": 2449,
      "Ġbulwarks": 2450,
      "Ġdrawing": 2451,
      "body": 2452,
      "ronic": 2453,
      "Ġfifty": 2454,
      "!âĢĻ": 2455,
      "bone": 2456,
      "che": 2457,
      "gs": 2458,
      "must": 2459,
      "pon": 2460,
      "she": 2461,
      "vast": 2462,
      "Ġsent": 2463,
      "Ġsch": 2464,
      "Ġskeleton": 2465,
      "Ġoh": 2466,
      "erable": 2467,
      "Ġbu": 2468,
      "Ġmood": 2469,
      "Ġmiles": 2470,
      "Ġfall": 2471,
      "ony": 2472,
      "stances": 2473,
      "Ġhither": 2474,
      "Ġpipe": 2475,
      "Ġlate": 2476,
      "Ġheld": 2477,
      "Ġhang": 2478,
      "sey": 2479,
      "seen": 2480,
      "seemed": 2481,
      "idering": 2482,
      "irt": 2483,
      "aching": 2484,
      "rop": 2485,
      "âĢĶâĢĶ": 2486,
      "Ġrequ": 2487,
      "Ġann": 2488,
      "Ġanim": 2489,
      "ecess": 2490,
      "ths": 2491,
      "ips": 2492,
      "empt": 2493,
      "ĠWell": 2494,
      "ession": 2495,
      "Ġunknown": 2496,
      "tained": 2497,
      "Ġjet": 2498,
      "ĠGreenland": 2499,
      "Ġrock": 2500,
      "been": 2501,
      "Ġcold": 2502,
      "Ġthrust": 2503,
      "urned": 2504,
      "evertheless": 2505,
      "Ġharpoons": 2506,
      "Ġremained": 2507,
      "Ġchild": 2508,
      "Ġsubstance": 2509,
      "gged": 2510,
      "Ġaccom": 2511,
      "Ġmarve": 2512,
      "ext": 2513,
      "Ġforecastle": 2514,
      "Ġnature": 2515,
      "Ġsuppose": 2516,
      "Ġcreatures": 2517,
      "Ġoccasion": 2518,
      "Ġthird": 2519,
      "Ġrolling": 2520,
      "Ġnumber": 2521,
      "ĠAmerican": 2522,
      "Ġhammock": 2523,
      "Ġrapid": 2524,
      "ĠSteelkilt": 2525,
      "ces": 2526,
      "eper": 2527,
      "ger": 2528,
      "host": 2529,
      "mo": 2530,
      "part": 2531,
      "ral": 2532,
      "rant": 2533,
      "ton": 2534,
      "ues": 2535,
      "uly": 2536,
      "water": 2537,
      "Ġed": 2538,
      "Ġtack": 2539,
      "Ġsides": 2540,
      "Ġod": 2541,
      "Ġmotion": 2542,
      "edall": 2543,
      "orous": 2544,
      "lls": 2545,
      "stone": 2546,
      "Ġhig": 2547,
      "omin": 2548,
      "Ġlines": 2549,
      "Ġnone": 2550,
      "Ġthunder": 2551,
      "ics": 2552,
      "imp": 2553,
      "Ġgall": 2554,
      "idden": 2555,
      "aying": 2556,
      "Ġrepe": 2557,
      "ĠSA": 2558,
      "Ġsuff": 2559,
      "Ġsuspe": 2560,
      "apped": 2561,
      "Ġleaving": 2562,
      "ember": 2563,
      "ĠBe": 2564,
      "ĠWhere": 2565,
      "Ġbold": 2566,
      "Ġconce": 2567,
      "ume": 2568,
      "Ġneg": 2569,
      "Ġexact": 2570,
      "eping": 2571,
      "Ġknows": 2572,
      "asses": 2573,
      "anced": 2574,
      "Ġstands": 2575,
      "white": 2576,
      "ĠYes": 2577,
      "Ġdesce": 2578,
      "Ġsteel": 2579,
      "Ġdistinct": 2580,
      "Ġskin": 2581,
      "Ġheavy": 2582,
      "Ġemp": 2583,
      "Ġwrink": 2584,
      "ground": 2585,
      "Ġdarkness": 2586,
      "Ġfinal": 2587,
      "chant": 2588,
      "cluding": 2589,
      "Ġmiddle": 2590,
      "ency": 2591,
      "Ġreceived": 2592,
      "two": 2593,
      "AN": 2594,
      "How": 2595,
      "Look": 2596,
      "Nor": 2597,
      "That": 2598,
      "VI": 2599,
      "Well": 2600,
      "aled": 2601,
      "ales": 2602,
      "cious": 2603,
      "even": 2604,
      "lit": 2605,
      "lass": 2606,
      "oh": 2607,
      "rs": 2608,
      "sing": 2609,
      "sur": 2610,
      "such": 2611,
      "wk": 2612,
      "wing": 2613,
      "hether": 2614,
      "Ġbright": 2615,
      "inger": 2616,
      "Ġmal": 2617,
      "Ġmil": 2618,
      "Ġfa": 2619,
      "Ġfirm": 2620,
      "Ġcoun": 2621,
      "stant": 2622,
      "Ġdread": 2623,
      "Ġpast": 2624,
      "Ġheed": 2625,
      "Ġheat": 2626,
      "Ġheight": 2627,
      "idel": 2628,
      "Ġstate": 2629,
      "Ġwhis": 2630,
      "ĠAye": 2631,
      "asted": 2632,
      "ĠBesides": 2633,
      "Ġvol": 2634,
      "Ġvio": 2635,
      "Ġspring": 2636,
      "ĠWho": 2637,
      "anted": 2638,
      "Ġboys": 2639,
      "umed": 2640,
      "Ġdef": 2641,
      "Ġmyster": 2642,
      "ĠHo": 2643,
      "tains": 2644,
      "Ġking": 2645,
      "Ġexper": 2646,
      "Ġexcept": 2647,
      "ĠDo": 2648,
      "Ġoverboard": 2649,
      "Ġroyal": 2650,
      "about": 2651,
      "Ġcannib": 2652,
      "Ġscar": 2653,
      "Ġdecl": 2654,
      "Ġcarried": 2655,
      "Ġhearts": 2656,
      "Ġimport": 2657,
      "Ġhardly": 2658,
      "Ġlegs": 2659,
      "Ġwarm": 2660,
      "Ġinvol": 2661,
      "Ġtouch": 2662,
      "ĠUn": 2663,
      "ences": 2664,
      "Ġjaws": 2665,
      "Ġpossible": 2666,
      "Ġsmoke": 2667,
      "Ġsimilar": 2668,
      "after": 2669,
      "through": 2670,
      "edallah": 2671,
      "_.": 2672,
      "fish": 2673,
      "lers": 2674,
      "mat": 2675,
      "nest": 2676,
      "sy": 2677,
      "Ġtre": 2678,
      "Ġastern": 2679,
      "inting": 2680,
      "Ġbree": 2681,
      "itten": 2682,
      "Ġmention": 2683,
      "ories": 2684,
      "arm": 2685,
      "still": 2686,
      "Ġhonor": 2687,
      "Ġda": 2688,
      "Ġpain": 2689,
      "Ġpaus": 2690,
      "ased": 2691,
      "Ġhair": 2692,
      "Ġhammer": 2693,
      "Ġbear": 2694,
      "Ġghost": 2695,
      "Ġeager": 2696,
      "ldom": 2697,
      "Ġhist": 2698,
      "Ġsto": 2699,
      "adly": 2700,
      "ayed": 2701,
      "Ġreally": 2702,
      "Ġanch": 2703,
      "Ġshout": 2704,
      "ecause": 2705,
      "Ġrising": 2706,
      "ĠWhen": 2707,
      "ushing": 2708,
      "Ġalready": 2709,
      "ustom": 2710,
      "isting": 2711,
      "Ġexcl": 2712,
      "Ġexceed": 2713,
      "Ġtran": 2714,
      "akeman": 2715,
      "Ġtwenty": 2716,
      "Ġhoisted": 2717,
      "Ġcompany": 2718,
      "Ġdisc": 2719,
      "Ġglance": 2720,
      "comm": 2721,
      "Ġwoe": 2722,
      "Ġskull": 2723,
      "ĠWhy": 2724,
      "Ġalongside": 2725,
      "Ġbecome": 2726,
      "Ġchest": 2727,
      "Ġentirely": 2728,
      "smith": 2729,
      "Ġgiven": 2730,
      "posing": 2731,
      "Ġthirty": 2732,
      "Ġacross": 2733,
      "Ġleeward": 2734,
      "Ġquestion": 2735,
      "Ġmariners": 2736,
      "Ġlearned": 2737,
      "Ġpilot": 2738,
      "ET": 2739,
      "back": 2740,
      "could": 2741,
      "circ": 2742,
      "Ã¦": 2743,
      "Ġ[": 2744,
      "Ġsil": 2745,
      "Ġwon": 2746,
      "erous": 2747,
      "ison": 2748,
      "Ġmed": 2749,
      "Ġflying": 2750,
      "Ġhung": 2751,
      "Ġtossed": 2752,
      "Ġlamp": 2753,
      "Ġgri": 2754,
      "Ġgale": 2755,
      "ote": 2756,
      "alo": 2757,
      "velo": 2758,
      "acted": 2759,
      "Ġself": 2760,
      "Ġreal": 2761,
      "ĠAf": 2762,
      "ĠSome": 2763,
      "ĠSee": 2764,
      "ilo": 2765,
      "ils": 2766,
      "those": 2767,
      "Ġring": 2768,
      "Ġleve": 2769,
      "Ġspot": 2770,
      "Ġlie": 2771,
      "Ġaltogether": 2772,
      "Ġdest": 2773,
      "Ġunf": 2774,
      "Ġuns": 2775,
      "Ġunless": 2776,
      "oney": 2777,
      "ĠFrench": 2778,
      "Ġjoy": 2779,
      "ieved": 2780,
      "Ġrose": 2781,
      "arent": 2782,
      "ĠOF": 2783,
      "Ġperi": 2784,
      "Ġgrow": 2785,
      "Ġsmell": 2786,
      "fulness": 2787,
      "ĠRad": 2788,
      "ignity": 2789,
      "Ġremains": 2790,
      "ference": 2791,
      "Ġinstances": 2792,
      "Ġbelieve": 2793,
      "Ġthinking": 2794,
      "._)": 2795,
      "Ġholding": 2796,
      "Ġfeeling": 2797,
      "Ġsupper": 2798,
      "Ġfishermen": 2799,
      "Ġcorp": 2800,
      "Ġpossibly": 2801,
      "ormous": 2802,
      "Ġvisible": 2803,
      "swer": 2804,
      "Ġspecies": 2805,
      "Ġinterest": 2806,
      "Ġswimming": 2807,
      "Ġpursuit": 2808,
      "ILOR": 2809,
      "Ġbattle": 2810,
      "ĠSAILOR": 2811,
      "EN": 2812,
      "ON": 2813,
      "VII": 2814,
      "With": 2815,
      "ci": 2816,
      "ges": 2817,
      "great": 2818,
      "ny": 2819,
      "sity": 2820,
      "somet": 2821,
      "Ġtall": 2822,
      "Ġtakes": 2823,
      "inced": 2824,
      "Ġwound": 2825,
      "Ġfight": 2826,
      "Ġfig": 2827,
      "Ġfool": 2828,
      "Ġdin": 2829,
      "Ġder": 2830,
      "Ġduty": 2831,
      "utes": 2832,
      "Ġhast": 2833,
      "Ġbehold": 2834,
      "ices": 2835,
      "Ġstop": 2836,
      "aded": 2837,
      "these": 2838,
      "Ġseldom": 2839,
      "aining": 2840,
      "Ġrese": 2841,
      "Ġancient": 2842,
      "thou": 2843,
      "Ġleak": 2844,
      "agan": 2845,
      "umps": 2846,
      "Ġunt": 2847,
      "ĠFedallah": 2848,
      "Ġwords": 2849,
      "ĠLet": 2850,
      "ĠDutch": 2851,
      "tend": 2852,
      "Ġprob": 2853,
      "Ġtrou": 2854,
      "Ġprep": 2855,
      "Ġenormous": 2856,
      "lesh": 2857,
      "Ġscene": 2858,
      "Ġadded": 2859,
      "Ġsideways": 2860,
      "Ġindivid": 2861,
      "hens": 2862,
      "Ġlandlord": 2863,
      "Ġmaster": 2864,
      "Ġlightning": 2865,
      "cont": 2866,
      "Ġstrangely": 2867,
      "Ġcertainly": 2868,
      "Ġgenerally": 2869,
      "Ġhorse": 2870,
      "Ġelect": 2871,
      "Ġelephan": 2872,
      "works": 2873,
      "Ġfloating": 2874,
      "Ġstrike": 2875,
      "Ġexpress": 2876,
      "Ġdoublo": 2877,
      "Ġ18": 2878,
      "uthor": 2879,
      "Ġconsiderable": 2880,
      "Ġcentre": 2881,
      "Ġutter": 2882,
      "olog": 2883,
      "natural": 2884,
      "Ġwhiteness": 2885,
      "Ġgunw": 2886,
      "ĠParsee": 2887,
      "Ġdegree": 2888,
      "Ġrepeated": 2889,
      "Ho": 2890,
      "IX": 2891,
      "RE": 2892,
      "This": 2893,
      "certain": 2894,
      "eks": 2895,
      "found": 2896,
      "fell": 2897,
      "lim": 2898,
      "much": 2899,
      "pass": 2900,
      "tis": 2901,
      "yard": 2902,
      "yond": 2903,
      "Ġtong": 2904,
      "Ġtrave": 2905,
      "held": 2906,
      "haling": 2907,
      "hawk": 2908,
      "erman": 2909,
      "Ġbri": 2910,
      "isible": 2911,
      "itable": 2912,
      "Ġmot": 2913,
      "Ġmiss": 2914,
      "Ġcho": 2915,
      "Ġcorn": 2916,
      "orpo": 2917,
      "ari": 2918,
      "Ġhump": 2919,
      "ature": 2920,
      "Ġpen": 2921,
      "Ġlord": 2922,
      "owards": 2923,
      "Ġhence": 2924,
      "Ġstarted": 2925,
      "acter": 2926,
      "Ġyards": 2927,
      "ented": 2928,
      "room": 2929,
      "Ġforty": 2930,
      "ĠSuch": 2931,
      "amed": 2932,
      "app": 2933,
      "aps": 2934,
      "Ġran": 2935,
      "ĠCom": 2936,
      "oundation": 2937,
      "Ġunw": 2938,
      "thern": 2939,
      "taining": 2940,
      "aker": 2941,
      "Ġneare": 2942,
      "Ġyear": 2943,
      "ivil": 2944,
      "pered": 2945,
      "avor": 2946,
      "test": 2947,
      "Ġarri": 2948,
      "headed": 2949,
      "form": 2950,
      "Ġkeen": 2951,
      "ularly": 2952,
      "Ġprot": 2953,
      "Ġmasts": 2954,
      "Ġintervals": 2955,
      "ships": 2956,
      "Ġempt": 2957,
      "himself": 2958,
      "Ġstriking": 2959,
      "flu": 2960,
      "Stubb": 2961,
      "Ġhunters": 2962,
      "Ġwooden": 2963,
      "looking": 2964,
      "Ġflew": 2965,
      "Ġcountry": 2966,
      "Ġleaning": 2967,
      "Ġspirit": 2968,
      "Ġplanks": 2969,
      "Ġbreath": 2970,
      "Ġfrequ": 2971,
      "Ġignor": 2972,
      "Ġescape": 2973,
      "Ġviolent": 2974,
      "Al": 2975,
      "CK": 2976,
      "We": 2977,
      "Yes": 2978,
      "aut": 2979,
      "bb": 2980,
      "bat": 2981,
      "cent": 2982,
      "cul": 2983,
      "cher": 2984,
      "ev": 2985,
      "ium": 2986,
      "little": 2987,
      "oe": 2988,
      "pit": 2989,
      "pes": 2990,
      "than": 2991,
      "tty": 2992,
      "yet": 2993,
      "your": 2994,
      "Ġtor": 2995,
      "Ġtap": 2996,
      "Ġtub": 2997,
      "Ġtree": 2998,
      "Ġahead": 2999,
      "inity": 3000,
      "Ġsit": 3001,
      "Ġoar": 3002,
      "rel": 3003,
      "err": 3004,
      "Ġbig": 3005,
      "itions": 3006,
      "Ġcand": 3007,
      "oned": 3008,
      "Ġhint": 3009,
      "Ġhinted": 3010,
      "Ġpick": 3011,
      "Ġlaid": 3012,
      "oward": 3013,
      "ĠĠĠĠĠĠĠĠĠĠĠ": 3014,
      "Ġbearing": 3015,
      "Ġest": 3016,
      "Ġears": 3017,
      "Ġreco": 3018,
      "cel": 3019,
      "key": 3020,
      "ĠSc": 3021,
      "Ġanswer": 3022,
      "amb": 3023,
      "Ġshock": 3024,
      "Ġsucc": 3025,
      "ipped": 3026,
      "ague": 3027,
      "Ġvig": 3028,
      "ĠWHA": 3029,
      "antime": 3030,
      "Ġdev": 3031,
      "Ġuncommon": 3032,
      "ofty": 3033,
      "ĠFoundation": 3034,
      "ooks": 3035,
      "Ġwholly": 3036,
      "Ġexam": 3037,
      "ĠLook": 3038,
      "ĠLakeman": 3039,
      "pest": 3040,
      "Ġpointed": 3041,
      "Ġblank": 3042,
      "Ġtrad": 3043,
      "hole": 3044,
      "Ġpretty": 3045,
      "Ġseeing": 3046,
      "ption": 3047,
      "Ġafterwards": 3048,
      "Ġscr": 3049,
      "Ġswall": 3050,
      "Ġkeel": 3051,
      "Ġinstead": 3052,
      "Ġconsidering": 3053,
      "Ġsubject": 3054,
      "Ġlands": 3055,
      "Ġthyself": 3056,
      "Ġappro": 3057,
      "Ġcheer": 3058,
      "world": 3059,
      "Starbuck": 3060,
      "Ġterrible": 3061,
      "Ġmidnight": 3062,
      "Ġfront": 3063,
      "ivers": 3064,
      "Ġsecret": 3065,
      "Ġprofound": 3066,
      "Ġpitch": 3067,
      "Ġorders": 3068,
      "Ġgazing": 3069,
      "Ġsteady": 3070,
      "account": 3071,
      "Ġgrey": 3072,
      "Ġeffect": 3073,
      "harpoone": 3074,
      "Ġhigher": 3075,
      "Ġemplo": 3076,
      "Ġperiod": 3077,
      "ĠRadney": 3078,
      "Ġindividual": 3079,
      "Ġempty": 3080,
      "AS": 3081,
      "AT": 3082,
      "Me": 3083,
      "aun": 3084,
      "away": 3085,
      "boy": 3086,
      "come": 3087,
      "did": 3088,
      "hip": 3089,
      "kin": 3090,
      "mar": 3091,
      "present": 3092,
      "ule": 3093,
      "wat": 3094,
      "ĠXXX": 3095,
      "rect": 3096,
      "Ġbread": 3097,
      "Ġbesides": 3098,
      "ism": 3099,
      "ouds": 3100,
      "Ġmother": 3101,
      "Ġfright": 3102,
      "Ġfancy": 3103,
      "Ġinser": 3104,
      "stem": 3105,
      "Ġhoo": 3106,
      "Ġtown": 3107,
      "Ġduring": 3108,
      "Ġdifferent": 3109,
      "Ġpost": 3110,
      "ese": 3111,
      "Ġhem": 3112,
      "iment": 3113,
      "Ġgrave": 3114,
      "Ġgods": 3115,
      "add": 3116,
      "Ġyield": 3117,
      "âĢĿâĢĶ": 3118,
      "Ġweight": 3119,
      "Ġanswe": 3120,
      "ills": 3121,
      "three": 3122,
      "thought": 3123,
      "Ġrum": 3124,
      "ĠCXX": 3125,
      "Ġspare": 3126,
      "Ġspread": 3127,
      "ĠPo": 3128,
      "igantic": 3129,
      "Ġouter": 3130,
      "ĠFrom": 3131,
      "acked": 3132,
      "ĠLike": 3133,
      "Ġotherwise": 3134,
      "aved": 3135,
      "tell": 3136,
      "Ġblow": 3137,
      "well": 3138,
      "hard": 3139,
      "Ġhole": 3140,
      "Ġhollow": 3141,
      "rying": 3142,
      "arboard": 3143,
      "Ġswam": 3144,
      "ails": 3145,
      "Ġglass": 3146,
      "Ġfoam": 3147,
      "Ġbodily": 3148,
      "Ġpassing": 3149,
      "Ġinterval": 3150,
      "ĠThou": 3151,
      "Ġbecame": 3152,
      "itional": 3153,
      "ĠNantucketer": 3154,
      "Ġcircle": 3155,
      "Ġfinally": 3156,
      "Ġconcern": 3157,
      "Ġhunt": 3158,
      "Ġsignific": 3159,
      "Ġdrop": 3160,
      "Ġaffair": 3161,
      "Ġgiving": 3162,
      "ĠXL": 3163,
      "Ġfollowing": 3164,
      "Ġfollowed": 3165,
      "Ġcircumstance": 3166,
      "Ġcases": 3167,
      "Ġcruising": 3168,
      "Ġperils": 3169,
      "Ġcontrast": 3170,
      "Ġchapter": 3171,
      "Ġoriginal": 3172,
      "Ġprodig": 3173,
      "Ġtalk": 3174,
      "Ġsolemn": 3175,
      "Ġregarded": 3176,
      "orrow": 3177,
      "Ġlaugh": 3178,
      "Ġsuspended": 3179,
      "Ġnegro": 3180,
      "Ġexactly": 3181,
      "Ġfaith": 3182,
      "Ġanswered": 3183,
      "All": 3184,
      "Pequod": 3185,
      "VIII": 3186,
      "bor": 3187,
      "bow": 3188,
      "bur": 3189,
      "cu": 3190,
      "iber": 3191,
      "know": 3192,
      "lat": 3193,
      "lantic": 3194,
      "mind": 3195,
      "rit": 3196,
      "rise": 3197,
      "same": 3198,
      "sho": 3199,
      "uced": 3200,
      "yr": 3201,
      "zy": 3202,
      "Ġtend": 3203,
      "Ġage": 3204,
      "Ġowing": 3205,
      "Ġwre": 3206,
      "oul": 3207,
      "Ġfit": 3208,
      "Ġfain": 3209,
      "Ġfun": 3210,
      "Ġfash": 3211,
      "Ġcong": 3212,
      "orse": 3213,
      "arch": 3214,
      "arance": 3215,
      "Ġhorn": 3216,
      "Ġpan": 3217,
      "Ġphan": 3218,
      "owder": 3219,
      "Ġthin": 3220,
      "asant": 3221,
      "Ġbeat": 3222,
      "Ġgod": 3223,
      "lded": 3224,
      "vering": 3225,
      "Ġstove": 3226,
      "Ġstuff": 3227,
      "rope": 3228,
      "Ġwithd": 3229,
      "Ġaside": 3230,
      "Ġformed": 3231,
      "Ġrevol": 3232,
      "ĠAND": 3233,
      "ams": 3234,
      "Ġshore": 3235,
      "Ġvill": 3236,
      "Ġmeasure": 3237,
      "ĠCX": 3238,
      "cket": 3239,
      "Ġlies": 3240,
      "Ġalive": 3241,
      "Ġdeeper": 3242,
      "perate": 3243,
      "Ġsomewhat": 3244,
      "Ġsomewhere": 3245,
      "Ġworship": 3246,
      "ĠLXX": 3247,
      "ĠMe": 3248,
      "teen": 3249,
      "Ġpop": 3250,
      "Ġpos": 3251,
      "Ġblows": 3252,
      "ection": 3253,
      "Ġknock": 3254,
      "being": 3255,
      "Ġcoat": 3256,
      "Ġperce": 3257,
      "Ġimmen": 3258,
      "Ġyourself": 3259,
      "Ġsword": 3260,
      "Ġlooks": 3261,
      "Ġcompar": 3262,
      "Ġdecks": 3263,
      "oyage": 3264,
      "Ġcrown": 3265,
      "Ġremark": 3266,
      "Ġnevertheless": 3267,
      "Ġpract": 3268,
      "plain": 3269,
      "Ġaccording": 3270,
      "Ġunderstand": 3271,
      "Ġemb": 3272,
      "finite": 3273,
      "Ġearnest": 3274,
      "venty": 3275,
      "ishery": 3276,
      "Ġgetting": 3277,
      "Ġelev": 3278,
      "work": 3279,
      "Ġstret": 3280,
      "Ġjolly": 3281,
      "Ġspeaking": 3282,
      "Ġdropped": 3283,
      "Ġapart": 3284,
      "Ġcharacter": 3285,
      "boats": 3286,
      "speak": 3287,
      "Ġoccur": 3288,
      "Ġmarked": 3289,
      "Ġsquall": 3290,
      "ĠXC": 3291,
      "Ġcentur": 3292,
      "Ġneeds": 3293,
      "ifference": 3294,
      "Ġdirectly": 3295,
      "Ġpulling": 3296,
      "Ġordinary": 3297,
      "000": 3298,
      "pendicular": 3299,
      "Ġpriv": 3300,
      "Ġraised": 3301,
      "Ġbeginning": 3302,
      "Ġbillows": 3303,
      "Ġintense": 3304,
      "Ġjacket": 3305,
      "possible": 3306,
      "something": 3307,
      "Ġelectronic": 3308,
      "ivilized": 3309,
      "ĠWHALE": 3310,
      "Ġphantom": 3311,
      "IT": 3312,
      "Sperm": 3313,
      "Who": 3314,
      "When": 3315,
      "ax": 3316,
      "ares": 3317,
      "bre": 3318,
      "bro": 3319,
      "car": 3320,
      "cut": 3321,
      "fact": 3322,
      "hun": 3323,
      "iac": 3324,
      "kind": 3325,
      "might": 3326,
      "pers": 3327,
      "ris": 3328,
      "rust": 3329,
      "uzz": 3330,
      "yp": 3331,
      "âĦ": 3332,
      "ĠXX": 3333,
      "Ġtum": 3334,
      "hered": 3335,
      "Ġauthor": 3336,
      "Ġwife": 3337,
      "rer": 3338,
      "rels": 3339,
      "reme": 3340,
      "erick": 3341,
      "Ġbad": 3342,
      "Ġbrave": 3343,
      "ital": 3344,
      "Ġmem": 3345,
      "Ġfill": 3346,
      "Ġfilled": 3347,
      "Ġflesh": 3348,
      "Ġinside": 3349,
      "Ġhide": 3350,
      "Ġhidden": 3351,
      "antern": 3352,
      "Ġtoma": 3353,
      "Ġdrew": 3354,
      "Ġdanger": 3355,
      "Ġdashed": 3356,
      "Ġdrawn": 3357,
      "Ġpay": 3358,
      "Ġpun": 3359,
      "Ġluck": 3360,
      "Ġlances": 3361,
      "Ġloud": 3362,
      "Ġlofty": 3363,
      "Ġbeyond": 3364,
      "icious": 3365,
      "ĠeB": 3366,
      "Ġstat": 3367,
      "Ġstud": 3368,
      "ading": 3369,
      "Ġseated": 3370,
      "Ġseren": 3371,
      "Ġrear": 3372,
      "Ġreached": 3373,
      "ands": 3374,
      "ĠSouth": 3375,
      "Ġsul": 3376,
      "apor": 3377,
      "apan": 3378,
      "bles": 3379,
      "Ġleaves": 3380,
      "ĠCome": 3381,
      "elve": 3382,
      "Ġsake": 3383,
      "ledge": 3384,
      "usion": 3385,
      "ĠHorn": 3386,
      "Ġcomfort": 3387,
      "lock": 3388,
      "Ġje": 3389,
      "Ġworse": 3390,
      "Ġagre": 3391,
      "Ġtruly": 3392,
      "lessness": 3393,
      "ude": 3394,
      "udge": 3395,
      "urely": 3396,
      "icking": 3397,
      "Ġthrown": 3398,
      "ĠWhales": 3399,
      "Ġimmedi": 3400,
      "Ġscuttle": 3401,
      "Ġswung": 3402,
      "Ġdidn": 3403,
      "Ġribs": 3404,
      "shma": 3405,
      "Ġclot": 3406,
      "ibr": 3407,
      "Ġdistribut": 3408,
      "Ġwindlass": 3409,
      "Ġsouls": 3410,
      "Ġdrown": 3411,
      "Ġpeace": 3412,
      "Ġsurpr": 3413,
      "Ġdeadly": 3414,
      "Ġinches": 3415,
      "Ġblacksmith": 3416,
      "aneously": 3417,
      "Ġhorr": 3418,
      "Ġeyeing": 3419,
      "Ġlargest": 3420,
      "Ġfloor": 3421,
      "Ġlowered": 3422,
      "Ġsmoking": 3423,
      "Ġprecious": 3424,
      "Ġcommanded": 3425,
      "Ġcircumstances": 3426,
      "incip": 3427,
      "Ġwonderful": 3428,
      "lection": 3429,
      "Ġtempor": 3430,
      "ĠArch": 3431,
      "ĠSea": 3432,
      "Why": 3433,
      "Ġmagnitude": 3434,
      "Ġinvested": 3435,
      "Ġslightest": 3436,
      "Ġterror": 3437,
      "Ġmodern": 3438,
      "Ġhorizont": 3439,
      "aimed": 3440,
      "Ġfiery": 3441,
      "Ġprecisely": 3442,
      "Ġseparate": 3443,
      "earth": 3444,
      "Ġeternal": 3445,
      "Ġquietly": 3446,
      "ohn": 3447,
      "Ġbreeze": 3448,
      "Ġdoubloon": 3449,
      "âĦ¢": 3450,
      "Ġtomahawk": 3451,
      "shmael": 3452,
      "By": 3453,
      "God": 3454,
      "IG": 3455,
      "Le": 3456,
      "On": 3457,
      "bit": 3458,
      "cle": 3459,
      "col": 3460,
      "captain": 3461,
      "crew": 3462,
      "hil": 3463,
      "iam": 3464,
      "iec": 3465,
      "lad": 3466,
      "lished": 3467,
      "large": 3468,
      "mate": 3469,
      "never": 3470,
      "ojo": 3471,
      "pan": 3472,
      "sle": 3473,
      "sperm": 3474,
      "tled": 3475,
      "use": 3476,
      "Ġtreat": 3477,
      "Ġtorn": 3478,
      "Ġsens": 3479,
      "Ġobe": 3480,
      "nds": 3481,
      "Ġbes": 3482,
      "Ġbore": 3483,
      "Ġball": 3484,
      "eding": 3485,
      "Ġcher": 3486,
      "Ġcord": 3487,
      "Ġcause": 3488,
      "Ġcool": 3489,
      "Ġcries": 3490,
      "Ġcunning": 3491,
      "only": 3492,
      "anch": 3493,
      "anks": 3494,
      "atic": 3495,
      "Ġtoss": 3496,
      "Ġdat": 3497,
      "Ġdied": 3498,
      "Ġpir": 3499,
      "Ġpap": 3500,
      "Ġpale": 3501,
      "Ġplent": 3502,
      "omen": 3503,
      "Ġlone": 3504,
      "Ġlung": 3505,
      "Ġloose": 3506,
      "owers": 3507,
      "uture": 3508,
      "Ġhailed": 3509,
      "Ġgra": 3510,
      "Ġgigantic": 3511,
      "oted": 3512,
      "aling": 3513,
      "Ġseat": 3514,
      "Ġformer": 3515,
      "riel": 3516,
      "ament": 3517,
      "Ġsoc": 3518,
      "Ġsumm": 3519,
      "alling": 3520,
      "ĠĠĠĠĠĠĠĠĠĠĠĠĠĠĠĠĠĠĠĠĠĠĠ": 3521,
      "aped": 3522,
      "Ġrid": 3523,
      "Ġleave": 3524,
      "Ġspine": 3525,
      "Ġlives": 3526,
      "uming": 3527,
      "ussey": 3528,
      "onest": 3529,
      "Ġnoise": 3530,
      "Ġfeat": 3531,
      "ĠStand": 3532,
      "ĠStates": 3533,
      "Ġyellow": 3534,
      "Ġexc": 3535,
      "ĠLX": 3536,
      "ĠLXXX": 3537,
      "ishing": 3538,
      "Ġaboard": 3539,
      "aven": 3540,
      "tending": 3541,
      "Ġpole": 3542,
      "iece": 3543,
      "abriel": 3544,
      "linging": 3545,
      "Then": 3546,
      "Ġtwelve": 3547,
      "Ġamid": 3548,
      "ĠOne": 3549,
      "Ġperm": 3550,
      "Ġgrass": 3551,
      "Ġflag": 3552,
      "Ġcompre": 3553,
      "Ġcompass": 3554,
      "Ġdism": 3555,
      "Ġdisappe": 3556,
      "Ġcrit": 3557,
      "Ġcalcul": 3558,
      "Ġlog": 3559,
      "Ġwatery": 3560,
      "Ġdescri": 3561,
      "pens": 3562,
      "Ġsubsequ": 3563,
      "Ġsorts": 3564,
      "Ġdistant": 3565,
      "Ġwindward": 3566,
      "Ġirons": 3567,
      "Here": 3568,
      "Ġstrength": 3569,
      "Ġattached": 3570,
      "Ġafford": 3571,
      "Ġvisit": 3572,
      "Ġgives": 3573,
      "Ġsolid": 3574,
      "posite": 3575,
      "Ġvessels": 3576,
      "ĠEngland": 3577,
      "Ġgloom": 3578,
      "Ġglobe": 3579,
      "Ġswiftly": 3580,
      "Ġminutes": 3581,
      "Ġbarbar": 3582,
      "Ġhorizon": 3583,
      "Ġidol": 3584,
      "Ġfatal": 3585,
      "Ġpictures": 3586,
      "Ġvicinity": 3587,
      "Ġcopyright": 3588,
      "OOK": 3589,
      "ĠChristian": 3590,
      "aceti": 3591,
      "Ġhitherto": 3592,
      "Ġtackles": 3593,
      "Ġcannibal": 3594,
      "Ġscarce": 3595,
      "Ġimportant": 3596,
      "Ġgunwale": 3597,
      "ieces": 3598,
      ".[": 3599,
      "AL": 3600,
      "CT": 3601,
      "EL": 3602,
      "ES": 3603,
      "HT": 3604,
      "If": 3605,
      "Mr": 3606,
      "Not": 3607,
      "OU": 3608,
      "Where": 3609,
      "bu": 3610,
      "cy": 3611,
      "fect": 3612,
      "house": 3613,
      "ien": 3614,
      "just": 3615,
      "uce": 3616,
      "uable": 3617,
      "xion": 3618,
      "Ġ2": 3619,
      "Ġtried": 3620,
      "Ġson": 3621,
      "Ġsink": 3622,
      "Ġoper": 3623,
      "Ġwit": 3624,
      "rees": 3625,
      "has": 3626,
      "Ġbase": 3627,
      "ley": 3628,
      "Ġmould": 3629,
      "Ġmount": 3630,
      "eds": 3631,
      "Ġfow": 3632,
      "Ġfath": 3633,
      "Ġcoo": 3634,
      "Ġcustom": 3635,
      "ench": 3636,
      "orted": 3637,
      "anwhile": 3638,
      "Ġdire": 3639,
      "Ġdignity": 3640,
      "Ġpuff": 3641,
      "Ġlying": 3642,
      "asp": 3643,
      "imate": 3644,
      "Ġgame": 3645,
      "Ġeh": 3646,
      "Ġeast": 3647,
      "Ġones": 3648,
      "idn": 3649,
      "ety": 3650,
      "eter": 3651,
      "etic": 3652,
      "Ġstiff": 3653,
      "Ġyonder": 3654,
      "Ġseized": 3655,
      "rod": 3656,
      "urch": 3657,
      "ĠAd": 3658,
      "ĠSir": 3659,
      "Ġwear": 3660,
      "Ġshud": 3661,
      "Ġsusp": 3662,
      "apping": 3663,
      "Ġbutter": 3664,
      "Ġrate": 3665,
      "ĠBl": 3666,
      "Ġvirt": 3667,
      "Ġvibr": 3668,
      "ĠCha": 3669,
      "Ġspeed": 3670,
      "outs": 3671,
      "ĠHussey": 3672,
      "rair": 3673,
      "ĠFast": 3674,
      "Ġshipmates": 3675,
      "Ġjump": 3676,
      "ĠNevertheless": 3677,
      "Ġexcel": 3678,
      "Ġdog": 3679,
      "Ġworking": 3680,
      "iveness": 3681,
      "ĠGu": 3682,
      "ĠGerman": 3683,
      "Ġplank": 3684,
      "Ġponder": 3685,
      "They": 3686,
      "icken": 3687,
      "Ġarg": 3688,
      "Ġgrin": 3689,
      "Ġimper": 3690,
      "Ġscrew": 3691,
      "Ġrib": 3692,
      "should": 3693,
      "Ġglory": 3694,
      "Ġinde": 3695,
      "Ġpray": 3696,
      "feet": 3697,
      "why": 3698,
      "ĠYojo": 3699,
      "plic": 3700,
      "Ġdescried": 3701,
      "Ġmarks": 3702,
      "azing": 3703,
      "ĠThus": 3704,
      "Ġmonoman": 3705,
      "Ġpresented": 3706,
      "Ġfloated": 3707,
      "Ġnameless": 3708,
      "Ġsleeping": 3709,
      "Ġmeaning": 3710,
      "ĠAtlantic": 3711,
      "iety": 3712,
      "Ġresol": 3713,
      "rupt": 3714,
      "Ġcolor": 3715,
      "Ġpreviously": 3716,
      "Ġsym": 3717,
      "Ġsymb": 3718,
      "Ġsuperior": 3719,
      "Ġgentleman": 3720,
      "Ġawful": 3721,
      "Ġmerely": 3722,
      "Ġopin": 3723,
      "Ġopposite": 3724,
      "Ġquickly": 3725,
      "Ġsixty": 3726,
      "Ġgaze": 3727,
      "Ġgolden": 3728,
      "Ġrevealed": 3729,
      "Ġobserved": 3730,
      "Ġequal": 3731,
      "Ġguess": 3732,
      "Ġoriginally": 3733,
      "While": 3734,
      "umbling": 3735,
      "ology": 3736,
      "Ġfurnished": 3737,
      "Ġterrors": 3738,
      "Ġmountain": 3739,
      "Ġimmortal": 3740,
      "Ġevinced": 3741,
      "Ġcaptured": 3742,
      "Ġpicture": 3743,
      "Ġevents": 3744,
      "ĠPerth": 3745,
      "Ġstroke": 3746,
      "Ġanimal": 3747,
      "Ġrapidly": 3748,
      "ĠUnited": 3749,
      "Ġlevel": 3750,
      "orpoise": 3751,
      "Ġnearer": 3752,
      "Ġimmense": 3753,
      "Ġsymbol": 3754,
      "(_": 3755,
      "Boy": 3756,
      "BOOK": 3757,
      "Is": 3758,
      "Let": 3759,
      "bes": 3760,
      "bel": 3761,
      "creat": 3762,
      "cation": 3763,
      "city": 3764,
      "cise": 3765,
      "dist": 3766,
      "eled": 3767,
      "eye": 3768,
      "fer": 3769,
      "ford": 3770,
      "got": 3771,
      "gain": 3772,
      "jest": 3773,
      "jah": 3774,
      "life": 3775,
      "lines": 3776,
      "nor": 3777,
      "oa": 3778,
      "oked": 3779,
      "rane": 3780,
      "sun": 3781,
      "uel": 3782,
      "vas": 3783,
      "vious": 3784,
      "ĠQue": 3785,
      "Ġident": 3786,
      "Ġtrem": 3787,
      "ining": 3788,
      "inal": 3789,
      "inous": 3790,
      "inated": 3791,
      "Ġsitting": 3792,
      "Ġwise": 3793,
      "half": 3794,
      "erv": 3795,
      "erve": 3796,
      "Ġber": 3797,
      "Ġbid": 3798,
      "Ġbag": 3799,
      "Ġbless": 3800,
      "ingers": 3801,
      "leet": 3802,
      "Ġmort": 3803,
      "Ġmeth": 3804,
      "edford": 3805,
      "Ġfer": 3806,
      "Ġfail": 3807,
      "Ġfield": 3808,
      "Ġfuture": 3809,
      "oning": 3810,
      "once": 3811,
      "orge": 3812,
      "orious": 3813,
      "armed": 3814,
      "Ġinqu": 3815,
      "Ġinex": 3816,
      "llous": 3817,
      "Ġhot": 3818,
      "Ġtoken": 3819,
      "Ġpot": 3820,
      "Ġpub": 3821,
      "Ġpair": 3822,
      "Ġpushed": 3823,
      "Ġlips": 3824,
      "Ġlantern": 3825,
      "Ġneck": 3826,
      "Ġnecess": 3827,
      "Ġthro": 3828,
      "uted": 3829,
      "ĠĠĠĠĠĠĠĠĠĠĠĠĠ": 3830,
      "Ġbecom": 3831,
      "Ġbeheld": 3832,
      "icul": 3833,
      "oting": 3834,
      "ĠIshmael": 3835,
      "ett": 3836,
      "iring": 3837,
      "irgin": 3838,
      "aches": 3839,
      "Ġseason": 3840,
      "âĢĶâĢĿ": 3841,
      "urb": 3842,
      "Ġforced": 3843,
      "Ġreck": 3844,
      "riv": 3845,
      "ĠShe": 3846,
      "Ġweary": 3847,
      "aste": 3848,
      "echan": 3849,
      "ighted": 3850,
      "think": 3851,
      "Ġrow": 3852,
      "Ġrace": 3853,
      "Ġrare": 3854,
      "Ġrise": 3855,
      "Ġrang": 3856,
      "Ġrush": 3857,
      "ĠBedford": 3858,
      "Ġvac": 3859,
      "anting": 3860,
      "Ġboiling": 3861,
      "ounded": 3862,
      "ument": 3863,
      "umber": 3864,
      "umped": 3865,
      "Ġunus": 3866,
      "pointed": 3867,
      "Ġmystic": 3868,
      "ĠHa": 3869,
      "raid": 3870,
      "Ġcomb": 3871,
      "orts": 3872,
      "acks": 3873,
      "ĠMy": 3874,
      "Ġproc": 3875,
      "Ġrocks": 3876,
      "Ġtrunk": 3877,
      "ĠĠĠĠĠĠĠĠĠĠĠĠĠĠĠĠĠĠĠĠĠĠĠĠĠĠ": 3878,
      "Ġstrain": 3879,
      "bell": 3880,
      "Ġwatching": 3881,
      "Ġusing": 3882,
      "Ġperpendicular": 3883,
      "Ġprey": 3884,
      "Ġgrim": 3885,
      "Ġgrown": 3886,
      "Ġbring": 3887,
      "Ġflood": 3888,
      "Ġways": 3889,
      "lijah": 3890,
      "ĠJapan": 3891,
      "Ġshape": 3892,
      "Ġglided": 3893,
      "Ġindirect": 3894,
      "Ġcontent": 3895,
      "Ġfoe": 3896,
      "Ġprow": 3897,
      "Ġevening": 3898,
      "Ġcarries": 3899,
      "Ġsubtle": 3900,
      "Ġsteward": 3901,
      "Ġendless": 3902,
      "Ġtelling": 3903,
      "Ġwinds": 3904,
      "sued": 3905,
      "super": 3906,
      "ĠWhile": 3907,
      "Ġsought": 3908,
      "Ġheaving": 3909,
      "Ġheavens": 3910,
      "Ġdrink": 3911,
      "Ġimpress": 3912,
      "Ġcaptains": 3913,
      "iction": 3914,
      "Ġincred": 3915,
      "Ġnatur": 3916,
      "Ġspouts": 3917,
      "Ġdouble": 3918,
      "ultaneously": 3919,
      "Ġputting": 3920,
      "ĠĠĠĠĠĠĠĠĠĠĠĠĠĠĠĠĠĠĠĠĠĠĠĠĠĠĠĠĠĠĠĠĠĠĠĠĠĠĠĠĠĠĠĠĠĠĠĠ": 3921,
      "clude": 3922,
      "Ġmoon": 3923,
      "Ġmoved": 3924,
      "Ġhunted": 3925,
      "Ġlowering": 3926,
      "Ġsnat": 3927,
      "Ġoccup": 3928,
      "ondon": 3929,
      "small": 3930,
      "retched": 3931,
      "Ġsolitary": 3932,
      "Ġrolls": 3933,
      "Ġoarsmen": 3934,
      "Ġadvance": 3935,
      "Ġadvancing": 3936,
      "Ġreturn": 3937,
      "Ġsystem": 3938,
      "Ġmadness": 3939,
      "Ġmerchant": 3940,
      "Ġcasks": 3941,
      "Ġsilence": 3942,
      "Ġperilous": 3943,
      "Ġofficers": 3944,
      "Ġmariner": 3945,
      "Ġspoke": 3946,
      "Ġshadow": 3947,
      "Ġdragged": 3948,
      "ĠDeath": 3949,
      "Ġconduct": 3950,
      "Ġmusk": 3951,
      "follow": 3952,
      "innacle": 3953,
      "Ġbuoy": 3954,
      "Ġhanging": 3955,
      "Ġhistory": 3956,
      "Ġanchor": 3957,
      "Ġshouted": 3958,
      "Ġdestro": 3959,
      "Ġfigure": 3960,
      "Ġdinner": 3961,
      "accountable": 3962,
      "Ġplenty": 3963,
      "Be": 3964,
      "CH": 3965,
      "QU": 3966,
      "Some": 3967,
      "Ste": 3968,
      "To": 3969,
      "You": 3970,
      "_),": 3971,
      "ald": 3972,
      "bet": 3973,
      "cceed": 3974,
      "cience": 3975,
      "dri": 3976,
      "dep": 3977,
      "ek": 3978,
      "ez": 3979,
      "far": 3980,
      "giv": 3981,
      "hum": 3982,
      "iant": 3983,
      "ikes": 3984,
      "ker": 3985,
      "low": 3986,
      "oved": 3987,
      "rising": 3988,
      "squ": 3989,
      "sub": 3990,
      "take": 3991,
      "uc": 3992,
      "uish": 3993,
      "uvi": 3994,
      "wind": 3995,
      "Ġess": 3996,
      "Ġtest": 3997,
      "heart": 3998,
      "hearted": 3999,
      "ination": 4000,
      "Ġsense": 4001,
      "Ġwed": 4002,
      "Ġwid": 4003,
      "Ġwish": 4004,
      "Ġwont": 4005,
      "rep": 4006,
      "reason": 4007,
      "haust": 4008,
      "Ġband": 4009,
      "Ġbub": 4010,
      "Ġbab": 4011,
      "Ġburn": 4012,
      "Ġbucket": 4013,
      "Ġbinnacle": 4014,
      "ister": 4015,
      "lee": 4016,
      "lets": 4017,
      "itive": 4018,
      "Ġmove": 4019,
      "Ġmoney": 4020,
      "Ġfet": 4021,
      "Ġfie": 4022,
      "Ġfanc": 4023,
      "Ġfather": 4024,
      "Ġcity": 4025,
      "Ġcaus": 4026,
      "Ġinch": 4027,
      "llig": 4028,
      "ste": 4029,
      "stri": 4030,
      "Ġhost": 4031,
      "Ġhook": 4032,
      "ann": 4033,
      "aning": 4034,
      "Ġdil": 4035,
      "Ġdust": 4036,
      "Ġdig": 4037,
      "Ġpaid": 4038,
      "Ġpains": 4039,
      "Ġpumps": 4040,
      "Ġlab": 4041,
      "Ġnav": 4042,
      "Ġnaked": 4043,
      "Ġthine": 4044,
      "Ġbeach": 4045,
      "Ġbeef": 4046,
      "iced": 4047,
      "icles": 4048,
      "icense": 4049,
      "seem": 4050,
      "Ġeat": 4051,
      "otch": 4052,
      "otted": 4053,
      "almost": 4054,
      "verted": 4055,
      "etr": 4056,
      "Ġstout": 4057,
      "Ġstarboard": 4058,
      "acher": 4059,
      "achel": 4060,
      "Ġfort": 4061,
      "Ġforget": 4062,
      "chief": 4063,
      "Ġshowed": 4064,
      "Ġsucceed": 4065,
      "ights": 4066,
      "thousand": 4067,
      "Ġupwards": 4068,
      "Ġru": 4069,
      "Ġrag": 4070,
      "emark": 4071,
      "Ġvague": 4072,
      "Ġspite": 4073,
      "Ġspect": 4074,
      "Ġbox": 4075,
      "Ġsave": 4076,
      "ĠPol": 4077,
      "Ġconn": 4078,
      "Ġconven": 4079,
      "Ġdeal": 4080,
      "Ġuncons": 4081,
      "poor": 4082,
      "Ġnoon": 4083,
      "Ġcomr": 4084,
      "idered": 4085,
      "orting": 4086,
      "Ġfee": 4087,
      "Ġwhenever": 4088,
      "Ġdoing": 4089,
      "Ġdoom": 4090,
      "ĠLiter": 4091,
      "ĠLondon": 4092,
      "Ġaband": 4093,
      "ctic": 4094,
      "ĠGabriel": 4095,
      "ĠMay": 4096,
      "Ġplaces": 4097,
      "avo": 4098,
      "tended": 4099,
      "Ġtrying": 4100,
      "ability": 4101,
      "Ġcanvas": 4102,
      "Ġharm": 4103,
      "Ġarr": 4104,
      "!âĢĿâĢĶ": 4105,
      "Ġgreater": 4106,
      "Ġimpossible": 4107,
      "Ġbrother": 4108,
      "Ġflame": 4109,
      "Ġswinging": 4110,
      "ĠRoman": 4111,
      "Ġowners": 4112,
      "Ġeverything": 4113,
      "mented": 4114,
      "ernal": 4115,
      "ounced": 4116,
      "merged": 4117,
      "Ġprincip": 4118,
      "Ġentered": 4119,
      "Ġinstance": 4120,
      "Ġknowing": 4121,
      "Ġwindow": 4122,
      "Ġwhalers": 4123,
      "strange": 4124,
      "Ġincre": 4125,
      "Ġnative": 4126,
      "Ġopening": 4127,
      "ientific": 4128,
      "Ġcapst": 4129,
      "Ġinstantly": 4130,
      "Ġstream": 4131,
      "Ġinvari": 4132,
      "Ġsupposed": 4133,
      "Ġminds": 4134,
      "lerable": 4135,
      "Ġfrantic": 4136,
      "Ġcharge": 4137,
      "Ġerect": 4138,
      "Thou": 4139,
      "Ġsatis": 4140,
      "Ġclosely": 4141,
      "Ġcontinually": 4142,
      "Ġdevils": 4143,
      "Ġsimultaneously": 4144,
      "Ġearthly": 4145,
      "Ġsuperstit": 4146,
      "Ġintellig": 4147,
      "Ġthousands": 4148,
      "gypt": 4149,
      "Ġfrost": 4150,
      "Ġcrossing": 4151,
      "Ġmurder": 4152,
      "Ġfriends": 4153,
      "Ġfairly": 4154,
      "Ġminute": 4155,
      "Ġchiefly": 4156,
      "Ġlatitudes": 4157,
      "Ġmounted": 4158,
      "Ġislands": 4159,
      "Ġencounter": 4160,
      "Ġencountered": 4161,
      "Ġbird": 4162,
      "Ġcapture": 4163,
      "Ġfierce": 4164,
      "attoo": 4165,
      "against": 4166,
      "ING": 4167,
      "called": 4168,
      "Ġmajest": 4169,
      "rific": 4170,
      "Ġschool": 4171,
      "Ġmarvellous": 4172,
      "Ġwrinkled": 4173,
      "Ġcounter": 4174,
      "Ġdeclared": 4175,
      "Ġpaused": 4176,
      "ĠAfter": 4177,
      "iloso": 4178,
      "Ġelephant": 4179,
      "Ġmissing": 4180,
      "Ġcorner": 4181,
      "Ġfrequently": 4182,
      "Ġsuccess": 4183,
      "Ġexample": 4184,
      "Ġemployed": 4185,
      "Ġinserted": 4186,
      "Ġprodigious": 4187,
      "Ġhideous": 4188,
      "Ġhorizontal": 4189,
      "IGHT": 4190,
      "Ġlungs": 4191,
      "Ġopinion": 4192,
      "Come": 4193,
      "ED": 4194,
      "Mo": 4195,
      "My": 4196,
      "RO": 4197,
      "SE": 4198,
      "Sir": 4199,
      "Upon": 4200,
      "bly": 4201,
      "bul": 4202,
      "bound": 4203,
      "cur": 4204,
      "cabin": 4205,
      "first": 4206,
      "hood": 4207,
      "joy": 4208,
      "kers": 4209,
      "liness": 4210,
      "mis": 4211,
      "moment": 4212,
      "oke": 4213,
      "pet": 4214,
      "say": 4215,
      "shar": 4216,
      "vation": 4217,
      "ww": 4218,
      "wed": 4219,
      "Ġerr": 4220,
      "Ġtar": 4221,
      "Ġain": 4222,
      "inate": 4223,
      "Ġsin": 4224,
      "Ġsac": 4225,
      "Ġsank": 4226,
      "Ġwhar": 4227,
      "hal": 4228,
      "Ġbent": 4229,
      "Ġbuck": 4230,
      "ision": 4231,
      "ispens": 4232,
      "lected": 4233,
      "itated": 4234,
      "Ġfly": 4235,
      "Ġcred": 4236,
      "Ġcoward": 4237,
      "Ġcivilized": 4238,
      "eng": 4239,
      "enge": 4240,
      "enance": 4241,
      "Ġinner": 4242,
      "Ġincluded": 4243,
      "sters": 4244,
      "stra": 4245,
      "stead": 4246,
      "Ġhit": 4247,
      "Ġhonest": 4248,
      "Ġdra": 4249,
      "Ġdare": 4250,
      "Ġdry": 4251,
      "Ġdumb": 4252,
      "Ġped": 4253,
      "Ġpred": 4254,
      "Ġprair": 4255,
      "Ġlif": 4256,
      "Ġlod": 4257,
      "Ġlist": 4258,
      "Ġnay": 4259,
      "Ġnur": 4260,
      "asing": 4261,
      "ashes": 4262,
      "Ġheave": 4263,
      "utable": 4264,
      "Ġbears": 4265,
      "ici": 4266,
      "icted": 4267,
      "Ġgay": 4268,
      "Ġgrew": 4269,
      "ĠII": 4270,
      "Ġstone": 4271,
      "aye": 4272,
      "Ġseventy": 4273,
      "Ġrever": 4274,
      "Ġrepl": 4275,
      "ceans": 4276,
      "kest": 4277,
      "keep": 4278,
      "ĠAh": 4279,
      "ĠAm": 4280,
      "ools": 4281,
      "ĠSha": 4282,
      "ĠSam": 4283,
      "ĠSund": 4284,
      "Ġweap": 4285,
      "amad": 4286,
      "astic": 4287,
      "Ġshri": 4288,
      "Ġshook": 4289,
      "iful": 4290,
      "ifying": 4291,
      "Ġnotice": 4292,
      "Ġsummer": 4293,
      "illy": 4294,
      "Ġrust": 4295,
      "Ġrushed": 4296,
      "Ġled": 4297,
      "ĠBible": 4298,
      "Ġvapor": 4299,
      "Ġmeant": 4300,
      "ĠCon": 4301,
      "ĠChar": 4302,
      "ĠCXXX": 4303,
      "Ġspend": 4304,
      "Ġsplin": 4305,
      "ĠWill": 4306,
      "antity": 4307,
      "Ġliken": 4308,
      "Ġconv": 4309,
      "used": 4310,
      "Ġdeemed": 4311,
      "Ġunivers": 4312,
      "Ġunaccountable": 4313,
      "aks": 4314,
      "rah": 4315,
      "rail": 4316,
      "Ġneither": 4317,
      "geon": 4318,
      "Ġjud": 4319,
      "Ġwhence": 4320,
      "Ġextern": 4321,
      "Ġworth": 4322,
      "Ġages": 4323,
      "ĠGree": 4324,
      "Ġproject": 4325,
      "Ġafraid": 4326,
      "udden": 4327,
      "Ġarch": 4328,
      "Ġholy": 4329,
      "ĠOf": 4330,
      "Ġthrow": 4331,
      "Ġlonger": 4332,
      "Ġenchan": 4333,
      "Ġimag": 4334,
      "Ġflames": 4335,
      "Ġscat": 4336,
      "Ġscientific": 4337,
      "ĠEu": 4338,
      "owsers": 4339,
      "Ġslid": 4340,
      "ĠJohn": 4341,
      "soci": 4342,
      "angs": 4343,
      "angu": 4344,
      "nothing": 4345,
      "Ġclam": 4346,
      "lands": 4347,
      "Ġenter": 4348,
      "Ġdeser": 4349,
      "gger": 4350,
      "Ġaccess": 4351,
      "Ġends": 4352,
      "unger": 4353,
      "Ġcrews": 4354,
      "suff": 4355,
      "Ġwhaler": 4356,
      "Ġtiller": 4357,
      "bergris": 4358,
      "Ġsurv": 4359,
      "Ġsurround": 4360,
      "Ġembr": 4361,
      "Ġburied": 4362,
      "Ġhorrible": 4363,
      "grand": 4364,
      "chang": 4365,
      "Ġstreets": 4366,
      "Ġinvisible": 4367,
      "Ġtouched": 4368,
      "Ġchanced": 4369,
      "ĠUp": 4370,
      "Ġmoving": 4371,
      "noon": 4372,
      "Ġkeeping": 4373,
      "Ġclean": 4374,
      "Ġpossess": 4375,
      "Ġdropping": 4376,
      "Ġattempt": 4377,
      "Ġsnug": 4378,
      "Ġcalls": 4379,
      "Though": 4380,
      "Ġsecure": 4381,
      "Ġcontinued": 4382,
      "sails": 4383,
      "Ġlads": 4384,
      "Ġoarsman": 4385,
      "Ġspecial": 4386,
      "Ġinfall": 4387,
      "atively": 4388,
      "Ġcalmly": 4389,
      "Ġseaman": 4390,
      "Ġcareful": 4391,
      "hands": 4392,
      "Ġcrossed": 4393,
      "Ġmurm": 4394,
      "Ġleaned": 4395,
      "Ġextreme": 4396,
      "uction": 4397,
      "Ġfreely": 4398,
      "ĠOnly": 4399,
      "Ġconfident": 4400,
      "raph": 4401,
      "Ġlaws": 4402,
      "Ġlatter": 4403,
      "untarily": 4404,
      "Ġofficer": 4405,
      "ĠSpan": 4406,
      "Ġmuttered": 4407,
      "Ġshadows": 4408,
      "Ġpalms": 4409,
      "_).": 4410,
      "Ġengra": 4411,
      "Ġengaged": 4412,
      "clock": 4413,
      "Ġmoody": 4414,
      "Ġaccompan": 4415,
      "Ġdescend": 4416,
      "Ġwrinkles": 4417,
      "Ġmilk": 4418,
      "Ġmentioned": 4419,
      "Ġtranqu": 4420,
      "Ġtransp": 4421,
      "command": 4422,
      "circum": 4423,
      "Ġfoolish": 4424,
      "Ġtroubled": 4425,
      "Ġprepared": 4426,
      "Ġarrived": 4427,
      "Ġposition": 4428,
      "Ġremarkable": 4429,
      "Ġserene": 4430,
      "Ġagreement": 4431,
      "earthly": 4432,
      "Ġdisappeared": 4433,
      "Ġcritical": 4434,
      "Ġsubsequent": 4435,
      "Ġfathoms": 4436,
      "Ġvirtue": 4437,
      "Ġexcellent": 4438,
      "ĠQueen": 4439,
      "Ġindirectly": 4440,
      "ĠLiterary": 4441,
      "Ġcapstan": 4442,
      "ispensable": 4443,
      "!_": 4444,
      ");": 4445,
      "Avast": 4446,
      "De": 4447,
      "Do": 4448,
      "First": 4449,
      "Gr": 4450,
      "Gutenberg": 4451,
      "IR": 4452,
      "Nantucket": 4453,
      "awn": 4454,
      "bid": 4455,
      "char": 4456,
      "cru": 4457,
      "dy": 4458,
      "dling": 4459,
      "ere": 4460,
      "eff": 4461,
      "fur": 4462,
      "fire": 4463,
      "gly": 4464,
      "gall": 4465,
      "good": 4466,
      "gment": 4467,
      "gener": 4468,
      "hor": 4469,
      "liest": 4470,
      "mid": 4471,
      "made": 4472,
      "necess": 4473,
      "pat": 4474,
      "pair": 4475,
      "rance": 4476,
      "tub": 4477,
      "tons": 4478,
      "uated": 4479,
      "wr": 4480,
      "wood": 4481,
      "ware": 4482,
      "zed": 4483,
      "zen": 4484,
      "Ġz": 4485,
      "Ġast": 4486,
      "Ġsad": 4487,
      "Ġsick": 4488,
      "Ġsinking": 4489,
      "Ġoath": 4490,
      "Ġwicked": 4491,
      "Ġbull": 4492,
      "Ġbale": 4493,
      "ites": 4494,
      "Ġmor": 4495,
      "Ġmir": 4496,
      "Ġmill": 4497,
      "Ġmuff": 4498,
      "Ġfate": 4499,
      "Ġfaces": 4500,
      "Ġfinger": 4501,
      "Ġfoul": 4502,
      "Ġfingers": 4503,
      "Ġcro": 4504,
      "enes": 4505,
      "org": 4506,
      "Ġinn": 4507,
      "Ġinno": 4508,
      "Ġincluding": 4509,
      "Ġinflu": 4510,
      "stre": 4511,
      "stantly": 4512,
      "anity": 4513,
      "Ġdost": 4514,
      "Ġdying": 4515,
      "Ġdifference": 4516,
      "Ġpall": 4517,
      "Ġpiled": 4518,
      "Ġling": 4519,
      "Ġlifted": 4520,
      "Ġnamed": 4521,
      "Ġnerv": 4522,
      "asping": 4523,
      "Ġhears": 4524,
      "utation": 4525,
      "Ġhail": 4526,
      "Ġbell": 4527,
      "imming": 4528,
      "Ġgained": 4529,
      "Ġeas": 4530,
      "alth": 4531,
      "alled": 4532,
      "almed": 4533,
      "idence": 4534,
      "vere": 4535,
      "Ġstar": 4536,
      "Ġstir": 4537,
      "Ġstubb": 4538,
      "acts": 4539,
      "Ġyes": 4540,
      "Ġyard": 4541,
      "Ġseven": 4542,
      "Ġasce": 4543,
      "Ġashes": 4544,
      "Ġasked": 4545,
      "Ġwhir": 4546,
      "Ġreas": 4547,
      "Ġreel": 4548,
      "Ġreach": 4549,
      "Ġreser": 4550,
      "oop": 4551,
      "ĠST": 4552,
      "Ġwelded": 4553,
      "amid": 4554,
      "ĠTur": 4555,
      "Ġshut": 4556,
      "ouses": 4557,
      "ĠĠĠĠĠĠĠĠĠĠĠĠĠĠĠĠĠĠĠĠ": 4558,
      "aph": 4559,
      "ipping": 4560,
      "Ġris": 4561,
      "Ġrain": 4562,
      "Ġrack": 4563,
      "arded": 4564,
      "arden": 4565,
      "agic": 4566,
      "agraph": 4567,
      "emin": 4568,
      "ĠBecause": 4569,
      "Ġvent": 4570,
      "Ġvenge": 4571,
      "Ġspace": 4572,
      "Ġspell": 4573,
      "Ġsplit": 4574,
      "unic": 4575,
      "unct": 4576,
      "Ġbol": 4577,
      "Ġconcluded": 4578,
      "Ġconsequ": 4579,
      "Ġthereby": 4580,
      "Ġunseen": 4581,
      "ĠHar": 4582,
      "ĠHigh": 4583,
      "istic": 4584,
      "atest": 4585,
      "loat": 4586,
      "respo": 4587,
      "Ġexh": 4588,
      "ĠLine": 4589,
      "ĠDel": 4590,
      "ĠGr": 4591,
      "Ġplung": 4592,
      "Ġpoints": 4593,
      "Ġpointing": 4594,
      "Ġprove": 4595,
      "Ġproved": 4596,
      "Ġroared": 4597,
      "Ġanywhere": 4598,
      "olio": 4599,
      "Ġknife": 4600,
      "Ġdownwards": 4601,
      "years": 4602,
      "estion": 4603,
      "Ġcoll": 4604,
      "Ġcover": 4605,
      "ĠOr": 4606,
      "venge": 4607,
      "Ġenvelo": 4608,
      "Ġflat": 4609,
      "Ġscor": 4610,
      "ĠEx": 4611,
      "ĠElijah": 4612,
      "lique": 4613,
      "coast": 4614,
      "onsider": 4615,
      "ĠRamad": 4616,
      "igned": 4617,
      "Ġwhereas": 4618,
      "Ġglad": 4619,
      "formed": 4620,
      "Ġourselves": 4621,
      "Ġshoulders": 4622,
      "ernsey": 4623,
      "Ġclim": 4624,
      "Ġclouds": 4625,
      "Ġlock": 4626,
      "Ġprim": 4627,
      "vessel": 4628,
      "Ġmater": 4629,
      "Ġinstinct": 4630,
      "Ġconscious": 4631,
      "Ġconscience": 4632,
      "ggy": 4633,
      "Ġaccur": 4634,
      "Ġdisting": 4635,
      "Ġpresently": 4636,
      "near": 4637,
      "Ġfully": 4638,
      "Ġlighted": 4639,
      "Ġheaved": 4640,
      "Ġsetting": 4641,
      "Ġmonstr": 4642,
      "Ġmonths": 4643,
      "Ġmonkey": 4644,
      "Ġmoments": 4645,
      "Ġapplic": 4646,
      "Ġsooner": 4647,
      "Ġcircles": 4648,
      "aneous": 4649,
      "Ġhelped": 4650,
      "Ġfeels": 4651,
      "Ġsweep": 4652,
      "Ġburning": 4653,
      "Ġspouting": 4654,
      "Ġelement": 4655,
      "Ġreadily": 4656,
      "devil": 4657,
      "Ġwarp": 4658,
      "Ġfloats": 4659,
      "Ġhumor": 4660,
      "Ġspear": 4661,
      "ĠUpon": 4662,
      "Ġhatch": 4663,
      "Ġcrazy": 4664,
      "Ġactually": 4665,
      "opard": 4666,
      "ission": 4667,
      "Ġsounds": 4668,
      "Ġresting": 4669,
      "Ġdelic": 4670,
      "Ġdelight": 4671,
      "Ġdeliber": 4672,
      "Ġnews": 4673,
      "black": 4674,
      "Ġsecured": 4675,
      "Ġcontinual": 4676,
      "Ġfamily": 4677,
      "Ġfrig": 4678,
      "Ġinfer": 4679,
      "Ġverd": 4680,
      "Ġintent": 4681,
      "standing": 4682,
      "knife": 4683,
      "regation": 4684,
      "Ġdirection": 4685,
      "Ġundul": 4686,
      "Ġdeparted": 4687,
      "Ġhappens": 4688,
      "Ġhappened": 4689,
      "Ġparagraph": 4690,
      "Ġnumerous": 4691,
      "whole": 4692,
      "Ġbooks": 4693,
      "precise": 4694,
      "Ġspray": 4695,
      "Ġutmost": 4696,
      "Ġbreakfast": 4697,
      "Ġlatitude": 4698,
      "Ġrecord": 4699,
      "Ġdarting": 4700,
      "Ġphren": 4701,
      "Ġleaping": 4702,
      "Ġleaped": 4703,
      "Ġbelonged": 4704,
      "Ġspoken": 4705,
      "Ġslightly": 4706,
      "Ġregularly": 4707,
      "Ġcarrying": 4708,
      "ĠTran": 4709,
      "Ġbursting": 4710,
      "Ġpulled": 4711,
      "Ġfalling": 4712,
      "Ġconceit": 4713,
      "Ġwhispered": 4714,
      "Ġmysterious": 4715,
      "Ġsilver": 4716,
      "Ġcorpse": 4717,
      "Ġprobably": 4718,
      "Ġutterly": 4719,
      "Ġtongue": 4720,
      "Ġtravell": 4721,
      "harpooneer": 4722,
      "Ġhoops": 4723,
      "Ġfashion": 4724,
      "Ġwithdraw": 4725,
      "Ġperceived": 4726,
      "Ġelevated": 4727,
      "Ġprivate": 4728,
      "Ġdangerous": 4729,
      "Ġhorror": 4730,
      "Ġlonely": 4731,
      "Ġcomprehe": 4732,
      "buoy": 4733,
      "Ġmonomaniac": 4734,
      "ranean": 4735,
      "Ġbecomes": 4736,
      "between": 4737,
      "uvier": 4738,
      "ĠPolar": 4739,
      "Moby": 4740,
      "Ġprairie": 4741,
      "Ġexternal": 4742,
      "Ġenchanted": 4743,
      "changel": 4744,
      "AD": 4745,
      "AG": 4746,
      "Can": 4747,
      "His": 4748,
      "IC": 4749,
      "Nevertheless": 4750,
      "One": 4751,
      "Pro": 4752,
      "Post": 4753,
      "Se": 4754,
      "_;": 4755,
      "aly": 4756,
      "aver": 4757,
      "bors": 4758,
      "born": 4759,
      "cap": 4760,
      "came": 4761,
      "case": 4762,
      "dr": 4763,
      "del": 4764,
      "dered": 4765,
      "een": 4766,
      "ech": 4767,
      "fre": 4768,
      "give": 4769,
      "gutenberg": 4770,
      "jaw": 4771,
      "lay": 4772,
      "live": 4773,
      "lings": 4774,
      "lifted": 4775,
      "may": 4776,
      "mper": 4777,
      "mark": 4778,
      "mbl": 4779,
      "morrow": 4780,
      "nal": 4781,
      "open": 4782,
      "olent": 4783,
      "peculiar": 4784,
      "sk": 4785,
      "ties": 4786,
      "tling": 4787,
      "try": 4788,
      "towards": 4789,
      "uished": 4790,
      "voyage": 4791,
      "word": 4792,
      "whether": 4793,
      "whaling": 4794,
      "xter": 4795,
      "xman": 4796,
      "zing": 4797,
      "ĠZ": 4798,
      "Ġtig": 4799,
      "Ġtrop": 4800,
      "Ġtamb": 4801,
      "Ġtaste": 4802,
      "Ġtattoo": 4803,
      "hew": 4804,
      "Ġax": 4805,
      "Ġawe": 4806,
      "Ġslo": 4807,
      "Ġsway": 4808,
      "Ġsize": 4809,
      "Ġsadly": 4810,
      "Ġomn": 4811,
      "Ġought": 4812,
      "Ġwine": 4813,
      "rehens": 4814,
      "ham": 4815,
      "hast": 4816,
      "iscu": 4817,
      "length": 4818,
      "lence": 4819,
      "lephan": 4820,
      "itality": 4821,
      "oub": 4822,
      "ouch": 4823,
      "ouching": 4824,
      "Ġmult": 4825,
      "eder": 4826,
      "Ġfal": 4827,
      "Ġfaint": 4828,
      "Ġcre": 4829,
      "Ġcou": 4830,
      "Ġcost": 4831,
      "Ġcod": 4832,
      "Ġcask": 4833,
      "Ġcup": 4834,
      "enial": 4835,
      "ork": 4836,
      "arwhale": 4837,
      "Ġincl": 4838,
      "Ġinsc": 4839,
      "Ġinfinite": 4840,
      "Ġhy": 4841,
      "Ġhill": 4842,
      "Ġhue": 4843,
      "aned": 4844,
      "Ġtoil": 4845,
      "Ġtooth": 4846,
      "Ġdome": 4847,
      "Ġdish": 4848,
      "Ġdamp": 4849,
      "Ġdense": 4850,
      "Ġdiff": 4851,
      "Ġpure": 4852,
      "Ġpier": 4853,
      "Ġpicked": 4854,
      "Ġpagan": 4855,
      "omy": 4856,
      "Ġlip": 4857,
      "Ġnations": 4858,
      "Ġthither": 4859,
      "Ġthinks": 4860,
      "Ġhell": 4861,
      "Ġhero": 4862,
      "Ġharem": 4863,
      "Ġbeg": 4864,
      "seus": 4865,
      "ima": 4866,
      "Ġgain": 4867,
      "Ġeating": 4868,
      "ottle": 4869,
      "ĠIN": 4870,
      "ĠIII": 4871,
      "allest": 4872,
      "idity": 4873,
      "eted": 4874,
      "etology": 4875,
      "Ġstars": 4876,
      "ads": 4877,
      "ader": 4878,
      "rolling": 4879,
      "âĢĶ_": 4880,
      "âĢĶâĢĺ": 4881,
      "Ġascri": 4882,
      "Ġassoci": 4883,
      "Ġisles": 4884,
      "Ġrepose": 4885,
      "Ġreaching": 4886,
      "cep": 4887,
      "oored": 4888,
      "ooped": 4889,
      "iliar": 4890,
      "chn": 4891,
      "child": 4892,
      "Ġanat": 4893,
      "ama": 4894,
      "Ġattend": 4895,
      "oreover": 4896,
      "ĠTun": 4897,
      "asts": 4898,
      "ĠĠĠĠĠĠĠĠĠĠĠĠĠĠĠĠĠĠĠĠĠĠ": 4899,
      "thus": 4900,
      "Ġupright": 4901,
      "Ġrich": 4902,
      "Ġrushing": 4903,
      "agon": 4904,
      "agues": 4905,
      "ĠBo": 4906,
      "ĠBr": 4907,
      "Ġvivid": 4908,
      "Ġmel": 4909,
      "Ġmeas": 4910,
      "Ġmeets": 4911,
      "ĠCuvier": 4912,
      "ĠWest": 4913,
      "ĠWhether": 4914,
      "Ġboots": 4915,
      "ounding": 4916,
      "Ġconve": 4917,
      "usk": 4918,
      "usiness": 4919,
      "Ġdexter": 4920,
      "Ġunearthly": 4921,
      "pole": 4922,
      "Ġkings": 4923,
      "inds": 4924,
      "ĠFishery": 4925,
      "Ġshipmate": 4926,
      "ĠThese": 4927,
      "abled": 4928,
      "Ġexist": 4929,
      "Ġexpl": 4930,
      "Ġexhaust": 4931,
      "Ġlikewise": 4932,
      "ĠLoose": 4933,
      "ĠDough": 4934,
      "ĠDerick": 4935,
      "ĠGe": 4936,
      "ĠGood": 4937,
      "Ġproble": 4938,
      "Ġrod": 4939,
      "Ġtrowsers": 4940,
      "lingly": 4941,
      "ndering": 4942,
      "Ġcanoe": 4943,
      "bered": 4944,
      "ourine": 4945,
      "Ġherd": 4946,
      "many": 4947,
      "Ġquad": 4948,
      "Ġquantity": 4949,
      "Ġhosp": 4950,
      "Ġambergris": 4951,
      "ĠOR": 4952,
      "Ġparty": 4953,
      "Ġpartly": 4954,
      "hog": 4955,
      "Ġenjoy": 4956,
      "Ġgrad": 4957,
      "Ġimage": 4958,
      "Ġseek": 4959,
      "spec": 4960,
      "Ġflank": 4961,
      "Ġcompan": 4962,
      "Ġslain": 4963,
      "Ġadvent": 4964,
      "Ġshake": 4965,
      "Ġglist": 4966,
      "Ġgliding": 4967,
      "orses": 4968,
      "Ġindifferent": 4969,
      "Ġremember": 4970,
      "Ġremorse": 4971,
      "Ġremoved": 4972,
      "Ġfold": 4973,
      "Ġclass": 4974,
      "Ġlocked": 4975,
      "ouncing": 4976,
      "Ġobvious": 4977,
      "Ġdesperate": 4978,
      "Ġchased": 4979,
      "box": 4980,
      "comple": 4981,
      "comfort": 4982,
      "Ġcarved": 4983,
      "Ġconsidered": 4984,
      "Ġende": 4985,
      "neez": 4986,
      "Ġmarble": 4987,
      "Ġlanded": 4988,
      "Ġsunrise": 4989,
      "airs": 4990,
      "supp": 4991,
      "Ġletters": 4992,
      "Ġinterior": 4993,
      "Ġbroke": 4994,
      "Ġpeep": 4995,
      "conc": 4996,
      "Ġimpat": 4997,
      "Ġapparent": 4998,
      "Ġsights": 4999,
      "Ġearly": 5000,
      "ĠNantucketers": 5001,
      "Ġblackness": 5002,
      "Ġwritten": 5003,
      "Ġspermaceti": 5004,
      "Ġdonations": 5005,
      "uffalo": 5006,
      "Ġcaps": 5007,
      "Ġvoyages": 5008,
      "change": 5009,
      "Ġstreet": 5010,
      "Ġstrip": 5011,
      "Stand": 5012,
      "Ġterrific": 5013,
      "Ġbreaking": 5014,
      "prof": 5015,
      "Ġsinging": 5016,
      "Ġfrag": 5017,
      "Ġattack": 5018,
      "Ġ17": 5019,
      "Ġreplied": 5020,
      "Ġsounding": 5021,
      "Thus": 5022,
      "ivering": 5023,
      "Ġsquee": 5024,
      "identally": 5025,
      "Ġcentral": 5026,
      "Ġladies": 5027,
      "Ġacqu": 5028,
      "Ġfearful": 5029,
      "Ġadvanced": 5030,
      "Ġretreat": 5031,
      "Ġreturned": 5032,
      "Ġverte": 5033,
      "Ġinsult": 5034,
      "iffs": 5035,
      "Ġcruel": 5036,
      "Ġfleet": 5037,
      "Ġcountenance": 5038,
      "Ġtowing": 5039,
      "Ġtempest": 5040,
      "Ġcontrary": 5041,
      "Ġbitter": 5042,
      "Ġextrem": 5043,
      "Ġappear": 5044,
      "Ġequator": 5045,
      "Ġsteadily": 5046,
      "cannot": 5047,
      "Ġwaif": 5048,
      "Ġwaist": 5049,
      "Ġplease": 5050,
      "Ġpleasant": 5051,
      "Ġsprang": 5052,
      "Ġtriump": 5053,
      "Ġphiloso": 5054,
      "Ġlimbs": 5055,
      "Ġgreatest": 5056,
      "Ġbarrels": 5057,
      "Ġcatch": 5058,
      "Ġdeterm": 5059,
      "Ġlovely": 5060,
      "Ġsalt": 5061,
      "Ġbirds": 5062,
      "Ġremaining": 5063,
      "oresby": 5064,
      "ISH": 5065,
      "Ġadditional": 5066,
      "_).âĢĶ": 5067,
      "Ġnarrative": 5068,
      "Ġadmir": 5069,
      "Ġdiscovered": 5070,
      "ĠQuaker": 5071,
      "Ġpulpit": 5072,
      "Ġaccompl": 5073,
      "Ġodd": 5074,
      "ANT": 5075,
      "Ġfirmly": 5076,
      "Ġpainted": 5077,
      "ĠAfric": 5078,
      "Ġsmells": 5079,
      "Ġtrouble": 5080,
      "fellow": 5081,
      "formation": 5082,
      "batross": 5083,
      "Ġrecogn": 5084,
      "Ġblanket": 5085,
      "Ġtrademark": 5086,
      "watch": 5087,
      "yramid": 5088,
      "Ġpractical": 5089,
      "Ġcenturies": 5090,
      "ypho": 5091,
      "ĠeBook": 5092,
      "Ġjeopard": 5093,
      "ĠArchive": 5094,
      "Ġsocial": 5095,
      "Ġbarbaric": 5096,
      "ienced": 5097,
      "Ġcustomary": 5098,
      "ĠGuernsey": 5099,
      "Ġponderous": 5100,
      "Ġresolved": 5101,
      "Ġmortals": 5102,
      "Ġmethod": 5103,
      "Ġunusual": 5104,
      "Ġnaturally": 5105,
      "given": 5106,
      "Ġconnected": 5107,
      "uddenly": 5108,
      "Ġmurmured": 5109,
      "Ġreasons": 5110,
      "Ġmonstrous": 5111,
      "Ġtambourine": 5112,
      "AM": 5113,
      "An": 5114,
      "Go": 5115,
      "Good": 5116,
      "Greenland": 5117,
      "ID": 5118,
      "OD": 5119,
      "OW": 5120,
      "Of": 5121,
      "Per": 5122,
      "Right": 5123,
      "ST": 5124,
      "Such": 5125,
      "TH": 5126,
      "Take": 5127,
      "Very": 5128,
      "bast": 5129,
      "bec": 5130,
      "bers": 5131,
      "bol": 5132,
      "both": 5133,
      "business": 5134,
      "cor": 5135,
      "cated": 5136,
      "count": 5137,
      "dec": 5138,
      "div": 5139,
      "dering": 5140,
      "ees": 5141,
      "eal": 5142,
      "easy": 5143,
      "fat": 5144,
      "four": 5145,
      "fold": 5146,
      "gress": 5147,
      "iqu": 5148,
      "iance": 5149,
      "iences": 5150,
      "lar": 5151,
      "living": 5152,
      "mal": 5153,
      "mur": 5154,
      "main": 5155,
      "mber": 5156,
      "mouth": 5157,
      "morning": 5158,
      "magn": 5159,
      "opp": 5160,
      "put": 5161,
      "ply": 5162,
      "pur": 5163,
      "pher": 5164,
      "pipe": 5165,
      "rus": 5166,
      "rup": 5167,
      "running": 5168,
      "som": 5169,
      "sim": 5170,
      "sight": 5171,
      "sort": 5172,
      "said": 5173,
      "tem": 5174,
      "vings": 5175,
      "vice": 5176,
      "ws": 5177,
      "wre": 5178,
      "wond": 5179,
      "Ġtight": 5180,
      "hest": 5181,
      "Ġable": 5182,
      "Ġaught": 5183,
      "ino": 5184,
      "Ġox": 5185,
      "Ġoceans": 5186,
      "Ġwing": 5187,
      "Ġwore": 5188,
      "Ġwren": 5189,
      "Ġwomen": 5190,
      "rec": 5191,
      "hamm": 5192,
      "ergy": 5193,
      "Ġban": 5194,
      "Ġbun": 5195,
      "Ġbra": 5196,
      "Ġbare": 5197,
      "Ġbrawn": 5198,
      "Ġbench": 5199,
      "itled": 5200,
      "itation": 5201,
      "outer": 5202,
      "ouded": 5203,
      "Ġmechan": 5204,
      "Ġfan": 5205,
      "Ġfood": 5206,
      "Ġfare": 5207,
      "Ġcub": 5208,
      "aries": 5209,
      "arpenter": 5210,
      "stood": 5211,
      "stical": 5212,
      "Ġhorses": 5213,
      "anes": 5214,
      "atural": 5215,
      "Ġdi": 5216,
      "Ġdived": 5217,
      "Ġpin": 5218,
      "Ġpill": 5219,
      "Ġpaint": 5220,
      "Ġpiece": 5221,
      "omical": 5222,
      "Ġlift": 5223,
      "Ġlangu": 5224,
      "Ġnail": 5225,
      "Ġnaught": 5226,
      "Ġnames": 5227,
      "Ġthrew": 5228,
      "Ġthread": 5229,
      "asper": 5230,
      "Ġhearing": 5231,
      "ution": 5232,
      "icip": 5233,
      "icks": 5234,
      "seam": 5235,
      "sect": 5236,
      "Ġga": 5237,
      "Ġgul": 5238,
      "Ġep": 5239,
      "otest": 5240,
      "idly": 5241,
      "ethe": 5242,
      "Ġstay": 5243,
      "Ġstairs": 5244,
      "acting": 5245,
      "enth": 5246,
      "ental": 5247,
      "ential": 5248,
      "Ġsem": 5249,
      "road": 5250,
      "rolled": 5251,
      "royal": 5252,
      "Ġassu": 5253,
      "Ġforce": 5254,
      "Ġforge": 5255,
      "Ġforming": 5256,
      "Ġforgot": 5257,
      "Ġresp": 5258,
      "Ġrestr": 5259,
      "ĠSag": 5260,
      "among": 5261,
      "ĠTem": 5262,
      "ĠTown": 5263,
      "ĠTake": 5264,
      "quar": 5265,
      "question": 5266,
      "Ġnoticed": 5267,
      "Ġsuck": 5268,
      "Ġyouth": 5269,
      "Ġbye": 5270,
      "apple": 5271,
      "apsed": 5272,
      "Ġrail": 5273,
      "ems": 5274,
      "ĠBur": 5275,
      "ĠBunger": 5276,
      "Ġvice": 5277,
      "Ġvial": 5278,
      "Ġvener": 5279,
      "Ġmeat": 5280,
      "ĠCoffin": 5281,
      "Ġspade": 5282,
      "ckets": 5283,
      "ĠWas": 5284,
      "Ġwheel": 5285,
      "Ġsafe": 5286,
      "ĠPorpoise": 5287,
      "Ġlived": 5288,
      "ostri": 5289,
      "Ġconne": 5290,
      "Ġconcluding": 5291,
      "umn": 5292,
      "usive": 5293,
      "Ġaltern": 5294,
      "Ġmanned": 5295,
      "Ġmankind": 5296,
      "Ġdear": 5297,
      "Ġunin": 5298,
      "Ġuncertain": 5299,
      "Ġunspeak": 5300,
      "point": 5301,
      "ĠHist": 5302,
      "often": 5303,
      "perhaps": 5304,
      "Ġtheirs": 5305,
      "Ġneigh": 5306,
      "ĠFather": 5307,
      "Ġfeeding": 5308,
      "ĠStill": 5309,
      "Ġshipped": 5310,
      "loom": 5311,
      "loss": 5312,
      "locity": 5313,
      "Ġjer": 5314,
      "ineyard": 5315,
      "Ġexpen": 5316,
      "Ġdoll": 5317,
      "ishn": 5318,
      "ishment": 5319,
      "ucks": 5320,
      "ivered": 5321,
      "Ġagg": 5322,
      "Ġmoreover": 5323,
      "ctavo": 5324,
      "Ġplum": 5325,
      "Ġpocket": 5326,
      "Ġprolong": 5327,
      "Ġprospect": 5328,
      "ept": 5329,
      "Ġafloat": 5330,
      "uding": 5331,
      "Ġcanst": 5332,
      "Ġcanal": 5333,
      "Ġharbor": 5334,
      "Ġtwice": 5335,
      "Ġtwisted": 5336,
      "Ġstranded": 5337,
      "Ġheading": 5338,
      "Ġhandle": 5339,
      "arsh": 5340,
      "Ġarchangel": 5341,
      "Ġhovering": 5342,
      "Ġcoin": 5343,
      "Ġcovered": 5344,
      "Ġcoils": 5345,
      "order": 5346,
      "Ġperch": 5347,
      "Ġpreced": 5348,
      "Ġprelim": 5349,
      "Ġseeking": 5350,
      "spout": 5351,
      "spread": 5352,
      "spring": 5353,
      "spikes": 5354,
      "Ġflour": 5355,
      "Ġoffice": 5356,
      "Ġmostly": 5357,
      "ĠEqu": 5358,
      "ĠEgypt": 5359,
      "Ġhowling": 5360,
      "Ġsliding": 5361,
      "cop": 5362,
      "ĠRo": 5363,
      "Ġdispl": 5364,
      "Ġcrack": 5365,
      "Ġcrotch": 5366,
      "ĠJove": 5367,
      "Ġglancing": 5368,
      "Ġglimp": 5369,
      "forming": 5370,
      "Ġremem": 5371,
      "Ġremote": 5372,
      "soever": 5373,
      "angel": 5374,
      "Ġcontem": 5375,
      "Ġcontact": 5376,
      "Ġkey": 5377,
      "Ġclum": 5378,
      "Ġloom": 5379,
      "Ġloaded": 5380,
      "ounce": 5381,
      "Ġobl": 5382,
      "Ġoblique": 5383,
      "Ġproud": 5384,
      "Ġbacks": 5385,
      "Ġdesign": 5386,
      "Ġchair": 5387,
      "coming": 5388,
      "Ġchim": 5389,
      "Ġsteering": 5390,
      "within": 5391,
      "upper": 5392,
      "ends": 5393,
      "ended": 5394,
      "Ġskill": 5395,
      "Ġletter": 5396,
      "Ġcommotion": 5397,
      "Ġirres": 5398,
      "Ġdrugg": 5399,
      "Ġsettle": 5400,
      "Ġsettled": 5401,
      "Ġappalling": 5402,
      "Ġapprehens": 5403,
      "tracted": 5404,
      ",âĢĶâĢľ": 5405,
      "sterday": 5406,
      "Ġsweeping": 5407,
      "Ġopened": 5408,
      "Ġtechn": 5409,
      "Ġelastic": 5410,
      "ĠĠĠĠĠĠĠĠĠĠĠĠĠĠĠĠĠĠĠĠĠĠĠĠĠĠĠĠĠĠĠĠĠ": 5411,
      "Ġjob": 5412,
      "Ġconcent": 5413,
      "however": 5414,
      "Ġsigns": 5415,
      "Ġcorrect": 5416,
      "Ġcorrespo": 5417,
      "Ġsnuff": 5418,
      "Ġhearse": 5419,
      "Ġforms": 5420,
      "Ġrepresent": 5421,
      "olding": 5422,
      "Ġcalling": 5423,
      "Ġshortly": 5424,
      "seeing": 5425,
      "Ġlively": 5426,
      "agger": 5427,
      "Ġsavages": 5428,
      "Ġsmooth": 5429,
      "Ġstraits": 5430,
      "Ġwanting": 5431,
      "Ġlesson": 5432,
      "Ġneedle": 5433,
      "Ġcommander": 5434,
      "Ġcourage": 5435,
      "holding": 5436,
      "Ġvert": 5437,
      "Ġarticles": 5438,
      "Ġpitched": 5439,
      "sternation": 5440,
      "msman": 5441,
      "Ġawa": 5442,
      "Ġmerry": 5443,
      "Ġcarefully": 5444,
      "ĠHowever": 5445,
      "ĠMrs": 5446,
      "counted": 5447,
      "Ġelsewhere": 5448,
      "Ġstraightway": 5449,
      "Ġobjects": 5450,
      "Ġmurde": 5451,
      "Ġdrive": 5452,
      "Ġextra": 5453,
      "Ġobserve": 5454,
      "Ġrelieved": 5455,
      "Ġproperty": 5456,
      "Ġsteadfast": 5457,
      "chains": 5458,
      "uggling": 5459,
      "Ġmildly": 5460,
      "Ġaccounts": 5461,
      "Ġprophet": 5462,
      "Ġprior": 5463,
      "Soon": 5464,
      "lasting": 5465,
      "ĠAny": 5466,
      "Ġblinds": 5467,
      "Ġnaturalists": 5468,
      "Ġbirth": 5469,
      "Ġdemon": 5470,
      "Ġdemanded": 5471,
      "Ġvelocity": 5472,
      "ĠTrue": 5473,
      "Ġnarrow": 5474,
      "Ġleading": 5475,
      "Ġmeeting": 5476,
      "Ġsilently": 5477,
      "ĠManxman": 5478,
      "Ġlaug": 5479,
      "Ġshroud": 5480,
      "âĢĶâĢĶâĢĶâĢĶ": 5481,
      "Ġrequire": 5482,
      "Ġthrusting": 5483,
      "Ġchildren": 5484,
      "Ġoccasionally": 5485,
      "Ġheathen": 5486,
      "Ġexperienced": 5487,
      "Ġdawn": 5488,
      "Ġpausing": 5489,
      "Ġexclam": 5490,
      "Ġexclaimed": 5491,
      "Ġexceeding": 5492,
      "Ġderived": 5493,
      "Ġelephants": 5494,
      "Ġmotions": 5495,
      "Ġspiritual": 5496,
      "Ġignorance": 5497,
      "ĠScoresby": 5498,
      "Ġvigil": 5499,
      "harpooneers": 5500,
      "AST": 5501,
      "Ġrumors": 5502,
      "Ġsignificant": 5503,
      "ĠMeantime": 5504,
      "ĠMeanwhile": 5505,
      "Ġoccurred": 5506,
      "broken": 5507,
      "Ġtumult": 5508,
      "Ġsullen": 5509,
      "Ġimmediately": 5510,
      "Ġclothes": 5511,
      "Ġsurprise": 5512,
      "Ġtemporary": 5513,
      "Ġpapers": 5514,
      "Ġfeatures": 5515,
      "Ġfowls": 5516,
      "Ġgrinning": 5517,
      "Ġdestroyed": 5518,
      "Ġcaused": 5519,
      "Ġinvariably": 5520,
      "Ġwharf": 5521,
      "straight": 5522,
      "Ġscattered": 5523,
      "Ġinfallibly": 5524,
      "gallant": 5525,
      "Ġaston": 5526,
      "Ġnervous": 5527,
      "ĠDelight": 5528,
      "ĠRamadan": 5529,
      "Ġmaterial": 5530,
      "Ġtraveller": 5531,
      "ĠGeorge": 5532,
      "bastian": 5533,
      "Ġglimpse": 5534,
      ";âĢĿ": 5535,
      "AB": 5536,
      "AC": 5537,
      "Ar": 5538,
      "Americ": 5539,
      "Bildad": 5540,
      "Ch": 5541,
      "Ere": 5542,
      "Eng": 5543,
      "IM": 5544,
      "Jonah": 5545,
      "Like": 5546,
      "Man": 5547,
      "UT": 5548,
      "UCK": 5549,
      "ault": 5550,
      "auty": 5551,
      "bing": 5552,
      "bar": 5553,
      "bra": 5554,
      "bene": 5555,
      "bowed": 5556,
      "bbed": 5557,
      "bottom": 5558,
      "because": 5559,
      "cence": 5560,
      "ciously": 5561,
      "dom": 5562,
      "dig": 5563,
      "dest": 5564,
      "dark": 5565,
      "eur": 5566,
      "fle": 5567,
      "fit": 5568,
      "fall": 5569,
      "flo": 5570,
      "five": 5571,
      "free": 5572,
      "gentle": 5573,
      "hour": 5574,
      "iot": 5575,
      "iard": 5576,
      "iers": 5577,
      "iate": 5578,
      "lite": 5579,
      "lime": 5580,
      "lph": 5581,
      "min": 5582,
      "mir": 5583,
      "mist": 5584,
      "make": 5585,
      "nett": 5586,
      "os": 5587,
      "oon": 5588,
      "ocean": 5589,
      "pot": 5590,
      "pri": 5591,
      "pieces": 5592,
      "rim": 5593,
      "son": 5594,
      "sal": 5595,
      "sol": 5596,
      "sign": 5597,
      "skin": 5598,
      "sneez": 5599,
      "tar": 5600,
      "till": 5601,
      "table": 5602,
      "taking": 5603,
      "uv": 5604,
      "uke": 5605,
      "uled": 5606,
      "uously": 5607,
      "visible": 5608,
      "went": 5609,
      "wild": 5610,
      "Ġ3": 5611,
      "Ġ4": 5612,
      "Ġ5": 5613,
      "ĠâĢ": 5614,
      "Ġic": 5615,
      "Ġtun": 5616,
      "Ġtide": 5617,
      "Ġtied": 5618,
      "heav": 5619,
      "Ġaud": 5620,
      "Ġaug": 5621,
      "Ġavast": 5622,
      "ina": 5623,
      "Ġsand": 5624,
      "Ġoak": 5625,
      "Ġwet": 5626,
      "Ġwave": 5627,
      "Ġwilt": 5628,
      "Ġwinter": 5629,
      "Ġwww": 5630,
      "happ": 5631,
      "erity": 5632,
      "erved": 5633,
      "Ġbump": 5634,
      "Ġbank": 5635,
      "Ġbarr": 5636,
      "isto": 5637,
      "ishes": 5638,
      "itle": 5639,
      "oung": 5640,
      "ouched": 5641,
      "Ġmiz": 5642,
      "Ġmock": 5643,
      "Ġmixed": 5644,
      "Ġminc": 5645,
      "Ġfoun": 5646,
      "Ġfitted": 5647,
      "Ġfavor": 5648,
      "Ġchat": 5649,
      "Ġcable": 5650,
      "Ġcell": 5651,
      "Ġcream": 5652,
      "Ġcaut": 5653,
      "orig": 5654,
      "orial": 5655,
      "orical": 5656,
      "Ġinvent": 5657,
      "lland": 5658,
      "Ġhol": 5659,
      "Ġhints": 5660,
      "anim": 5661,
      "another": 5662,
      "athered": 5663,
      "Ġtore": 5664,
      "Ġdive": 5665,
      "Ġpor": 5666,
      "Ġpound": 5667,
      "Ġpity": 5668,
      "Ġpour": 5669,
      "Ġpath": 5670,
      "Ġpaced": 5671,
      "Ġpowder": 5672,
      "Ġpyramid": 5673,
      "omon": 5674,
      "omage": 5675,
      "Ġlit": 5676,
      "Ġlid": 5677,
      "Ġlake": 5678,
      "Ġlashed": 5679,
      "Ġlaun": 5680,
      "Ġnailed": 5681,
      "Ġthreat": 5682,
      "Ġthigh": 5683,
      "Ġhered": 5684,
      "Ġheel": 5685,
      "ĠĠĠĠĠĠĠĠĠĠĠĠ": 5686,
      "Ġhabit": 5687,
      "Ġbeer": 5688,
      "Ġbeget": 5689,
      "Ġbeauty": 5690,
      "icle": 5691,
      "sec": 5692,
      "secut": 5693,
      "Ġge": 5694,
      "Ġginger": 5695,
      "Ġgaining": 5696,
      "otions": 5697,
      "along": 5698,
      "idge": 5699,
      "vert": 5700,
      "Ġstuck": 5701,
      "Ġstark": 5702,
      "Ġstump": 5703,
      "acity": 5704,
      "entous": 5705,
      "Ġsending": 5706,
      "Ġsearch": 5707,
      "Ġwithstand": 5708,
      "Ġask": 5709,
      "Ġisol": 5710,
      "Ġren": 5711,
      "Ġrejo": 5712,
      "Ġreference": 5713,
      "Ġrevenge": 5714,
      "ĠAnt": 5715,
      "oof": 5716,
      "ĠSl": 5717,
      "ĠSqu": 5718,
      "Ġwel": 5719,
      "Ġanx": 5720,
      "Ġanon": 5721,
      "ĠTypho": 5722,
      "Ġsoot": 5723,
      "romed": 5724,
      "Ġsum": 5725,
      "allers": 5726,
      "alloa": 5727,
      "aping": 5728,
      "ipper": 5729,
      "uls": 5730,
      "Ġrad": 5731,
      "Ġrage": 5732,
      "ements": 5733,
      "Ġvict": 5734,
      "Ġvital": 5735,
      "Ġspar": 5736,
      "Ġspark": 5737,
      "ĠWhaling": 5738,
      "unity": 5739,
      "Ġboom": 5740,
      "elkilt": 5741,
      "ĠPE": 5742,
      "ĠPagan": 5743,
      "ĠPlat": 5744,
      "ĠPhil": 5745,
      "Ġconsp": 5746,
      "usions": 5747,
      "Ġalike": 5748,
      "Ġdece": 5749,
      "Ġunct": 5750,
      "Ġunex": 5751,
      "ĠHer": 5752,
      "ĠHad": 5753,
      "ĠHence": 5754,
      "offe": 5755,
      "akened": 5756,
      "raits": 5757,
      "inding": 5758,
      "igw": 5759,
      "Ġnest": 5760,
      "ooded": 5761,
      "ĠFOR": 5762,
      "gest": 5763,
      "Ġyea": 5764,
      "Ġyesterday": 5765,
      "locks": 5766,
      "ĠâĢľ_": 5767,
      "Ġworn": 5768,
      "Ġworthy": 5769,
      "ĠLife": 5770,
      "ivity": 5771,
      "Ġabund": 5772,
      "pended": 5773,
      "ucked": 5774,
      "ĠGo": 5775,
      "ĠGay": 5776,
      "ĠGreat": 5777,
      "ĠMons": 5778,
      "avig": 5779,
      "ieu": 5780,
      "ieur": 5781,
      "Ġtimid": 5782,
      "Ġseemingly": 5783,
      "Ġrods": 5784,
      "Ġropes": 5785,
      "Ġtrump": 5786,
      "Ġanybody": 5787,
      "Ġknee": 5788,
      "nderby": 5789,
      "Ġstrained": 5790,
      "Ġstruct": 5791,
      "Ġstricken": 5792,
      "bear": 5793,
      "beat": 5794,
      "Ġherds": 5795,
      "Ġquit": 5796,
      "Ġhandful": 5797,
      "Ġusage": 5798,
      "Ġusual": 5799,
      "ĠOcean": 5800,
      "Ġthrone": 5801,
      "Ġthrice": 5802,
      "Ġthrowing": 5803,
      "ordered": 5804,
      "ordingly": 5805,
      "Ġthank": 5806,
      "Ġperfect": 5807,
      "Ġprevent": 5808,
      "Ġpressed": 5809,
      "Ġgrowing": 5810,
      "spade": 5811,
      "sprit": 5812,
      "arbor": 5813,
      "Ġbrid": 5814,
      "Ġbringing": 5815,
      "Ġflash": 5816,
      "Ġoffered": 5817,
      "Ġscorn": 5818,
      "Ġscrap": 5819,
      "Ġscenes": 5820,
      "Ġyours": 5821,
      "Ġswings": 5822,
      "liance": 5823,
      "Ġslow": 5824,
      "Ġslipped": 5825,
      "Ġrig": 5826,
      "coat": 5827,
      "short": 5828,
      "Ġdisast": 5829,
      "ĠJer": 5830,
      "ĠJopp": 5831,
      "Ġthroughout": 5832,
      "Ġglit": 5833,
      "Ġshoulder": 5834,
      "angled": 5835,
      "Ġcontriv": 5836,
      "Ġloss": 5837,
      "Ġprud": 5838,
      "ĠYe": 5839,
      "place": 5840,
      "landish": 5841,
      "Ġmatters": 5842,
      "ibility": 5843,
      "Ġentitled": 5844,
      "Ġdesired": 5845,
      "Ġknowledge": 5846,
      "Ġchurch": 5847,
      "Ġsubmerged": 5848,
      "Ġsteam": 5849,
      "Ġsteak": 5850,
      "without": 5851,
      "Ġdistr": 5852,
      "Ġdistrust": 5853,
      "endous": 5854,
      "Ġtells": 5855,
      "Ġnights": 5856,
      "Ġpassion": 5857,
      "Ġlights": 5858,
      "azz": 5859,
      "Ġskies": 5860,
      "whalemen": 5861,
      "conf": 5862,
      "Ġcursed": 5863,
      "Ġcurrent": 5864,
      "ĠThr": 5865,
      "Ġappar": 5866,
      "ictions": 5867,
      "venth": 5868,
      "ification": 5869,
      "tric": 5870,
      "true": 5871,
      "going": 5872,
      "goes": 5873,
      "Ġhelmsman": 5874,
      "Ġswear": 5875,
      "Ġswell": 5876,
      "Ġswells": 5877,
      "ĠVoyage": 5878,
      "Ġwildly": 5879,
      "Ġcheese": 5880,
      "Ġclosed": 5881,
      "Ġcloser": 5882,
      "Ġfins": 5883,
      "ĠĠĠĠĠĠĠĠĠĠĠĠĠĠĠĠĠĠĠĠĠĠĠĠĠĠĠĠĠĠĠĠĠĠ": 5884,
      "Ġnorth": 5885,
      "Ġruns": 5886,
      "chance": 5887,
      "deep": 5888,
      "Ġwarning": 5889,
      "Ġfloat": 5890,
      "Ġseasons": 5891,
      "Ġlengthwise": 5892,
      "master": 5893,
      "Ġfury": 5894,
      "Ġhate": 5895,
      "Ġaction": 5896,
      "Ġactive": 5897,
      "brÃ¦": 5898,
      "Ġplaint": 5899,
      "Ġdroo": 5900,
      "Ġattention": 5901,
      "Ġsnapped": 5902,
      "Ġcharm": 5903,
      "iosity": 5904,
      "Ġfastened": 5905,
      "Ġdelir": 5906,
      "Ġsquare": 5907,
      "Ġsquares": 5908,
      "Ġwoods": 5909,
      "agging": 5910,
      "ĠNoah": 5911,
      "Ġbowels": 5912,
      "sailors": 5913,
      "Ġfamiliar": 5914,
      "Ġsimple": 5915,
      "Ġconsideration": 5916,
      "Ġmouths": 5917,
      "Ġladder": 5918,
      "Ġneedles": 5919,
      "Ġfearless": 5920,
      "Ġintently": 5921,
      "regular": 5922,
      "Ġintended": 5923,
      "Ġdirections": 5924,
      "Ġswims": 5925,
      "phy": 5926,
      "Ġmercy": 5927,
      "Ġdepart": 5928,
      "Ġdepths": 5929,
      "Ġhappen": 5930,
      "Ġrefer": 5931,
      "Ġgazed": 5932,
      "Ġfrozen": 5933,
      "Ġreceiving": 5934,
      "Ġwonders": 5935,
      "voc": 5936,
      "Ġdriving": 5937,
      "Ġspirits": 5938,
      "Ġappearance": 5939,
      "Ġdivine": 5940,
      "Ġrelig": 5941,
      "ĠAmerica": 5942,
      "Ġconfess": 5943,
      "Ġfifteen": 5944,
      "Ġstrongly": 5945,
      "Ġgrounds": 5946,
      "chased": 5947,
      "Ġphys": 5948,
      "Ġsoftly": 5949,
      "Ġpropri": 5950,
      "Ġproport": 5951,
      "Ġmistake": 5952,
      "Ġraise": 5953,
      "Ġleviathans": 5954,
      "liny": 5955,
      "Ġbarbs": 5956,
      "Ġhurry": 5957,
      "Ġbegins": 5958,
      "Ġdoubtless": 5959,
      "Ġvaluable": 5960,
      "Ġvaliant": 5961,
      "affrail": 5962,
      "Ġdimin": 5963,
      "Ġprovide": 5964,
      "Ġprovided": 5965,
      "modore": 5966,
      "Ġsupplied": 5967,
      "ĠPerseus": 5968,
      "aults": 5969,
      "offic": 5970,
      "Ġaddress": 5971,
      "shall": 5972,
      "Ġborne": 5973,
      "harpoon": 5974,
      "Ġdiscover": 5975,
      "Ġcrowd": 5976,
      "Ġabsent": 5977,
      "Ġmarvels": 5978,
      "Ġoccasional": 5979,
      "mosp": 5980,
      "Ġtackle": 5981,
      "Ġgallant": 5982,
      "Ġboldly": 5983,
      "Ġmalice": 5984,
      "Ġmilky": 5985,
      "Ġvolume": 5986,
      "Ġmystery": 5987,
      "Ġcannibals": 5988,
      "Ġinvolved": 5989,
      "Ġinvoluntarily": 5990,
      "Ġtreacher": 5991,
      "Ġdaily": 5992,
      "Ġexceedingly": 5993,
      "Ġmedium": 5994,
      "Ġgrief": 5995,
      "iloqu": 5996,
      "Ġbeholding": 5997,
      "contin": 5998,
      "Ġviolently": 5999,
      "bbing": 6000,
      "chers": 6001,
      "Ġtormented": 6002,
      "Ġswallow": 6003,
      "Ġswallowed": 6004,
      "Ġlandsmen": 6005,
      "Ġapproaching": 6006,
      "Meantime": 6007,
      "Ġhemp": 6008,
      "Ġconcerned": 6009,
      "Ġcontrasting": 6010,
      "Ġhorns": 6011,
      "Ġpanic": 6012,
      "Ġrevolving": 6013,
      "Ġpopularly": 6014,
      "Ġcentury": 6015,
      "hunter": 6016,
      "Ġimmediate": 6017,
      "Ġdrowned": 6018,
      "Ġtemporarily": 6019,
      "Leviathan": 6020,
      "colored": 6021,
      "Ġcherish": 6022,
      "Ġtossing": 6023,
      "Ġpirates": 6024,
      "Ġcalculated": 6025,
      "Ġdireful": 6026,
      "Ġindepend": 6027,
      "Ġsympt": 6028,
      "Ġberth": 6029,
      "Ġblessed": 6030,
      "iculars": 6031,
      "Ġcombined": 6032,
      "ĠJapanese": 6033,
      "Ġimpressions": 6034,
      "Ġsnatching": 6035,
      "Ġoccupied": 6036,
      "Steelkilt": 6037,
      "Ġbubbles": 6038,
      "Ġbaby": 6039,
      "Ġfiend": 6040,
      "Ġfancied": 6041,
      "Ġdilig": 6042,
      "Ġsucceeded": 6043,
      "Ġconvenient": 6044,
      "Ġabandoned": 6045,
      "Ġsuperstitious": 6046,
      "Ġlodged": 6047,
      "ĠSamuel": 6048,
      "Ġuniversal": 6049,
      "ĠGreek": 6050,
      "Ġmuffled": 6051,
      "Ġeasily": 6052,
      "Ġstubborn": 6053,
      "Ġexhib": 6054,
      "precisely": 6055,
      "mblance": 6056,
      "iscuit": 6057,
      "lephant": 6058,
      "Ġdomestic": 6059,
      "ĠvertebrÃ¦": 6060,
      "Ġextremity": 6061,
      "ĠTemple": 6062,
      "Ġvenerable": 6063,
      "Ġconnexion": 6064,
      "ishnoo": 6065,
      "Ġprolonged": 6066,
      "ĠEquator": 6067,
      "Ġclumsy": 6068,
      "sneezes": 6069,
      "ĠâĢ¢": 6070,
      "Ġunctuous": 6071,
      "ĠJoppa": 6072,
      ";âĢĻ": 6073,
      "Bl": 6074,
      "Cook": 6075,
      "During": 6076,
      "Didn": 6077,
      "EE": 6078,
      "EET": 6079,
      "Hist": 6080,
      "LI": 6081,
      "Par": 6082,
      "Pull": 6083,
      "Peleg": 6084,
      "Sp": 6085,
      "See": 6086,
      "Ship": 6087,
      "TR": 6088,
      "Tis": 6089,
      "ai": 6090,
      "band": 6091,
      "ball": 6092,
      "bout": 6093,
      "barb": 6094,
      "bones": 6095,
      "cross": 6096,
      "dor": 6097,
      "eight": 6098,
      "each": 6099,
      "fted": 6100,
      "fash": 6101,
      "fixed": 6102,
      "fishery": 6103,
      "gu": 6104,
      "gen": 6105,
      "gar": 6106,
      "gent": 6107,
      "god": 6108,
      "gies": 6109,
      "hist": 6110,
      "hook": 6111,
      "ihil": 6112,
      "jack": 6113,
      "jected": 6114,
      "law": 6115,
      "mit": 6116,
      "nings": 6117,
      "navig": 6118,
      "oll": 6119,
      "oly": 6120,
      "oars": 6121,
      "occ": 6122,
      "ogly": 6123,
      "ohog": 6124,
      "post": 6125,
      "pres": 6126,
      "path": 6127,
      "pane": 6128,
      "pots": 6129,
      "piece": 6130,
      "rase": 6131,
      "rushing": 6132,
      "sn": 6133,
      "sac": 6134,
      "shad": 6135,
      "sitting": 6136,
      "tor": 6137,
      "tal": 6138,
      "tail": 6139,
      "trees": 6140,
      "uss": 6141,
      "uation": 6142,
      "ucted": 6143,
      "ucing": 6144,
      "view": 6145,
      "wo": 6146,
      "wha": 6147,
      "wide": 6148,
      "wonder": 6149,
      "Ġrom": 6150,
      "Ġting": 6151,
      "Ġtro": 6152,
      "Ġtink": 6153,
      "Ġtask": 6154,
      "Ġtax": 6155,
      "heard": 6156,
      "Ġaut": 6157,
      "Ġavo": 6158,
      "inent": 6159,
      "inating": 6160,
      "Ġsor": 6161,
      "Ġsag": 6162,
      "Ġsidel": 6163,
      "Ġomen": 6164,
      "Ġwand": 6165,
      "Ġwil": 6166,
      "Ġwakes": 6167,
      "Ġwool": 6168,
      "Ġwoman": 6169,
      "Ġwigw": 6170,
      "reve": 6171,
      "rece": 6172,
      "hap": 6173,
      "handed": 6174,
      "Ġbask": 6175,
      "Ġbits": 6176,
      "Ġbowed": 6177,
      "Ġblock": 6178,
      "leep": 6179,
      "iti": 6180,
      "itch": 6181,
      "itably": 6182,
      "oured": 6183,
      "outhern": 6184,
      "Ġmason": 6185,
      "Ġmoored": 6186,
      "editer": 6187,
      "Ġfib": 6188,
      "Ġcraw": 6189,
      "Ġclinging": 6190,
      "orough": 6191,
      "orus": 6192,
      "Ġineff": 6193,
      "Ġintric": 6194,
      "lla": 6195,
      "llows": 6196,
      "sts": 6197,
      "stock": 6198,
      "Ġhouses": 6199,
      "Ġhooded": 6200,
      "anct": 6201,
      "atra": 6202,
      "athed": 6203,
      "Ġdom": 6204,
      "Ġdull": 6205,
      "Ġdaring": 6206,
      "Ġdancing": 6207,
      "Ġpad": 6208,
      "Ġpip": 6209,
      "Ġpant": 6210,
      "Ġpine": 6211,
      "Ġpacing": 6212,
      "Ġpadd": 6213,
      "Ġpuzz": 6214,
      "Ġpieces": 6215,
      "Ġpisto": 6216,
      "especially": 6217,
      "omb": 6218,
      "omach": 6219,
      "Ġlar": 6220,
      "Ġlaz": 6221,
      "Ġlashing": 6222,
      "Ġloung": 6223,
      "Ġnin": 6224,
      "Ġnine": 6225,
      "owd": 6226,
      "Ġthorough": 6227,
      "ases": 6228,
      "asped": 6229,
      "asmod": 6230,
      "Ġhey": 6231,
      "utter": 6232,
      "ĠĠĠĠĠĠĠĠĠĠĠĠĠĠĠ": 6233,
      "Ġhal": 6234,
      "Ġhaul": 6235,
      "Ġhaven": 6236,
      "Ġbeings": 6237,
      "Ġbeating": 6238,
      "Ġbelly": 6239,
      "icuous": 6240,
      "separ": 6241,
      "Ġgle": 6242,
      "Ġgen": 6243,
      "Ġgate": 6244,
      "Ġgently": 6245,
      "Ġgarden": 6246,
      "Ġease": 6247,
      "Ġevil": 6248,
      "alle": 6249,
      "always": 6250,
      "Ġum": 6251,
      "Ġur": 6252,
      "Ġult": 6253,
      "verb": 6254,
      "ird": 6255,
      "Ġstage": 6256,
      "Ġstave": 6257,
      "adv": 6258,
      "adoes": 6259,
      "aco": 6260,
      "acon": 6261,
      "Ġyon": 6262,
      "Ġyarn": 6263,
      "Ġsend": 6264,
      "Ġseize": 6265,
      "Ġseizing": 6266,
      "roc": 6267,
      "urable": 6268,
      "Ġasser": 6269,
      "Ġissued": 6270,
      "Ġreef": 6271,
      "Ġretained": 6272,
      "rived": 6273,
      "ĠAcc": 6274,
      "ĠSy": 6275,
      "ĠSat": 6276,
      "ĠSum": 6277,
      "ĠSol": 6278,
      "ĠShip": 6279,
      "ĠSleet": 6280,
      "ili": 6281,
      "ilities": 6282,
      "Ġwest": 6283,
      "Ġweigh": 6284,
      "Ġweeks": 6285,
      "amped": 6286,
      "amming": 6287,
      "ĠTO": 6288,
      "quite": 6289,
      "queer": 6290,
      "Ġshirt": 6291,
      "Ġshivering": 6292,
      "Ġsold": 6293,
      "Ġsoil": 6294,
      "ifest": 6295,
      "Ġsuit": 6296,
      "Ġsust": 6297,
      "illa": 6298,
      "allied": 6299,
      "ecks": 6300,
      "econd": 6301,
      "ĠĠĠĠĠĠĠĠĠĠĠĠĠĠĠĠĠĠĠĠĠ": 6302,
      "things": 6303,
      "apt": 6304,
      "apes": 6305,
      "Ġuplifted": 6306,
      "ulate": 6307,
      "ulated": 6308,
      "ulting": 6309,
      "ulking": 6310,
      "Ġrows": 6311,
      "token": 6312,
      "Ġleagues": 6313,
      "ĠBachel": 6314,
      "Ġvan": 6315,
      "Ġvitality": 6316,
      "ĠCook": 6317,
      "ĠCol": 6318,
      "ĠCarpenter": 6319,
      "Ġspars": 6320,
      "Ġspilled": 6321,
      "Ġspasmod": 6322,
      "ĠWould": 6323,
      "unted": 6324,
      "ĠPe": 6325,
      "ĠPl": 6326,
      "ĠPers": 6327,
      "ĠPliny": 6328,
      "Ġcontaining": 6329,
      "Ġalleg": 6330,
      "Ġalarm": 6331,
      "Ġdefin": 6332,
      "Ġdevelo": 6333,
      "Ġunman": 6334,
      "Ġunhar": 6335,
      "Ġunnatural": 6336,
      "Ġmystical": 6337,
      "ĠHur": 6338,
      "ĠHark": 6339,
      "Ġkick": 6340,
      "indispensable": 6341,
      "Ġoutward": 6342,
      "ĠFirst": 6343,
      "Ġfeather": 6344,
      "ĠStr": 6345,
      "ĠStart": 6346,
      "Ġjumped": 6347,
      "ĠNay": 6348,
      "ĠNature": 6349,
      "Ġexec": 6350,
      "Ġexasper": 6351,
      "Ġintolerable": 6352,
      "Ġdolph": 6353,
      "ĠLo": 6354,
      "ĠLicense": 6355,
      "ĠLima": 6356,
      "ivot": 6357,
      "Ġabounding": 6358,
      "iousness": 6359,
      "peak": 6360,
      "ilent": 6361,
      "Ġagon": 6362,
      "Ġagent": 6363,
      "Ġagree": 6364,
      "ĠDes": 6365,
      "ĠDuke": 6366,
      "ĠMart": 6367,
      "ĠMapple": 6368,
      "Ġplanted": 6369,
      "terest": 6370,
      "Ġpockets": 6371,
      "Ġblast": 6372,
      "Ġtimber": 6373,
      "Ġroaring": 6374,
      "abs": 6375,
      "uded": 6376,
      "udding": 6377,
      "olute": 6378,
      "These": 6379,
      "Ġkneel": 6380,
      "Ġwouldn": 6381,
      "Ġstring": 6382,
      "Ġstrang": 6383,
      "Ġstrict": 6384,
      "Ġstraining": 6385,
      "bearing": 6386,
      "Ġheadlong": 6387,
      "Ġdownward": 6388,
      "Ġquality": 6389,
      "Ġarched": 6390,
      "Ġarmed": 6391,
      "Ġhoist": 6392,
      "Ġhoisting": 6393,
      "Ġcoiled": 6394,
      "Ġcoiling": 6395,
      "Ġuses": 6396,
      "ĠOld": 6397,
      "ĠOur": 6398,
      "ordinary": 6399,
      "Ġperf": 6400,
      "hoy": 6401,
      "Ġpress": 6402,
      "Ġgrace": 6403,
      "ccess": 6404,
      "Ġhereby": 6405,
      "spir": 6406,
      "Ġbrains": 6407,
      "Ġafternoon": 6408,
      "Ġflow": 6409,
      "Ġflung": 6410,
      "Ġflanks": 6411,
      "Ġswept": 6412,
      "Ġsmallest": 6413,
      "Ġcompare": 6414,
      "Ġcompared": 6415,
      "Ġslave": 6416,
      "ĠHeaven": 6417,
      "Ġripp": 6418,
      "Ġowner": 6419,
      "Ġshaking": 6420,
      "Ġwhereby": 6421,
      "Ġglim": 6422,
      "forth": 6423,
      "Ġcontribut": 6424,
      "cloth": 6425,
      "Ġfolded": 6426,
      "Ġclust": 6427,
      "Ġeverlasting": 6428,
      "Ġobed": 6429,
      "Ġobst": 6430,
      "Ġobsc": 6431,
      "Ġpride": 6432,
      "Ġprime": 6433,
      "Ġbackward": 6434,
      "whose": 6435,
      "Ġdesire": 6436,
      "Ġdespair": 6437,
      "Ġchains": 6438,
      "plen": 6439,
      "pleasant": 6440,
      "Ġsubs": 6441,
      "Ġsubter": 6442,
      "Ġsublime": 6443,
      "Ġsteer": 6444,
      "Ġsteers": 6445,
      "Ġsteep": 6446,
      "Ġendure": 6447,
      "new": 6448,
      "eneral": 6449,
      "Ġsunk": 6450,
      "Ġsunset": 6451,
      "Ġbodies": 6452,
      "Ġlightly": 6453,
      "aze": 6454,
      "Ġforemast": 6455,
      "Ġinterl": 6456,
      "contr": 6457,
      "Ġsmaller": 6458,
      "mere": 6459,
      "struck": 6460,
      "stricken": 6461,
      "struction": 6462,
      "Ġhardy": 6463,
      "Ġincor": 6464,
      "Ġincess": 6465,
      "ĠTherefore": 6466,
      "Ġwrong": 6467,
      "Ġwrapped": 6468,
      "Ġgenerations": 6469,
      "trans": 6470,
      "Ġsleeper": 6471,
      "screw": 6472,
      "ĠVirgin": 6473,
      "ĠVineyard": 6474,
      "Ġburden": 6475,
      "Ġtender": 6476,
      "Ġelements": 6477,
      "worthy": 6478,
      "Ġnorthern": 6479,
      "Ġhumorous": 6480,
      "ierogly": 6481,
      "Ġstripped": 6482,
      "Ġjoke": 6483,
      "Ġjoined": 6484,
      "Ġchanged": 6485,
      "Ġlayer": 6486,
      "Ġhatches": 6487,
      "Ġmidst": 6488,
      "Ġhunter": 6489,
      "Ġhunting": 6490,
      "lerably": 6491,
      "encies": 6492,
      "Ġkeeps": 6493,
      "Ġactivity": 6494,
      "Ġbusy": 6495,
      "Ġlowly": 6496,
      "Ġexpand": 6497,
      "Ġbestowed": 6498,
      "Ġreply": 6499,
      "Ġpeculiarities": 6500,
      "Ġaffright": 6501,
      "monster": 6502,
      "Ġmainmast": 6503,
      "Ġmeanwhile": 6504,
      "Ġbloody": 6505,
      "position": 6506,
      "Ġsimply": 6507,
      "ĠNorth": 6508,
      "Ġprofession": 6509,
      "Ġconsiderably": 6510,
      "Ġwants": 6511,
      "Ġwanted": 6512,
      "Ġcolt": 6513,
      "Ġneeded": 6514,
      "Ġspecim": 6515,
      "Ġmadden": 6516,
      "Ġintrod": 6517,
      "Ġportentous": 6518,
      "Ġseams": 6519,
      "maul": 6520,
      "regularly": 6521,
      "ĠChina": 6522,
      "Ġhundreds": 6523,
      "Ġawake": 6524,
      "Ġcasual": 6525,
      "Ġdepth": 6526,
      "handle": 6527,
      "Ġcruise": 6528,
      "Ġhappy": 6529,
      "Ġstarting": 6530,
      "Ġrefund": 6531,
      "Ġserious": 6532,
      "Ġservice": 6533,
      "Ġtowed": 6534,
      "Ġgrandeur": 6535,
      "Ġcryst": 6536,
      "Ġchapters": 6537,
      "Ġrevel": 6538,
      "ĠNothing": 6539,
      "Ġappeared": 6540,
      "Ġdivided": 6541,
      "Ġpursued": 6542,
      "mbling": 6543,
      "Ġwax": 6544,
      "ĠSebastian": 6545,
      "Ġmiserable": 6546,
      "themselves": 6547,
      "Ġhopeless": 6548,
      "Ġbelongs": 6549,
      "Ġbelonging": 6550,
      "Ġmistaken": 6551,
      "Ġfurnish": 6552,
      "Ġpriest": 6553,
      "Ġlimit": 6554,
      "Ġmountains": 6555,
      "Ġhurried": 6556,
      "Ġstorms": 6557,
      "Ġfellows": 6558,
      "Ġsnowy": 6559,
      "Ġwalls": 6560,
      "Ġwalking": 6561,
      "Ġblew": 6562,
      "Ġangels": 6563,
      "Ġanguish": 6564,
      "Ġshoal": 6565,
      "Ġsupply": 6566,
      "Ġviciss": 6567,
      "Ġescaped": 6568,
      "Ġproceeds": 6569,
      "Ġadmit": 6570,
      "Ġdiscovery": 6571,
      "intervals": 6572,
      "Ġcease": 6573,
      "Ġintensity": 6574,
      "Ġlurks": 6575,
      "Ġlurked": 6576,
      "Ġgirls": 6577,
      "Ġeighteen": 6578,
      "Ġstrove": 6579,
      "Ġanticip": 6580,
      "Ġshrouds": 6581,
      "Ġabsor": 6582,
      "mediately": 6583,
      "chest": 6584,
      "Ġschools": 6585,
      "Ġrequires": 6586,
      "Ġannihil": 6587,
      "Ġrocking": 6588,
      "Ġodor": 6589,
      "Ġmotionless": 6590,
      "Ġdescending": 6591,
      "abouts": 6592,
      "Ġeagerness": 6593,
      "Ġstopping": 6594,
      "Ġstopped": 6595,
      "Ġwounded": 6596,
      "Ġderive": 6597,
      "Ġuntil": 6598,
      "Ġexpression": 6599,
      "Ġtongs": 6600,
      "Ġbrief": 6601,
      "Ġignorant": 6602,
      "Ġtapering": 6603,
      "Ġtubs": 6604,
      "Ġcandle": 6605,
      "Ġestab": 6606,
      "Ġlandsman": 6607,
      "boys": 6608,
      "Ġsolemnly": 6609,
      "burgh": 6610,
      "Ġwreck": 6611,
      "Ġearnestly": 6612,
      "Ġstretched": 6613,
      "break": 6614,
      "uzza": 6615,
      "Ġpunch": 6616,
      "ĠeBooks": 6617,
      "Ġcomfortable": 6618,
      "Ġsensible": 6619,
      "Ġobey": 6620,
      "ancholy": 6621,
      "Ġsummit": 6622,
      "Ġdescribed": 6623,
      "Ġshuddering": 6624,
      "Ġsuspic": 6625,
      "Ġargument": 6626,
      "plicable": 6627,
      "Ġbidding": 6628,
      "Ġinquir": 6629,
      "Ġpublic": 6630,
      "Ġranged": 6631,
      "leece": 6632,
      "Ġfetch": 6633,
      "Ġunconscious": 6634,
      "Ġcomrades": 6635,
      "Ġharmless": 6636,
      "Ġincreased": 6637,
      "Ġsatisf": 6638,
      "Ġmajestic": 6639,
      "Ġinnermost": 6640,
      "Ġlifting": 6641,
      "iciently": 6642,
      "Ġsplintered": 6643,
      "Ġlikeness": 6644,
      "Ġjudgment": 6645,
      "Ġprojecting": 6646,
      "Ġconfidential": 6647,
      "ĠSpanish": 6648,
      "Ġbaleen": 6649,
      "Ġmillions": 6650,
      "Ġcrooked": 6651,
      "Ġreserved": 6652,
      "ĠTurk": 6653,
      "Ġvengeance": 6654,
      "Ġaccursed": 6655,
      "Ġdelicacy": 6656,
      "Ġinferior": 6657,
      "Ġverdure": 6658,
      "Ġwithdrawing": 6659,
      "Project": 6660,
      "Ġtiger": 6661,
      "Ġfalse": 6662,
      "Ġexistence": 6663,
      "Ġproblem": 6664,
      "Ġgradually": 6665,
      "Ġglistening": 6666,
      "comfortable": 6667,
      "Ġendeav": 6668,
      "Ġapparently": 6669,
      "bolts": 6670,
      "country": 6671,
      "ealand": 6672,
      "rupted": 6673,
      "Ġbunch": 6674,
      "seamen": 6675,
      "ostrils": 6676,
      "Ġunspeakable": 6677,
      "ĠHistory": 6678,
      "Ġjerking": 6679,
      "Ġdollars": 6680,
      "Ġpreliminary": 6681,
      "Ġoblig": 6682,
      "Ġobliquely": 6683,
      "Ġtechnically": 6684,
      "Ġlaughed": 6685,
      "UCKET": 6686,
      "original": 6687,
      "Ġsparkling": 6688,
      "ĠMonsieur": 6689,
      "Ġstructure": 6690,
      "Ġcontrivances": 6691,
      "Ġapparition": 6692,
      "Ġdrooping": 6693,
      "Ġromantic": 6694,
      "editerranean": 6695,
      "ĠSolomon": 6696,
      "ĠBachelor": 6697,
      "ieroglyph": 6698,
      "**": 6699,
      "51": 6700,
      "Am": 6701,
      "Back": 6702,
      "BER": 6703,
      "Down": 6704,
      "Dick": 6705,
      "EC": 6706,
      "EG": 6707,
      "Flask": 6708,
      "Folio": 6709,
      "Give": 6710,
      "Ha": 6711,
      "Hast": 6712,
      "Hands": 6713,
      "LL": 6714,
      "NY": 6715,
      "OG": 6716,
      "Octavo": 6717,
      "Po": 6718,
      "Tashtego": 6719,
      "Ye": 6720,
      "bal": 6721,
      "bac": 6722,
      "bag": 6723,
      "bust": 6724,
      "bling": 6725,
      "bows": 6726,
      "bits": 6727,
      "books": 6728,
      "cra": 6729,
      "cour": 6730,
      "cles": 6731,
      "civilized": 6732,
      "dim": 6733,
      "dro": 6734,
      "dem": 6735,
      "dled": 6736,
      "done": 6737,
      "drawn": 6738,
      "east": 6739,
      "eyes": 6740,
      "elect": 6741,
      "fr": 6742,
      "fed": 6743,
      "fal": 6744,
      "fif": 6745,
      "field": 6746,
      "fety": 6747,
      "gul": 6748,
      "gun": 6749,
      "game": 6750,
      "ggest": 6751,
      "hy": 6752,
      "hung": 6753,
      "horse": 6754,
      "ique": 6755,
      "jet": 6756,
      "jud": 6757,
      "ko": 6758,
      "luck": 6759,
      "lies": 6760,
      "lower": 6761,
      "mortal": 6762,
      "mitted": 6763,
      "name": 6764,
      "narr": 6765,
      "ole": 6766,
      "oving": 6767,
      "obo": 6768,
      "oking": 6769,
      "pin": 6770,
      "pul": 6771,
      "pel": 6772,
      "pull": 6773,
      "pans": 6774,
      "pret": 6775,
      "pike": 6776,
      "phet": 6777,
      "run": 6778,
      "rage": 6779,
      "rised": 6780,
      "rayed": 6781,
      "rutable": 6782,
      "sus": 6783,
      "sue": 6784,
      "since": 6785,
      "ti": 6786,
      "tic": 6787,
      "tion": 6788,
      "tri": 6789,
      "too": 6790,
      "turn": 6791,
      "times": 6792,
      "uing": 6793,
      "vable": 6794,
      "vail": 6795,
      "vading": 6796,
      "wen": 6797,
      "Ġ&": 6798,
      "Ġing": 6799,
      "Ġtu": 6800,
      "Ġty": 6801,
      "Ġtid": 6802,
      "Ġtant": 6803,
      "Ġtone": 6804,
      "Ġtons": 6805,
      "Ġtread": 6806,
      "Ġturb": 6807,
      "Ġtawn": 6808,
      "hee": 6809,
      "hem": 6810,
      "hemat": 6811,
      "Ġaver": 6812,
      "Ġapt": 6813,
      "Ġawhile": 6814,
      "inf": 6815,
      "iny": 6816,
      "inch": 6817,
      "instant": 6818,
      "Ġsong": 6819,
      "Ġsorrow": 6820,
      "Ġsister": 6821,
      "Ġsanct": 6822,
      "Ġopp": 6823,
      "Ġwings": 6824,
      "Ġwretched": 6825,
      "render": 6826,
      "rers": 6827,
      "having": 6828,
      "ndered": 6829,
      "Ġbas": 6830,
      "Ġbred": 6831,
      "Ġbubb": 6832,
      "isc": 6833,
      "lex": 6834,
      "lement": 6835,
      "leys": 6836,
      "leaving": 6837,
      "itt": 6838,
      "iture": 6839,
      "itals": 6840,
      "itters": 6841,
      "ouis": 6842,
      "Ġmile": 6843,
      "Ġmale": 6844,
      "Ġmember": 6845,
      "Ġmagic": 6846,
      "eded": 6847,
      "Ġful": 6848,
      "Ġfled": 6849,
      "Ġfires": 6850,
      "Ġflinging": 6851,
      "Ġfacts": 6852,
      "Ġcash": 6853,
      "Ġcrest": 6854,
      "Ġcoffe": 6855,
      "ensed": 6856,
      "enger": 6857,
      "orously": 6858,
      "arning": 6859,
      "arman": 6860,
      "arian": 6861,
      "arches": 6862,
      "arms": 6863,
      "Ġinhab": 6864,
      "Ġinland": 6865,
      "Ġincomp": 6866,
      "sto": 6867,
      "stones": 6868,
      "Ġhills": 6869,
      "Ġhieroglyph": 6870,
      "anning": 6871,
      "atory": 6872,
      "Ġtomb": 6873,
      "Ġtobac": 6874,
      "Ġdu": 6875,
      "Ġded": 6876,
      "Ġdod": 6877,
      "Ġdies": 6878,
      "Ġdried": 6879,
      "Ġdashing": 6880,
      "Ġdressed": 6881,
      "Ġdiam": 6882,
      "Ġpag": 6883,
      "Ġpack": 6884,
      "Ġpace": 6885,
      "Ġpage": 6886,
      "Ġpause": 6887,
      "Ġpump": 6888,
      "Ġpike": 6889,
      "Ġpots": 6890,
      "Ġpivot": 6891,
      "esc": 6892,
      "Ġlink": 6893,
      "Ġlash": 6894,
      "Ġlinks": 6895,
      "Ġnet": 6896,
      "Ġnap": 6897,
      "asc": 6898,
      "asks": 6899,
      "ascal": 6900,
      "asmuch": 6901,
      "Ġhealth": 6902,
      "uts": 6903,
      "utions": 6904,
      "ĠĠĠĠĠĠĠĠĠĠĠĠĠĠ": 6905,
      "Ġhailing": 6906,
      "Ġhauled": 6907,
      "icient": 6908,
      "several": 6909,
      "seventy": 6910,
      "imag": 6911,
      "iments": 6912,
      "Ġgn": 6913,
      "Ġgest": 6914,
      "Ġgames": 6915,
      "Ġghast": 6916,
      "Ġemer": 6917,
      "Ġeyed": 6918,
      "ott": 6919,
      "othe": 6920,
      "otent": 6921,
      "alk": 6922,
      "Ġonset": 6923,
      "idents": 6924,
      "vet": 6925,
      "etent": 6926,
      "etus": 6927,
      "iron": 6928,
      "irts": 6929,
      "Ġsty": 6930,
      "Ġstun": 6931,
      "Ġstock": 6932,
      "Ġsticking": 6933,
      "Ġstomach": 6934,
      "Ġyelled": 6935,
      "entat": 6936,
      "entire": 6937,
      "entimes": 6938,
      "thed": 6939,
      "thee": 6940,
      "Ġsell": 6941,
      "Ġseals": 6942,
      "urrect": 6943,
      "Ġforged": 6944,
      "ainted": 6945,
      "Ġwhip": 6946,
      "Ġwhist": 6947,
      "Ġreli": 6948,
      "Ġreign": 6949,
      "Ġresc": 6950,
      "Ġreplen": 6951,
      "cell": 6952,
      "celer": 6953,
      "cending": 6954,
      "ander": 6955,
      "rift": 6956,
      "rigg": 6957,
      "ĠAre": 6958,
      "ĠAHA": 6959,
      "ooping": 6960,
      "ĠSP": 6961,
      "ĠSm": 6962,
      "ĠSw": 6963,
      "ĠSen": 6964,
      "ĠSal": 6965,
      "ĠSouthern": 6966,
      "ilty": 6967,
      "Ġallow": 6968,
      "Ġallowed": 6969,
      "Ġweaving": 6970,
      "amn": 6971,
      "aming": 6972,
      "Ġatmosp": 6973,
      "ĠTell": 6974,
      "ĠTah": 6975,
      "ĠTime": 6976,
      "ĠTarsh": 6977,
      "quo": 6978,
      "quick": 6979,
      "quently": 6980,
      "quiet": 6981,
      "Ġshown": 6982,
      "Ġshows": 6983,
      "Ġshores": 6984,
      "Ġshuttle": 6985,
      "iform": 6986,
      "Ġsuspect": 6987,
      "Ġsult": 6988,
      "iller": 6989,
      "Ġwhalebone": 6990,
      "Ġupward": 6991,
      "Ġuprising": 6992,
      "ipp": 6993,
      "ulpt": 6994,
      "Ġrot": 6995,
      "Ġrout": 6996,
      "Ġrud": 6997,
      "Ġrubb": 6998,
      "Ġrays": 6999,
      "Ġrule": 7000,
      "Ġrude": 7001,
      "ssil": 7002,
      "Ġleather": 7003,
      "emy": 7004,
      "emorial": 7005,
      "ĠBen": 7006,
      "ĠBas": 7007,
      "Ġvirgin": 7008,
      "Ġmead": 7009,
      "Ġmeals": 7010,
      "ĠCab": 7011,
      "Ġspl": 7012,
      "Ġspent": 7013,
      "ĠWoe": 7014,
      "Ġorgan": 7015,
      "antage": 7016,
      "une": 7017,
      "unte": 7018,
      "unless": 7019,
      "erson": 7020,
      "Ġbosom": 7021,
      "else": 7022,
      "ellect": 7023,
      "Ġsafety": 7024,
      "ĠPI": 7025,
      "ĠPr": 7026,
      "ĠPur": 7027,
      "ĠPeter": 7028,
      "outon": 7029,
      "Ġliber": 7030,
      "Ġconclude": 7031,
      "Ġconsternation": 7032,
      "uments": 7033,
      "umbled": 7034,
      "hanging": 7035,
      "using": 7036,
      "usants": 7037,
      "Ġalbatross": 7038,
      "Ġmanag": 7039,
      "Ġdeaf": 7040,
      "Ġdestruction": 7041,
      "Ġuniform": 7042,
      "poling": 7043,
      "pointing": 7044,
      "ustr": 7045,
      "Ġkicked": 7046,
      "rait": 7047,
      "inder": 7048,
      "indeed": 7049,
      "istance": 7050,
      "istical": 7051,
      "Ġcomment": 7052,
      "orty": 7053,
      "ackened": 7054,
      "lobe": 7055,
      "Ġjot": 7056,
      "Ġjets": 7057,
      "Ġthence": 7058,
      "ĠNANT": 7059,
      "Ġdoct": 7060,
      "ĠLouis": 7061,
      "ishop": 7062,
      "ilege": 7063,
      "ĠDr": 7064,
      "ĠDan": 7065,
      "ĠDid": 7066,
      "ĠGl": 7067,
      "ĠGive": 7068,
      "ĠGeneral": 7069,
      "ĠMal": 7070,
      "ĠMace": 7071,
      "ĠMary": 7072,
      "ĠMoreover": 7073,
      "ĠMEET": 7074,
      "Ġpla": 7075,
      "Ġplates": 7076,
      "Ġplane": 7077,
      "ava": 7078,
      "teeth": 7079,
      "Ġpoles": 7080,
      "Ġpoison": 7081,
      "Ġpolite": 7082,
      "Ġblade": 7083,
      "Ġblowing": 7084,
      "Ġblades": 7085,
      "Ġblasted": 7086,
      "Ġblazing": 7087,
      "Ġtrust": 7088,
      "abb": 7089,
      "abol": 7090,
      "abama": 7091,
      "forecastle": 7092,
      "Ġknees": 7093,
      "Ġtwin": 7094,
      "Ġtwig": 7095,
      "Ġgover": 7096,
      "beare": 7097,
      "behind": 7098,
      "Ġherself": 7099,
      "Ġheaded": 7100,
      "yellow": 7101,
      "Ġquo": 7102,
      "Ġqual": 7103,
      "Ġhandspikes": 7104,
      "Ġhovered": 7105,
      "Ġwatches": 7106,
      "Ġamb": 7107,
      "Ġamount": 7108,
      "Ġamazing": 7109,
      "Ġlongitude": 7110,
      "Ġparted": 7111,
      "inkled": 7112,
      "Ġprepar": 7113,
      "Ġenergy": 7114,
      "Ġimple": 7115,
      "ĠAndes": 7116,
      "Ġhereabouts": 7117,
      "spot": 7118,
      "Ġbrit": 7119,
      "Ġbrute": 7120,
      "ancient": 7121,
      "Ġflitting": 7122,
      "Ġscore": 7123,
      "Ġscream": 7124,
      "Ġsmack": 7125,
      "Ġsmiting": 7126,
      "ĠEast": 7127,
      "ĠEven": 7128,
      "ĠEnderby": 7129,
      "arying": 7130,
      "Ġdidst": 7131,
      "Ġslide": 7132,
      "Ġripe": 7133,
      "Ġdecent": 7134,
      "Ġdecided": 7135,
      "cogn": 7136,
      "shr": 7137,
      "ĠRom": 7138,
      "Ġadmon": 7139,
      "Ġadrift": 7140,
      "Ġmightiest": 7141,
      "Ġdismast": 7142,
      "Ġeverybody": 7143,
      "Ġcrushed": 7144,
      "Ġcracked": 7145,
      "ĠJust": 7146,
      "Ġshade": 7147,
      "Ġshaggy": 7148,
      "Ġglasses": 7149,
      "mention": 7150,
      "Ġindic": 7151,
      "Ġindifference": 7152,
      "Ġinduce": 7153,
      "Ġindolent": 7154,
      "Ġremove": 7155,
      "Ġremotest": 7156,
      "soon": 7157,
      "ernible": 7158,
      "Ġcouldn": 7159,
      "Ġkeels": 7160,
      "clusion": 7161,
      "Ġfond": 7162,
      "Ġclaim": 7163,
      "rences": 7164,
      "Ġloving": 7165,
      "Ġlogger": 7166,
      "Ġlocated": 7167,
      "ounted": 7168,
      "Ġobtained": 7169,
      "Ġpron": 7170,
      "feeder": 7171,
      "ermon": 7172,
      "ĠYour": 7173,
      "ĠYOU": 7174,
      "ĠYork": 7175,
      "ĠYarman": 7176,
      "play": 7177,
      "Ġmatch": 7178,
      "Ġentry": 7179,
      "Ġentering": 7180,
      "Ġdesol": 7181,
      "Ġdesert": 7182,
      "plex": 7183,
      "Ġchoose": 7184,
      "Ġchowder": 7185,
      "Ġcarpet": 7186,
      "Ġsubstant": 7187,
      "Ġpresumed": 7188,
      "Ġpreserve": 7189,
      "ĠSoon": 7190,
      "success": 7191,
      "Ġcommunic": 7192,
      "Ġforeign": 7193,
      "Ġinterpre": 7194,
      "Ġsouth": 7195,
      "Ġhearty": 7196,
      "Ġheavily": 7197,
      "Ġholds": 7198,
      "Ġholder": 7199,
      "Ġcurling": 7200,
      "Ġcuriously": 7201,
      "Ġcuriosity": 7202,
      "ĠThy": 7203,
      "Ġmonth": 7204,
      "Ġmonsters": 7205,
      "measure": 7206,
      "Ġapplied": 7207,
      "structed": 7208,
      "ificial": 7209,
      "Ġworked": 7210,
      "Ġincarn": 7211,
      "Ġincident": 7212,
      "Ġwrit": 7213,
      "Ġwrought": 7214,
      "Inn": 7215,
      "Ġhighly": 7216,
      "ethinks": 7217,
      "ension": 7218,
      "scuttle": 7219,
      "ĠVI": 7220,
      "ĠVen": 7221,
      "ĠVishnoo": 7222,
      "Ġbury": 7223,
      "Ġburnt": 7224,
      "Ġpresents": 7225,
      "grim": 7226,
      "grown": 7227,
      "graph": 7228,
      "Ġcheeks": 7229,
      "Ġcapable": 7230,
      "Ġtears": 7231,
      "Ġteach": 7232,
      "eech": 7233,
      "Ġreading": 7234,
      "ĠMogul": 7235,
      "remained": 7236,
      "Ġstriving": 7237,
      "Ġjoin": 7238,
      "Ġchange": 7239,
      "Ġchances": 7240,
      "Ġcreation": 7241,
      "Ġspears": 7242,
      "young": 7243,
      "Ġsingular": 7244,
      "Ġexpect": 7245,
      "Ġexpected": 7246,
      "Ġcoral": 7247,
      "Ġbestir": 7248,
      "Ġattent": 7249,
      "Ġ16": 7250,
      "Ġsnap": 7251,
      "Ġreport": 7252,
      "iogn": 7253,
      "Ġsounded": 7254,
      "Ġboarded": 7255,
      "Ġfasten": 7256,
      "Ġfourth": 7257,
      "Ġdeliver": 7258,
      "Ġpeculiarly": 7259,
      "Ġnewly": 7260,
      "Ġsleeps": 7261,
      "Ġreasonable": 7262,
      "sword": 7263,
      "prise": 7264,
      "Ġsolic": 7265,
      "Ġsoliloqu": 7266,
      "poses": 7267,
      "ugitive": 7268,
      "Ġhomeward": 7269,
      "Ġprofane": 7270,
      "Ġconsiderations": 7271,
      "Ġfinding": 7272,
      "Ġcollection": 7273,
      "Ġcolumn": 7274,
      "Ġspecially": 7275,
      "Ġcircumnavig": 7276,
      "somehow": 7277,
      "Ġintention": 7278,
      "Ġintrep": 7279,
      "ception": 7280,
      "Ġsupernatural": 7281,
      "Ġwidely": 7282,
      "Ġfinest": 7283,
      "regn": 7284,
      "Ġcopper": 7285,
      "Ġcopies": 7286,
      "Ġbowsman": 7287,
      "Ġordered": 7288,
      "Ġheadsman": 7289,
      "Ġopposing": 7290,
      "Ġstartled": 7291,
      "Ġrefuge": 7292,
      "cript": 7293,
      "Ġserved": 7294,
      "Ġparl": 7295,
      "Ġpersonally": 7296,
      "Ġreceive": 7297,
      "volent": 7298,
      "Ġmurdered": 7299,
      "Ġchapel": 7300,
      "forty": 7301,
      "Ġdripping": 7302,
      "Ġspiral": 7303,
      "Ġobserving": 7304,
      "Ġappears": 7305,
      "crow": 7306,
      "crim": 7307,
      "twenty": 7308,
      "Ġtablets": 7309,
      "Ġcooked": 7310,
      "Ġpleased": 7311,
      "Ġguard": 7312,
      "ĠSeas": 7313,
      "Ġbreakers": 7314,
      "Ġsteps": 7315,
      "Ġstepped": 7316,
      "Ġstepping": 7317,
      "Ġrecently": 7318,
      "Ġofficial": 7319,
      "Ġinvestig": 7320,
      "Ġphrase": 7321,
      "Ġhammered": 7322,
      "Ġproduced": 7323,
      "Ġprophe": 7324,
      "consider": 7325,
      "Ġhurled": 7326,
      "ĠIsland": 7327,
      "Ġencountering": 7328,
      "object": 7329,
      "Ġtalking": 7330,
      "Ġidle": 7331,
      "Ġwalk": 7332,
      "Ġwalked": 7333,
      "Ġdimly": 7334,
      "Ġdemand": 7335,
      "Ġangle": 7336,
      "Ġshoals": 7337,
      "Ġfatality": 7338,
      "Ġdamned": 7339,
      "Ġeventually": 7340,
      "Ġcoasts": 7341,
      "Ġdreams": 7342,
      "Ġseparately": 7343,
      "Ġproceeded": 7344,
      "Ġaddressed": 7345,
      "compan": 7346,
      "shaped": 7347,
      "Ġillum": 7348,
      "Ġiceberg": 7349,
      "close": 7350,
      "Ġboundless": 7351,
      "Ġlurk": 7352,
      "Ġlurking": 7353,
      "Ġeternally": 7354,
      "ĠCanallers": 7355,
      "ARP": 7356,
      "ĠQuohog": 7357,
      "Ġgirl": 7358,
      "Ġgirth": 7359,
      "acetti": 7360,
      "Ġabsolute": 7361,
      "Ġbuild": 7362,
      "Ġanimated": 7363,
      "molest": 7364,
      "particular": 7365,
      "Ġedd": 7366,
      "Ġedge": 7367,
      "ĠWherefore": 7368,
      "Ġdistinctly": 7369,
      "surface": 7370,
      "Ġmalicious": 7371,
      "Ġdreadful": 7372,
      "idelburgh": 7373,
      "Ġwhisper": 7374,
      "Ġexperience": 7375,
      "Ġdeclare": 7376,
      "Ġtrees": 7377,
      "Ġghosts": 7378,
      "Ġeagerly": 7379,
      "Ġstole": 7380,
      "Ġanchors": 7381,
      "ustomed": 7382,
      "Ġsilvery": 7383,
      "ĠFrenchman": 7384,
      "Ġcorpusants": 7385,
      "Ġinteresting": 7386,
      "Ġfigures": 7387,
      "Ġresearch": 7388,
      "Ġ182": 7389,
      "ological": 7390,
      "Ġgunwales": 7391,
      "Ġmission": 7392,
      "Ġchocks": 7393,
      "orpoises": 7394,
      "arius": 7395,
      "Ġpenetr": 7396,
      "ĠCommodore": 7397,
      "Ġnearest": 7398,
      "Ġprotected": 7399,
      "Aloft": 7400,
      "Ġtapers": 7401,
      "Ġcandles": 7402,
      "Ġvigorous": 7403,
      "Ġdevout": 7404,
      "Ġuncommonly": 7405,
      "Ġtraditions": 7406,
      "Ġscrat": 7407,
      "ulence": 7408,
      "Ġmothers": 7409,
      "Ġfrightened": 7410,
      "imental": 7411,
      "hardly": 7412,
      "Ġsignificance": 7413,
      "Ġfaithful": 7414,
      "minded": 7415,
      "Ġwrecked": 7416,
      "Ġcongenial": 7417,
      "Ġknocking": 7418,
      "Ġknocked": 7419,
      "Ġcomparison": 7420,
      "Ġcomparatively": 7421,
      "Ġembark": 7422,
      "Ġembalmed": 7423,
      "Ġstretch": 7424,
      "Ġapartment": 7425,
      "Ġphantoms": 7426,
      "mighty": 7427,
      "Ġmemory": 7428,
      "Ġloudly": 7429,
      "sleep": 7430,
      "Ġtreated": 7431,
      "Ġbeside": 7432,
      "Ġnoiseless": 7433,
      "Ġpermitted": 7434,
      "Ġpermission": 7435,
      "Ġdismal": 7436,
      "Ġwitness": 7437,
      "Ġfowl": 7438,
      "ĠBlack": 7439,
      "Ġvibrating": 7440,
      "Ġimperial": 7441,
      "Ġprayers": 7442,
      "creature": 7443,
      "Ġidentical": 7444,
      "Ġtremendous": 7445,
      "Ġfero": 7446,
      "Ġfields": 7447,
      "Ġpotent": 7448,
      "Ġpublished": 7449,
      "Ġranging": 7450,
      "Ġprocess": 7451,
      "superstit": 7452,
      "Ġincredible": 7453,
      "Ġmoonlight": 7454,
      "Ġsystemat": 7455,
      "Ġbuoyant": 7456,
      "QUOD": 7457,
      "Ġwedding": 7458,
      "Ġspectacle": 7459,
      "Ġcomrade": 7460,
      "Ġsatisfact": 7461,
      "Ġintelligent": 7462,
      "Ġintelligence": 7463,
      "Ġmurderous": 7464,
      "Ġcounterpane": 7465,
      "Ġsacred": 7466,
      "Ġdraught": 7467,
      "ĠSunda": 7468,
      "ĠSunday": 7469,
      "Ġweapon": 7470,
      "Ġweapons": 7471,
      "ĠCharity": 7472,
      "sufferable": 7473,
      "Ġtransparent": 7474,
      "circumstance": 7475,
      "cruising": 7476,
      "middle": 7477,
      "necessary": 7478,
      "Ġinfluence": 7479,
      "Ġbolted": 7480,
      "Ġplunged": 7481,
      "vessels": 7482,
      "Ġdistinguished": 7483,
      "Ġapplicable": 7484,
      "Ġdeliberately": 7485,
      "Ġfrigate": 7486,
      "Ġphrenolog": 7487,
      "Ġcouple": 7488,
      "Ġinscrutable": 7489,
      "cepting": 7490,
      "children": 7491,
      "Ġmeasured": 7492,
      "Ġquadrant": 7493,
      "Ġfolds": 7494,
      "complete": 7495,
      "Ġsqueeze": 7496,
      "Ġphilosopher": 7497,
      "Ġaccomplished": 7498,
      "ĠAfrica": 7499,
      "Ġjeopardy": 7500,
      "Ġwrenched": 7501,
      "hammock": 7502,
      "Ġbrawny": 7503,
      "Ġdiabol": 7504,
      "Ġlanguage": 7505,
      "Ġthreads": 7506,
      "Ġsemi": 7507,
      "Ġassured": 7508,
      "Ġforgotten": 7509,
      "quarter": 7510,
      "Ġneighbor": 7511,
      "lossal": 7512,
      "Ġexpense": 7513,
      "Ġaggreg": 7514,
      "Ġremembered": 7515,
      "Ġchimney": 7516,
      "Ġconcentr": 7517,
      "Ġrepresenting": 7518,
      "Ġawaiting": 7519,
      "Ġsteadfastly": 7520,
      "Ġheathenish": 7521,
      "Ġvigilance": 7522,
      "English": 7523,
      "Ġmizen": 7524,
      "Ġhereditary": 7525,
      "Ġanxious": 7526,
      "ĠTyphoon": 7527,
      "ĠPEQUOD": 7528,
      "Ġconspicuous": 7529,
      "Ġtrumpet": 7530,
      "ĠJerobo": 7531,
      "Ġglittering": 7532,
      "Ġplaintiffs": 7533,
      "Ġdelirium": 7534,
      "Ġpropriet": 7535,
      "Ġindependent": 7536,
      "Ġsymptoms": 7537,
      "fashioned": 7538,
      "Ġsorry": 7539,
      "Ġsagacious": 7540,
      "Ġsidelong": 7541,
      "Ġwoollen": 7542,
      "Ġwigwam": 7543,
      "Ġfibres": 7544,
      "Ġpipes": 7545,
      "allel": 7546,
      "Ġultimate": 7547,
      "ulkington": 7548,
      "ĠHurrah": 7549,
      "Ġsteersman": 7550,
      "Ġintroduced": 7551,
      "Ġvicissitudes": 7552,
      "electronic": 7553,
      "Ġopport": 7554,
      "Ġcoffee": 7555,
      "Ġinhabit": 7556,
      "Ġtobacco": 7557,
      "imagin": 7558,
      "ĠAHAB": 7559,
      "ĠTarshish": 7560,
      "ĠCabaco": 7561,
      "ĠNANTUCKET": 7562,
      "ĠMEETS": 7563,
      "ĠJeroboam": 7564,
      "!)": 7565,
      ".,": 7566,
      "15": 7567,
      "75": 7568,
      "Are": 7569,
      "AND": 7570,
      "Again": 7571,
      "BY": 7572,
      "Bel": 7573,
      "Because": 7574,
      "Cl": 7575,
      "Dr": 7576,
      "Every": 7577,
      "ECK": 7578,
      "Fin": 7579,
      "From": 7580,
      "Had": 7581,
      "Ind": 7582,
      "John": 7583,
      "King": 7584,
      "Land": 7585,
      "Lord": 7586,
      "May": 7587,
      "Mast": 7588,
      "Never": 7589,
      "Next": 7590,
      "Rose": 7591,
      "Sh": 7592,
      "Sha": 7593,
      "Sub": 7594,
      "Stern": 7595,
      "Section": 7596,
      "UB": 7597,
      "UR": 7598,
      "Un": 7599,
      "Whether": 7600,
      "_âĢĶ": 7601,
      "aith": 7602,
      "aur": 7603,
      "bull": 7604,
      "bbe": 7605,
      "bye": 7606,
      "bade": 7607,
      "brew": 7608,
      "bler": 7609,
      "care": 7610,
      "craw": 7611,
      "coffin": 7612,
      "coward": 7613,
      "dain": 7614,
      "dam": 7615,
      "days": 7616,
      "eous": 7617,
      "eves": 7618,
      "epest": 7619,
      "fri": 7620,
      "fam": 7621,
      "fra": 7622,
      "fig": 7623,
      "father": 7624,
      "fair": 7625,
      "flesh": 7626,
      "fleet": 7627,
      "gone": 7628,
      "green": 7629,
      "hot": 7630,
      "hill": 7631,
      "home": 7632,
      "hundred": 7633,
      "honor": 7634,
      "ius": 7635,
      "iable": 7636,
      "ieth": 7637,
      "jured": 7638,
      "lu": 7639,
      "lie": 7640,
      "lorn": 7641,
      "lung": 7642,
      "laid": 7643,
      "mou": 7644,
      "met": 7645,
      "mad": 7646,
      "mel": 7647,
      "mother": 7648,
      "meth": 7649,
      "mechan": 7650,
      "non": 7651,
      "nes": 7652,
      "nels": 7653,
      "number": 7654,
      "oil": 7655,
      "port": 7656,
      "pable": 7657,
      "rid": 7658,
      "rings": 7659,
      "rather": 7660,
      "raged": 7661,
      "sir": 7662,
      "sent": 7663,
      "sion": 7664,
      "sch": 7665,
      "sum": 7666,
      "spo": 7667,
      "sav": 7668,
      "sure": 7669,
      "six": 7670,
      "sky": 7671,
      "saying": 7672,
      "suddenly": 7673,
      "ttom": 7674,
      "turned": 7675,
      "touch": 7676,
      "ux": 7677,
      "uit": 7678,
      "uary": 7679,
      "ufact": 7680,
      "vis": 7681,
      "wer": 7682,
      "wter": 7683,
      "yl": 7684,
      "yt": 7685,
      "yards": 7686,
      "zar": 7687,
      "zes": 7688,
      "zard": 7689,
      "zure": 7690,
      "zberg": 7691,
      "Ã©": 7692,
      "Ġer": 7693,
      "Ġvest": 7694,
      "Ġtick": 7695,
      "Ġtides": 7696,
      "Ġtones": 7697,
      "Ġtext": 7698,
      "Ġtaffrail": 7699,
      "hear": 7700,
      "hent": 7701,
      "hears": 7702,
      "heaven": 7703,
      "Ġale": 7704,
      "Ġach": 7705,
      "Ġaint": 7706,
      "Ġaright": 7707,
      "Ġahoy": 7708,
      "Ġavail": 7709,
      "Ġazure": 7710,
      "inner": 7711,
      "inately": 7712,
      "invest": 7713,
      "invol": 7714,
      "Ġsore": 7715,
      "Ġsap": 7716,
      "Ġsour": 7717,
      "Ġsits": 7718,
      "Ġsized": 7719,
      "Ġost": 7720,
      "Ġwis": 7721,
      "Ġwight": 7722,
      "Ġwaking": 7723,
      "Ġwrest": 7724,
      "Ġwaving": 7725,
      "Ġwaved": 7726,
      "Ġwoof": 7727,
      "rey": 7728,
      "reck": 7729,
      "reary": 7730,
      "rets": 7731,
      "eries": 7732,
      "Ġbal": 7733,
      "Ġbust": 7734,
      "Ġbrew": 7735,
      "Ġbund": 7736,
      "Ġbarn": 7737,
      "Ġbony": 7738,
      "Ġburned": 7739,
      "Ġbased": 7740,
      "Ġbottle": 7741,
      "Ġbuffalo": 7742,
      "Ġbiscuit": 7743,
      "isk": 7744,
      "isp": 7745,
      "ishe": 7746,
      "istern": 7747,
      "left": 7748,
      "leviathan": 7749,
      "lebr": 7750,
      "leader": 7751,
      "itect": 7752,
      "itself": 7753,
      "itating": 7754,
      "Ġmap": 7755,
      "Ġmess": 7756,
      "Ġmak": 7757,
      "Ġmars": 7758,
      "Ġmumbling": 7759,
      "edar": 7760,
      "Ġfel": 7761,
      "Ġfab": 7762,
      "Ġfix": 7763,
      "Ġfugitive": 7764,
      "Ġcave": 7765,
      "Ġcowards": 7766,
      "Ġcedar": 7767,
      "onn": 7768,
      "onted": 7769,
      "onation": 7770,
      "onies": 7771,
      "onial": 7772,
      "onstr": 7773,
      "aron": 7774,
      "arming": 7775,
      "arctic": 7776,
      "Ġinhale": 7777,
      "Ġinev": 7778,
      "Ġinverted": 7779,
      "Ġinasmuch": 7780,
      "Ġinsufferable": 7781,
      "lloa": 7782,
      "story": 7783,
      "Ġhilar": 7784,
      "Ġhoney": 7785,
      "Ġhomage": 7786,
      "atin": 7787,
      "ators": 7788,
      "atiate": 7789,
      "Ġtops": 7790,
      "Ġtolerable": 7791,
      "Ġdue": 7792,
      "Ġdash": 7793,
      "Ġdents": 7794,
      "Ġdaught": 7795,
      "Ġdiver": 7796,
      "Ġdotted": 7797,
      "Ġdreary": 7798,
      "Ġpious": 7799,
      "Ġpile": 7800,
      "Ġpry": 7801,
      "Ġpaw": 7802,
      "Ġpool": 7803,
      "Ġpaying": 7804,
      "Ġpowers": 7805,
      "Ġporpoises": 7806,
      "Ġla": 7807,
      "Ġlot": 7808,
      "Ġlion": 7809,
      "Ġlose": 7810,
      "Ġlbs": 7811,
      "Ġlarboard": 7812,
      "Ġlicense": 7813,
      "Ġnon": 7814,
      "Ġnod": 7815,
      "Ġnomin": 7816,
      "Ġnails": 7817,
      "Ġnostrils": 7818,
      "asions": 7819,
      "Ġheaps": 7820,
      "uter": 7821,
      "utored": 7822,
      "lydon": 7823,
      "Ġhap": 7824,
      "Ġhaught": 7825,
      "Ġbend": 7826,
      "Ġbeard": 7827,
      "Ġbeheaded": 7828,
      "Ġbeaut": 7829,
      "Ġbethink": 7830,
      "Ġbeware": 7831,
      "Ġbeasts": 7832,
      "icy": 7833,
      "icirc": 7834,
      "ickest": 7835,
      "sem": 7836,
      "imm": 7837,
      "Ġgush": 7838,
      "Ġgathered": 7839,
      "Ġemerged": 7840,
      "otha": 7841,
      "ĠIV": 7842,
      "ĠIm": 7843,
      "alous": 7844,
      "alive": 7845,
      "aloft": 7846,
      "althy": 7847,
      "Ġumb": 7848,
      "veh": 7849,
      "etace": 7850,
      "etian": 7851,
      "irs": 7852,
      "irty": 7853,
      "Ġstaring": 7854,
      "Ġstates": 7855,
      "Ġstately": 7856,
      "Ġstories": 7857,
      "Ġstooped": 7858,
      "ado": 7859,
      "acles": 7860,
      "accounted": 7861,
      "thest": 7862,
      "Ġsees": 7863,
      "Ġseal": 7864,
      "Ġsevere": 7865,
      "roll": 7866,
      "rose": 7867,
      "urther": 7868,
      "urches": 7869,
      "urday": 7870,
      "urgeon": 7871,
      "Ġassail": 7872,
      "Ġasleep": 7873,
      "Ġisle": 7874,
      "Ġretain": 7875,
      "Ġrecl": 7876,
      "Ġrearing": 7877,
      "Ġreeled": 7878,
      "Ġwash": 7879,
      "Ġwasn": 7880,
      "andy": 7881,
      "andom": 7882,
      "rie": 7883,
      "rian": 7884,
      "rive": 7885,
      "ripp": 7886,
      "riage": 7887,
      "ĠAgain": 7888,
      "ooke": 7889,
      "ĠSub": 7890,
      "ĠStop": 7891,
      "ĠSurely": 7892,
      "ilight": 7893,
      "Ġwears": 7894,
      "Ġwestern": 7895,
      "Ġweek": 7896,
      "Ġweaver": 7897,
      "cho": 7898,
      "Ġanom": 7899,
      "Ġanvil": 7900,
      "Ġanalo": 7901,
      "amount": 7902,
      "ammed": 7903,
      "orers": 7904,
      "ĠTH": 7905,
      "terable": 7906,
      "aster": 7907,
      "Ġshower": 7908,
      "Ġshowing": 7909,
      "Ġsober": 7910,
      "Ġsocket": 7911,
      "ify": 7912,
      "ifies": 7913,
      "Ġnote": 7914,
      "Ġsuggest": 7915,
      "illing": 7916,
      "ĠĠĠĠĠĠĠĠĠĠĠĠĠĠĠĠĠ": 7917,
      "ĠĠĠĠĠĠĠĠĠĠĠĠĠĠĠĠĠĠ": 7918,
      "ĠĠĠĠĠĠĠĠĠĠĠĠĠĠĠĠĠĠĠ": 7919,
      "ĠĠĠĠĠĠĠĠĠĠĠĠĠĠĠĠĠĠĠĠĠĠĠĠĠĠĠĠĠĠĠĠĠĠĠĠĠĠĠĠĠ": 7920,
      "ipel": 7921,
      "ipotent": 7922,
      "ulation": 7923,
      "ulged": 7924,
      "Ġraz": 7925,
      "Ġrowing": 7926,
      "Ġrises": 7927,
      "Ġrandom": 7928,
      "told": 7929,
      "ardon": 7930,
      "Ġlege": 7931,
      "agre": 7932,
      "agoes": 7933,
      "ĠBanks": 7934,
      "Ġvap": 7935,
      "Ġvind": 7936,
      "Ġviv": 7937,
      "Ġvile": 7938,
      "Ġmend": 7939,
      "ĠCl": 7940,
      "ĠCr": 7941,
      "ĠCong": 7942,
      "Ġspin": 7943,
      "Ġspades": 7944,
      "Ġspires": 7945,
      "Ġspinal": 7946,
      "Ġspeech": 7947,
      "ĠWashing": 7948,
      "rederick": 7949,
      "antation": 7950,
      "Ġbolt": 7951,
      "eling": 7952,
      "Ġsaith": 7953,
      "ĠPh": 7954,
      "ĠPan": 7955,
      "ĠPat": 7956,
      "ĠPres": 7957,
      "ĠPass": 7958,
      "ĠPRO": 7959,
      "arts": 7960,
      "essor": 7961,
      "Ġconstr": 7962,
      "Ġconstit": 7963,
      "ums": 7964,
      "hank": 7965,
      "hant": 7966,
      "Ġalarmed": 7967,
      "owne": 7968,
      "owned": 7969,
      "Ġdey": 7970,
      "Ġdepend": 7971,
      "Ġdeepest": 7972,
      "Ġunb": 7973,
      "Ġunite": 7974,
      "Ġunlike": 7975,
      "Ġunited": 7976,
      "Ġuncond": 7977,
      "Ġunrest": 7978,
      "Ġuniver": 7979,
      "Ġunob": 7980,
      "Ġunimagin": 7981,
      "ĠHE": 7982,
      "ĠHy": 7983,
      "ĠHand": 7984,
      "ĠHind": 7985,
      "ĠHIS": 7986,
      "Ġsomebody": 7987,
      "ighed": 7988,
      "Ġoutside": 7989,
      "Ġoutlandish": 7990,
      "istible": 7991,
      "istered": 7992,
      "Ġcommen": 7993,
      "Ġcommer": 7994,
      "Ġneared": 7995,
      "ĠFish": 7996,
      "ĠFleece": 7997,
      "Ġfever": 7998,
      "Ġfeast": 7999,
      "Ġfears": 8000,
      "ĠStraits": 8001,
      "load": 8002,
      "Ġjun": 8003,
      "Ġjour": 8004,
      "Ġjib": 8005,
      "Ġjunct": 8006,
      "reath": 8007,
      "respect": 8008,
      "rescent": 8009,
      "Ġwhoever": 8010,
      "ĠNO": 8011,
      "ĠNine": 8012,
      "ĠNarwhale": 8013,
      "ĠNatural": 8014,
      "inea": 8015,
      "ineer": 8016,
      "Ġexhale": 8017,
      "Ġexter": 8018,
      "Ġextending": 8019,
      "Ġextended": 8020,
      "Ġdoors": 8021,
      "Ġdogs": 8022,
      "ĠLong": 8023,
      "ĠLangs": 8024,
      "ival": 8025,
      "Ġabroad": 8026,
      "Ġaboriginal": 8027,
      "iless": 8028,
      "ĠDoes": 8029,
      "Ġoverhead": 8030,
      "ĠGreen": 8031,
      "ĠGlobe": 8032,
      "ĠMark": 8033,
      "ĠMany": 8034,
      "ĠMethinks": 8035,
      "Ġplight": 8036,
      "Ġplacing": 8037,
      "Ġpolic": 8038,
      "Ġblown": 8039,
      "Ġtimbers": 8040,
      "equately": 8041,
      "Ġseeming": 8042,
      "ecting": 8043,
      "Ġafar": 8044,
      "Ġafore": 8045,
      "Ġroar": 8046,
      "Ġroad": 8047,
      "Ġrocked": 8048,
      "Ġrooted": 8049,
      "Ġtrance": 8050,
      "Ġtraged": 8051,
      "abor": 8052,
      "Ġanyone": 8053,
      "olic": 8054,
      "forehead": 8055,
      "Ġknot": 8056,
      "Ġknives": 8057,
      "Ġcanoes": 8058,
      "Ġtwine": 8059,
      "Ġgoble": 8060,
      "begin": 8061,
      "ourth": 8062,
      "Ġhandled": 8063,
      "arest": 8064,
      "Ġark": 8065,
      "Ġcoins": 8066,
      "Ġcosy": 8067,
      "Ġcolossal": 8068,
      "osea": 8069,
      "Ġwatched": 8070,
      "Ġamber": 8071,
      "Ġusually": 8072,
      "ĠOut": 8073,
      "ĠOri": 8074,
      ",âĢĿâĢĶ": 8075,
      "ordinate": 8076,
      "Ġparties": 8077,
      "Ġparticulars": 8078,
      "Ġperched": 8079,
      "holes": 8080,
      "Ġprem": 8081,
      "Ġpretend": 8082,
      "Ġgreatly": 8083,
      "Ġgrou": 8084,
      "Ġgrasping": 8085,
      "Ġgrasped": 8086,
      "Ġseeks": 8087,
      "Ġhereafter": 8088,
      "spades": 8089,
      "Ġbrim": 8090,
      "Ġbrown": 8091,
      "Ġbraces": 8092,
      "Ġflight": 8093,
      "Ġflound": 8094,
      "Ġflies": 8095,
      "Ġflashing": 8096,
      "Ġflavor": 8097,
      "Ġflashes": 8098,
      "Ġoffer": 8099,
      "Ġswore": 8100,
      "ailing": 8101,
      "Ġsmitten": 8102,
      "?âĢĿâĢĶ": 8103,
      "ĠEd": 8104,
      "ĠEvery": 8105,
      "ĠEmper": 8106,
      "Ġcompact": 8107,
      "Ġcomplic": 8108,
      "Ġcompasses": 8109,
      "Ġcompliance": 8110,
      "lier": 8111,
      "Ġhowled": 8112,
      "Ġslumber": 8113,
      "athom": 8114,
      "ĠHead": 8115,
      "Ġrigged": 8116,
      "covered": 8117,
      "shot": 8118,
      "ĠRed": 8119,
      "ĠRome": 8120,
      "ĠRem": 8121,
      "ĠRachel": 8122,
      "Ġado": 8123,
      "ization": 8124,
      "Ġowned": 8125,
      "Ġeverywhere": 8126,
      "ĠJung": 8127,
      "ĠJob": 8128,
      "Ġshame": 8129,
      "Ġwherefore": 8130,
      "forward": 8131,
      "Ġindispensable": 8132,
      "angling": 8133,
      "angway": 8134,
      "Ġcalves": 8135,
      "Ġcontents": 8136,
      "Ġcontempt": 8137,
      "claim": 8138,
      "claimed": 8139,
      "Ġfoes": 8140,
      "Ġclut": 8141,
      "Ġclimes": 8142,
      "Ġcloud": 8143,
      "merchant": 8144,
      "Ġobtain": 8145,
      "Ġgoodness": 8146,
      "pses": 8147,
      "Ġbetrayed": 8148,
      "placed": 8149,
      "planted": 8150,
      "Ġmaternal": 8151,
      "Ġmathemat": 8152,
      "Ġenters": 8153,
      "Ġentreat": 8154,
      "Ġentrance": 8155,
      "action": 8156,
      "Ġchasing": 8157,
      "Ġknowest": 8158,
      "Ġchin": 8159,
      "Ġchips": 8160,
      "Ġchorus": 8161,
      "Ġchurches": 8162,
      "Ġconsist": 8163,
      "Ġconsists": 8164,
      "Ġconscient": 8165,
      "Ġsubt": 8166,
      "Ġsteered": 8167,
      "Ġaccordingly": 8168,
      "Ġaccidents": 8169,
      "Ġaccounted": 8170,
      "Ġworlds": 8171,
      "withstanding": 8172,
      "Ġended": 8173,
      "Ġpreserved": 8174,
      "henomen": 8175,
      "need": 8176,
      "Ġmarching": 8177,
      "Ġmargin": 8178,
      "Ġshelf": 8179,
      "Ġsheep": 8180,
      "Ġlandlad": 8181,
      "Ġsunlight": 8182,
      "Ġsunny": 8183,
      "likewise": 8184,
      "Ġwoven": 8185,
      "ression": 8186,
      "azement": 8187,
      "exc": 8188,
      "exp": 8189,
      "exact": 8190,
      "suing": 8191,
      "Ġbelief": 8192,
      "Ġforemost": 8193,
      "Ġforebod": 8194,
      "Ġinterm": 8195,
      "Ġinterven": 8196,
      "Ġinternal": 8197,
      "Ġdram": 8198,
      "Ġpeering": 8199,
      "concluded": 8200,
      "Ġpurse": 8201,
      "Ġpurple": 8202,
      "ĠThose": 8203,
      "ĠThunder": 8204,
      "lson": 8205,
      "Ġsurm": 8206,
      "eware": 8207,
      "Ġappet": 8208,
      "Ġearlier": 8209,
      "stranger": 8210,
      "Ġwrist": 8211,
      "Ġgenerous": 8212,
      "legs": 8213,
      "trad": 8214,
      "truck": 8215,
      "Ġsleet": 8216,
      "Ġslender": 8217,
      "Ġfeelings": 8218,
      "ĠVoy": 8219,
      "whatever": 8220,
      "Ġregion": 8221,
      "Ġcheering": 8222,
      "Ġdarker": 8223,
      "Ġspouted": 8224,
      "Ġspoutings": 8225,
      "Ġlargely": 8226,
      "Ġtear": 8227,
      "Ġvoyag": 8228,
      "worship": 8229,
      "Ġreader": 8230,
      "changed": 8231,
      "death": 8232,
      "Ġwarri": 8233,
      "Ġhumming": 8234,
      "ierce": 8235,
      "Ġjoints": 8236,
      "flowing": 8237,
      "Ġcreated": 8238,
      "Ġbreast": 8239,
      "Ġfurious": 8240,
      "Ġlaying": 8241,
      "ampus": 8242,
      "Ġhath": 8243,
      "Ġhated": 8244,
      "Ġmoss": 8245,
      "prod": 8246,
      "prov": 8247,
      "proceed": 8248,
      "encoun": 8249,
      "Ġframe": 8250,
      "Ġfrank": 8251,
      "Ġsignal": 8252,
      "ississ": 8253,
      "Ġclen": 8254,
      "Ġcleared": 8255,
      "ontory": 8256,
      "Ġpossession": 8257,
      "Ġharpooned": 8258,
      "arris": 8259,
      "Ġdrops": 8260,
      "Ġdoubted": 8261,
      "Ġdoubts": 8262,
      "Ġhearth": 8263,
      "ĠIndeed": 8264,
      "speech": 8265,
      "Ġcompleted": 8266,
      "Thr": 8267,
      "Think": 8268,
      "Ġpeculiarity": 8269,
      "Ġdeeply": 8270,
      "Ġaffected": 8271,
      "Ġaffection": 8272,
      "Ġsleepy": 8273,
      "Ġsleepers": 8274,
      "ĠLeviathans": 8275,
      "Ġmaintain": 8276,
      "longer": 8277,
      "Ġvisited": 8278,
      "Ġsmoked": 8279,
      "smo": 8280,
      "swift": 8281,
      "Ġbowl": 8282,
      "Ġcontinuous": 8283,
      "ieties": 8284,
      "sailor": 8285,
      "Ġpersu": 8286,
      "Ġthirds": 8287,
      "Ġprofile": 8288,
      "Ġfinds": 8289,
      "Ġresult": 8290,
      "Ġresuming": 8291,
      "ruct": 8292,
      "ruption": 8293,
      "Ġcollected": 8294,
      "Ġlady": 8295,
      "Ġvoices": 8296,
      "Ġvocation": 8297,
      "Ġspecific": 8298,
      "Ġadvances": 8299,
      "Ġadvantage": 8300,
      "Ġcircumference": 8301,
      "penters": 8302,
      "somewhat": 8303,
      "Ġcourses": 8304,
      "Ġinfidel": 8305,
      "Ġreturning": 8306,
      "Ġretired": 8307,
      "Ġintellect": 8308,
      "Ġportents": 8309,
      "knives": 8310,
      "myself": 8311,
      "Ġinsur": 8312,
      "ĠChurch": 8313,
      "Ġartificial": 8314,
      "Ġparticularly": 8315,
      "phur": 8316,
      "Ġaware": 8317,
      "Ġmerid": 8318,
      "nights": 8319,
      "looked": 8320,
      "Ġmasses": 8321,
      "Ġmassive": 8322,
      "Ġflee": 8323,
      "Ġcountries": 8324,
      "Ġtopmost": 8325,
      "Ġreflection": 8326,
      "cription": 8327,
      "Ġserve": 8328,
      "Ġserpent": 8329,
      "Ġsixteen": 8330,
      "Ġviewed": 8331,
      "Ġassist": 8332,
      "Ġassure": 8333,
      "Ġassaults": 8334,
      "Ġcontrad": 8335,
      "prehens": 8336,
      "Ġbottomless": 8337,
      "Ġdriven": 8338,
      "ĠArsac": 8339,
      "Ġspiracle": 8340,
      "Ġextent": 8341,
      "critters": 8342,
      "Ġdiving": 8343,
      "Ġdivide": 8344,
      "Ġdividing": 8345,
      "Ġequally": 8346,
      "Ġrelated": 8347,
      "ĠAmericans": 8348,
      "Ġproperly": 8349,
      "Ġfluid": 8350,
      "Ġpursuing": 8351,
      "Ġpursuers": 8352,
      "ILL": 8353,
      "canoes": 8354,
      "Ġwait": 8355,
      "Ġcommonly": 8356,
      "rapped": 8357,
      "Ġtribe": 8358,
      "Ġbreathe": 8359,
      "Ġbreathing": 8360,
      "Ġbreathes": 8361,
      "Ġcasting": 8362,
      "umbers": 8363,
      "lestial": 8364,
      "Ġmagnetic": 8365,
      "Ġrecalled": 8366,
      "Ġquestions": 8367,
      "helm": 8368,
      "Ġthickness": 8369,
      "ĠSpring": 8370,
      "ĠSpouter": 8371,
      "Ġproduce": 8372,
      "Ġproducing": 8373,
      "considering": 8374,
      "Ġlimb": 8375,
      "ribution": 8376,
      "Ġshades": 8377,
      "Ġdragon": 8378,
      "Ġbarbed": 8379,
      "Ġmodified": 8380,
      "Ġtalked": 8381,
      "Ġcatching": 8382,
      "Ġhulls": 8383,
      "Ġdetail": 8384,
      "Ġdetached": 8385,
      "thrown": 8386,
      "Ġvalue": 8387,
      "Ġblindly": 8388,
      "nibal": 8389,
      "slowly": 8390,
      "Ġidiot": 8391,
      "Ġsalvation": 8392,
      "Ġwalrus": 8393,
      "Ġangel": 8394,
      "Ġshoot": 8395,
      "Ġproviding": 8396,
      "Ġvel": 8397,
      "Ġveil": 8398,
      "Ġbillow": 8399,
      "Ġsupport": 8400,
      "Ġcondition": 8401,
      "attling": 8402,
      "Ġdenomin": 8403,
      "Ġdreaming": 8404,
      "ĠAlabama": 8405,
      "appearance": 8406,
      "Ġillustr": 8407,
      "Ġrespects": 8408,
      "Ġadmire": 8409,
      "Ġcrowds": 8410,
      "Ġcrowding": 8411,
      "closed": 8412,
      "porary": 8413,
      "Ġcerem": 8414,
      "Ġcelestial": 8415,
      "Ġpatient": 8416,
      "Ġvainly": 8417,
      "ĠChristians": 8418,
      "ARD": 8419,
      "foot": 8420,
      "Ġpromise": 8421,
      "Ġantiqu": 8422,
      "Ġabsence": 8423,
      "sheets": 8424,
      "Ġbuilt": 8425,
      "Ġhangs": 8426,
      "Ġannounced": 8427,
      "extra": 8428,
      "Ġodds": 8429,
      "Ġhighest": 8430,
      "Ġgallows": 8431,
      "Ġgallons": 8432,
      "Ġsuffering": 8433,
      "Ġsufficiently": 8434,
      "ĠBeale": 8435,
      "Ġdescended": 8436,
      "However": 8437,
      "Ġcounsel": 8438,
      "Ġheeded": 8439,
      "Ġheedful": 8440,
      "Ġheightened": 8441,
      "Ġvolition": 8442,
      "Ġmysteries": 8443,
      "ĠHoly": 8444,
      "ĠHope": 8445,
      "Ġinvolve": 8446,
      "Ġmedic": 8447,
      "ĠSeeing": 8448,
      "Ġlevelled": 8449,
      "Ġdestined": 8450,
      "Ġunfathom": 8451,
      "ENT": 8452,
      "Ġleaky": 8453,
      "Ġprobability": 8454,
      "Ġdoubloons": 8455,
      "Ġ183": 8456,
      "RES": 8457,
      "Ġbrig": 8458,
      "Ġbrill": 8459,
      "Ġchoice": 8460,
      "Ġunwonted": 8461,
      "Ġbreaths": 8462,
      "battle": 8463,
      "yourself": 8464,
      "Ġtube": 8465,
      "Ġeste": 8466,
      "Ġestim": 8467,
      "Ġcheerful": 8468,
      "Meanwhile": 8469,
      "watches": 8470,
      "Ġbreadth": 8471,
      "Ġhoof": 8472,
      "Ġtowns": 8473,
      "Ġposted": 8474,
      "Ġhempen": 8475,
      "ĠLikewise": 8476,
      "tellig": 8477,
      "Ġaffairs": 8478,
      "bury": 8479,
      "cules": 8480,
      "shoe": 8481,
      "Ġfashioned": 8482,
      "Ġcongregation": 8483,
      "Ġwithdrawn": 8484,
      "Ġrevolved": 8485,
      "Ġvillage": 8486,
      "Ġcomparative": 8487,
      "Ġstretching": 8488,
      "Ġprivilege": 8489,
      "broad": 8490,
      "Ġauthority": 8491,
      "Ġauthorities": 8492,
      "Ġpunct": 8493,
      "Ġlucky": 8494,
      "Ġstudy": 8495,
      "Ġdistributing": 8496,
      "Ġdistributed": 8497,
      "Ġpeaceful": 8498,
      "ĠArchy": 8499,
      "clean": 8500,
      "captains": 8501,
      "spermaceti": 8502,
      "Ġobeying": 8503,
      "Ġpirate": 8504,
      "Ġexcited": 8505,
      "Ġcomprehens": 8506,
      "Ġafforded": 8507,
      "Ġscarcely": 8508,
      "Nothing": 8509,
      "Ġoperation": 8510,
      "Ġcoolly": 8511,
      "Ġdirected": 8512,
      "Ġpuffs": 8513,
      "ĠAdam": 8514,
      "Ġshudder": 8515,
      "Ġvibration": 8516,
      "Ġscrewed": 8517,
      "Ġindefinite": 8518,
      "creatures": 8519,
      "Ġinquiring": 8520,
      "Ġinexplicable": 8521,
      "Ġperpendicularly": 8522,
      "ictionary": 8523,
      "Ġincredulous": 8524,
      "following": 8525,
      "followed": 8526,
      "Ġdestroy": 8527,
      "human": 8528,
      "kerchief": 8529,
      "square": 8530,
      "ucif": 8531,
      "Ġbubble": 8532,
      "Ġmovement": 8533,
      "Ġfiends": 8534,
      "Ġnavy": 8535,
      "Ġunconsciously": 8536,
      "Ġabandon": 8537,
      "ĠMayhew": 8538,
      "Ġprinciple": 8539,
      "strangely": 8540,
      "bulwarks": 8541,
      "Ġerrors": 8542,
      "Ġcredit": 8543,
      "engaged": 8544,
      "ĠAmong": 8545,
      "ĠShall": 8546,
      "Ġshrieks": 8547,
      "ĠEuroc": 8548,
      "Ġdeserted": 8549,
      "Ġsurvive": 8550,
      "Ġsurrounded": 8551,
      "Ġpossessed": 8552,
      "Ġaccompanied": 8553,
      "Ġaccompanying": 8554,
      "IRST": 8555,
      "further": 8556,
      "generally": 8557,
      "Ġinnocent": 8558,
      "Ġpallid": 8559,
      "Ġlingering": 8560,
      "Ġbellies": 8561,
      "vereign": 8562,
      "Ġascended": 8563,
      "Ġwhirl": 8564,
      "Ġrisk": 8565,
      "Ġventure": 8566,
      "Ġconsequence": 8567,
      "ĠHarpo": 8568,
      "ĠGrand": 8569,
      "Ġapplication": 8570,
      "Ġhatchway": 8571,
      "ĠTranque": 8572,
      "Ġcomprehend": 8573,
      "freighted": 8574,
      "ĠZealand": 8575,
      "Ġaxis": 8576,
      "Ġinclined": 8577,
      "Ġassociated": 8578,
      "Ġanatomical": 8579,
      "ĠBrowne": 8580,
      "Ġmelancholy": 8581,
      "Ġdexterous": 8582,
      "Ġremorseless": 8583,
      "supplied": 8584,
      "concerning": 8585,
      "Ġfragrant": 8586,
      "Ġequatorial": 8587,
      "Ġtriumphant": 8588,
      "Ġadmirable": 8589,
      "Ġrecognised": 8590,
      "Another": 8591,
      "wondrous": 8592,
      "Ġmechanical": 8593,
      "Ġpillow": 8594,
      "Ġgaunt": 8595,
      "Ġgulf": 8596,
      "Ġsucking": 8597,
      "Ġpreceding": 8598,
      "ĠEgyptian": 8599,
      "Ġcontempl": 8600,
      "Ġloomed": 8601,
      "Ġsnuffed": 8602,
      "Ġmurderer": 8603,
      "Ġexclamation": 8604,
      "Ġtumultuous": 8605,
      "barrels": 8606,
      "beneath": 8607,
      "uvian": 8608,
      "heavy": 8609,
      "Ġmincer": 8610,
      "Ġfountain": 8611,
      "Ġcreamy": 8612,
      "Ġwelcome": 8613,
      "ippery": 8614,
      "ĠPlaton": 8615,
      "Ġperfectly": 8616,
      "Ġprudent": 8617,
      "Ġcurrents": 8618,
      "ĠThrough": 8619,
      "Ġphysical": 8620,
      "Ġdiminished": 8621,
      "Ġtreacherous": 8622,
      "Ġdiligently": 8623,
      "Black": 8624,
      "Parsee": 8625,
      "dorff": 8626,
      "occasion": 8627,
      "Ġavoid": 8628,
      "Ġwilful": 8629,
      "Ġmasonry": 8630,
      "Ġcrawl": 8631,
      "Ġlarger": 8632,
      "Ġlounging": 8633,
      "ĠSumatra": 8634,
      "ĠPersian": 8635,
      "Ġunharmed": 8636,
      "Ġexasperated": 8637,
      "Ġkneeling": 8638,
      "Ġobedience": 8639,
      "Ġrevelry": 8640,
      "Ġinquiry": 8641,
      "Ġsatisfied": 8642,
      "BERG": 8643,
      "craft": 8644,
      "fallen": 8645,
      "pretty": 8646,
      "Ġghastly": 8647,
      "urrection": 8648,
      "Ġreplenished": 8649,
      "ĠMacey": 8650,
      "Ġdismasted": 8651,
      "Ġloggerhead": 8652,
      "ĠVenetian": 8653,
      "Ġattentively": 8654,
      "Ġdeliverance": 8655,
      "Ġparlor": 8656,
      "frau": 8657,
      "mouthed": 8658,
      "zbergen": 8659,
      "Ġsource": 8660,
      "Ġmaketh": 8661,
      "Ġbeautiful": 8662,
      "ipelagoes": 8663,
      "Ġvindict": 8664,
      "ĠWashington": 8665,
      "Ġuniverse": 8666,
      "ĠNineveh": 8667,
      "ĠLangsdorff": 8668,
      "Ġcomplicated": 8669,
      "ĠJungfrau": 8670,
      "Ġlandlady": 8671,
      "ississipp": 8672,
      "ĠEuroclydon": 8673,
      "50": 8674,
      "?_": 8675,
      "AP": 8676,
      "AV": 8677,
      "AY": 8678,
      "Af": 8679,
      "Ah": 8680,
      "Aside": 8681,
      "Bad": 8682,
      "Both": 8683,
      "Bouton": 8684,
      "Cor": 8685,
      "Com": 8686,
      "Cape": 8687,
      "Coffin": 8688,
      "Consider": 8689,
      "Did": 8690,
      "Dough": 8691,
      "EM": 8692,
      "En": 8693,
      "ECT": 8694,
      "Egypt": 8695,
      "Fourth": 8696,
      "Gold": 8697,
      "Hark": 8698,
      "Hold": 8699,
      "Halloa": 8700,
      "Harbor": 8701,
      "ICK": 8702,
      "Just": 8703,
      "JECT": 8704,
      "Lay": 8705,
      "Long": 8706,
      "Life": 8707,
      "Lower": 8708,
      "Loose": 8709,
      "Lakeman": 8710,
      "Most": 8711,
      "Moreover": 8712,
      "NU": 8713,
      "Nay": 8714,
      "NIGHT": 8715,
      "OS": 8716,
      "Over": 8717,
      "Other": 8718,
      "OBY": 8719,
      "Pip": 8720,
      "Pres": 8721,
      "Re": 8722,
      "RANT": 8723,
      "Sing": 8724,
      "Squ": 8725,
      "Somet": 8726,
      "South": 8727,
      "Suddenly": 8728,
      "Second": 8729,
      "Tr": 8730,
      "Tur": 8731,
      "Town": 8732,
      "UN": 8733,
      "US": 8734,
      "Up": 8735,
      "Yet": 8736,
      "ais": 8737,
      "ban": 8738,
      "bare": 8739,
      "bular": 8740,
      "bread": 8741,
      "bster": 8742,
      "bably": 8743,
      "bench": 8744,
      "breath": 8745,
      "cer": 8746,
      "cat": 8747,
      "cif": 8748,
      "call": 8749,
      "cial": 8750,
      "caught": 8751,
      "chet": 8752,
      "crying": 8753,
      "dat": 8754,
      "det": 8755,
      "draw": 8756,
      "dler": 8757,
      "does": 8758,
      "different": 8759,
      "eb": 8760,
      "evi": 8761,
      "event": 8762,
      "either": 8763,
      "eked": 8764,
      "elephant": 8765,
      "fro": 8766,
      "fisher": 8767,
      "fancy": 8768,
      "firm": 8769,
      "gor": 8770,
      "gro": 8771,
      "gers": 8772,
      "gue": 8773,
      "gods": 8774,
      "hs": 8775,
      "high": 8776,
      "horn": 8777,
      "ias": 8778,
      "iary": 8779,
      "iating": 8780,
      "iently": 8781,
      "jac": 8782,
      "kine": 8783,
      "knot": 8784,
      "kins": 8785,
      "lur": 8786,
      "lain": 8787,
      "lance": 8788,
      "lice": 8789,
      "lances": 8790,
      "lays": 8791,
      "mas": 8792,
      "mut": 8793,
      "mine": 8794,
      "making": 8795,
      "mits": 8796,
      "mund": 8797,
      "makes": 8798,
      "nel": 8799,
      "nod": 8800,
      "nigh": 8801,
      "neck": 8802,
      "oc": 8803,
      "oar": 8804,
      "ocr": 8805,
      "pir": 8806,
      "pter": 8807,
      "prom": 8808,
      "pled": 8809,
      "pub": 8810,
      "pents": 8811,
      "pected": 8812,
      "paul": 8813,
      "priv": 8814,
      "ror": 8815,
      "ray": 8816,
      "sound": 8817,
      "sman": 8818,
      "slight": 8819,
      "saved": 8820,
      "soul": 8821,
      "tide": 8822,
      "took": 8823,
      "ture": 8824,
      "tured": 8825,
      "trem": 8826,
      "turning": 8827,
      "turb": 8828,
      "touching": 8829,
      "upp": 8830,
      "uitions": 8831,
      "vity": 8832,
      "vangel": 8833,
      "wa": 8834,
      "whe": 8835,
      "whis": 8836,
      "wife": 8837,
      "whel": 8838,
      "xic": 8839,
      "xim": 8840,
      "xible": 8841,
      "yarn": 8842,
      "yspe": 8843,
      "Åĵ": 8844,
      "Ġ6": 8845,
      "ĠQU": 8846,
      "Ġtil": 8847,
      "Ġtough": 8848,
      "Ġtus": 8849,
      "Ġtame": 8850,
      "Ġtasted": 8851,
      "Ġtenth": 8852,
      "Ġtitle": 8853,
      "hement": 8854,
      "heeded": 8855,
      "Ġaim": 8856,
      "Ġarom": 8857,
      "inen": 8858,
      "inqu": 8859,
      "inth": 8860,
      "inten": 8861,
      "inser": 8862,
      "instances": 8863,
      "including": 8864,
      "influ": 8865,
      "infer": 8866,
      "Ġtheory": 8867,
      "Ġsed": 8868,
      "Ġsen": 8869,
      "Ġske": 8870,
      "Ġsine": 8871,
      "Ġsire": 8872,
      "Ġsermon": 8873,
      "Ġoily": 8874,
      "Ġoaken": 8875,
      "Ġwad": 8876,
      "Ġwasted": 8877,
      "Ġwaning": 8878,
      "Ġwrigg": 8879,
      "rend": 8880,
      "rete": 8881,
      "represent": 8882,
      "recogn": 8883,
      "haw": 8884,
      "hammer": 8885,
      "haired": 8886,
      "hazz": 8887,
      "ndants": 8888,
      "eral": 8889,
      "erness": 8890,
      "erchant": 8891,
      "Ġbay": 8892,
      "Ġbough": 8893,
      "Ġbade": 8894,
      "Ġbadly": 8895,
      "Ġbudge": 8896,
      "isles": 8897,
      "iscrim": 8898,
      "leve": 8899,
      "lead": 8900,
      "itched": 8901,
      "itime": 8902,
      "iteness": 8903,
      "itement": 8904,
      "itzbergen": 8905,
      "Ġmag": 8906,
      "Ġmum": 8907,
      "Ġmach": 8908,
      "Ġmask": 8909,
      "Ġmowers": 8910,
      "edy": 8911,
      "edro": 8912,
      "Ġfem": 8913,
      "Ġfile": 8914,
      "Ġfits": 8915,
      "Ġfought": 8916,
      "Ġfacing": 8917,
      "Ġfacet": 8918,
      "Ġfidel": 8919,
      "Ġfaded": 8920,
      "Ġcu": 8921,
      "Ġcit": 8922,
      "Ġcard": 8923,
      "Ġcart": 8924,
      "Ġchis": 8925,
      "Ġcaw": 8926,
      "Ġcens": 8927,
      "Ġcetology": 8928,
      "Ġcripp": 8929,
      "Ġcrescent": 8930,
      "onomy": 8931,
      "Ġoft": 8932,
      "enough": 8933,
      "orable": 8934,
      "orily": 8935,
      "arus": 8936,
      "arious": 8937,
      "arner": 8938,
      "Ġinward": 8939,
      "Ġinfl": 8940,
      "Ġinference": 8941,
      "Ġinclude": 8942,
      "Ġinformation": 8943,
      "Ġinsect": 8944,
      "stat": 8945,
      "stay": 8946,
      "stell": 8947,
      "storm": 8948,
      "stretched": 8949,
      "Ġhing": 8950,
      "Ġhip": 8951,
      "Ġhus": 8952,
      "Ġhug": 8953,
      "Ġhooks": 8954,
      "anth": 8955,
      "Ġtoes": 8956,
      "Ġtool": 8957,
      "Ġtoiled": 8958,
      "Ġtoiling": 8959,
      "Ġding": 8960,
      "Ġdent": 8961,
      "Ġdip": 8962,
      "Ġdum": 8963,
      "Ġdate": 8964,
      "Ġdub": 8965,
      "Ġdance": 8966,
      "Ġdiet": 8967,
      "Ġduly": 8968,
      "Ġdivers": 8969,
      "Ġdromed": 8970,
      "Ġdazz": 8971,
      "Ġdyspe": 8972,
      "Ġpon": 8973,
      "Ġpod": 8974,
      "Ġpig": 8975,
      "Ġpest": 8976,
      "Ġpend": 8977,
      "Ġpush": 8978,
      "Ġpacked": 8979,
      "Ġporpoise": 8980,
      "Ġpoured": 8981,
      "omn": 8982,
      "omer": 8983,
      "omas": 8984,
      "omically": 8985,
      "hatch": 8986,
      "Ġloo": 8987,
      "Ġlard": 8988,
      "Ġliter": 8989,
      "Ġlucif": 8990,
      "Ġlinen": 8991,
      "Ġnice": 8992,
      "Ġthri": 8993,
      "Ġthres": 8994,
      "Ġthund": 8995,
      "Ġthump": 8996,
      "aspect": 8997,
      "Ġheap": 8998,
      "lynes": 8999,
      "Ġhav": 9000,
      "Ġhawk": 9001,
      "Ġhavoc": 9002,
      "Ġbeast": 9003,
      "Ġbegged": 9004,
      "Ġbetoken": 9005,
      "icha": 9006,
      "icing": 9007,
      "icting": 9008,
      "icade": 9009,
      "icorn": 9010,
      "iculous": 9011,
      "seas": 9012,
      "seated": 9013,
      "seventh": 9014,
      "imo": 9015,
      "imble": 9016,
      "immediately": 9017,
      "âĢĻ,": 9018,
      "Ġgin": 9019,
      "Ġgam": 9020,
      "Ġgable": 9021,
      "Ġgull": 9022,
      "Ġgaff": 9023,
      "Ġgasp": 9024,
      "Ġgorge": 9025,
      "Ġgasping": 9026,
      "Ġecon": 9027,
      "otes": 9028,
      "othed": 9029,
      "othes": 9030,
      "Ġitems": 9031,
      "ĠIce": 9032,
      "alian": 9033,
      "also": 9034,
      "alterable": 9035,
      "Ġugly": 9036,
      "Ġhissed": 9037,
      "idate": 9038,
      "idable": 9039,
      "idious": 9040,
      "idated": 9041,
      "verest": 9042,
      "irr": 9043,
      "irra": 9044,
      "Ġstor": 9045,
      "Ġstal": 9046,
      "Ġstab": 9047,
      "Ġstick": 9048,
      "Ġstages": 9049,
      "Ġstays": 9050,
      "Ġstaff": 9051,
      "Ġstayed": 9052,
      "Ġstamped": 9053,
      "Ġstooping": 9054,
      "ady": 9055,
      "adise": 9056,
      "advent": 9057,
      "adays": 9058,
      "ache": 9059,
      "across": 9060,
      "aciously": 9061,
      "acement": 9062,
      "aculous": 9063,
      "achal": 9064,
      "Ġyaw": 9065,
      "thes": 9066,
      "Ġselect": 9067,
      "Ġsepul": 9068,
      "Ġseverest": 9069,
      "ros": 9070,
      "ropo": 9071,
      "ury": 9072,
      "urred": 9073,
      "urity": 9074,
      "urry": 9075,
      "Ġforwards": 9076,
      "Ġforked": 9077,
      "Ġforbid": 9078,
      "Ġforbade": 9079,
      "Ġforlorn": 9080,
      "Ġwhim": 9081,
      "âĢľ_": 9082,
      "Ġrev": 9083,
      "Ġreward": 9084,
      "Ġrender": 9085,
      "Ġrept": 9086,
      "Ġredden": 9087,
      "cend": 9088,
      "cest": 9089,
      "cember": 9090,
      "keel": 9091,
      "keeping": 9092,
      "Ġwashed": 9093,
      "riest": 9094,
      "ribly": 9095,
      "ĠAway": 9096,
      "ĠAbout": 9097,
      "ĠANY": 9098,
      "ĠAlex": 9099,
      "ĠSi": 9100,
      "ĠSay": 9101,
      "ĠSomet": 9102,
      "ĠSpec": 9103,
      "ĠSabb": 9104,
      "ilers": 9105,
      "ilies": 9106,
      "Ġallusion": 9107,
      "Ġallusions": 9108,
      "Ġalluded": 9109,
      "Ġwearing": 9110,
      "Ġwealth": 9111,
      "chment": 9112,
      "Ġano": 9113,
      "Ġanaly": 9114,
      "Ġancest": 9115,
      "amm": 9116,
      "amps": 9117,
      "ample": 9118,
      "Ġath": 9119,
      "Ġattending": 9120,
      "Ġattended": 9121,
      "ĠTw": 9122,
      "ĠTit": 9123,
      "ĠTom": 9124,
      "ĠTart": 9125,
      "ĠTash": 9126,
      "ĠTert": 9127,
      "quis": 9128,
      "quake": 9129,
      "quered": 9130,
      "asting": 9131,
      "Ġshred": 9132,
      "Ġshun": 9133,
      "Ġshove": 9134,
      "Ġshoes": 9135,
      "Ġshifted": 9136,
      "Ġshivered": 9137,
      "Ġsob": 9138,
      "Ġsof": 9139,
      "Ġsoap": 9140,
      "Ġsoci": 9141,
      "ifting": 9142,
      "iferous": 9143,
      "Ġnotwithstanding": 9144,
      "oused": 9145,
      "apted": 9146,
      "apting": 9147,
      "appro": 9148,
      "ipt": 9149,
      "ulted": 9150,
      "Ġbutton": 9151,
      "Ġramp": 9152,
      "Ġringing": 9153,
      "Ġrascal": 9154,
      "Ġrattling": 9155,
      "toss": 9156,
      "tossed": 9157,
      "Ġlest": 9158,
      "Ġlearning": 9159,
      "Ġlexic": 9160,
      "agle": 9161,
      "emp": 9162,
      "embr": 9163,
      "ĠBY": 9164,
      "ĠBal": 9165,
      "ĠBet": 9166,
      "ĠBel": 9167,
      "ĠBook": 9168,
      "ĠBack": 9169,
      "ĠBear": 9170,
      "ĠBrit": 9171,
      "ĠBishop": 9172,
      "ĠBulkington": 9173,
      "ĠBeware": 9174,
      "Ġvow": 9175,
      "Ġvult": 9176,
      "Ġvarying": 9177,
      "ĠCo": 9178,
      "ĠCor": 9179,
      "ĠCro": 9180,
      "ĠCur": 9181,
      "ĠCod": 9182,
      "ĠCare": 9183,
      "ĠCru": 9184,
      "ĠCON": 9185,
      "ĠColog": 9186,
      "ĠConsider": 9187,
      "ĠCetology": 9188,
      "ĠCARP": 9189,
      "Ġsport": 9190,
      "Ġspaces": 9191,
      "Ġsporting": 9192,
      "ĠWarden": 9193,
      "Ġorn": 9194,
      "Ġorphan": 9195,
      "unts": 9196,
      "unken": 9197,
      "unknown": 9198,
      "Ġboister": 9199,
      "Ġsabbe": 9200,
      "ĠPull": 9201,
      "ĠPaul": 9202,
      "ĠPedro": 9203,
      "ĠPriest": 9204,
      "osted": 9205,
      "Ġcontain": 9206,
      "Ġconfin": 9207,
      "Ġconfl": 9208,
      "Ġconstant": 9209,
      "Ġcontains": 9210,
      "Ġconverted": 9211,
      "Ġconvert": 9212,
      "Ġconclusion": 9213,
      "umes": 9214,
      "umption": 9215,
      "Ġtherein": 9216,
      "Ġalas": 9217,
      "Ġalien": 9218,
      "Ġaltar": 9219,
      "Ġdeed": 9220,
      "Ġdefe": 9221,
      "Ġunce": 9222,
      "Ġungr": 9223,
      "Ġunpre": 9224,
      "Ġuninter": 9225,
      "Ġunreason": 9226,
      "Ġunrec": 9227,
      "Ġuncomfortable": 9228,
      "Ġunmolest": 9229,
      "Ġunnecessary": 9230,
      "poll": 9231,
      "poles": 9232,
      "ĠHum": 9233,
      "ĠHave": 9234,
      "ĠHold": 9235,
      "ĠHalloa": 9236,
      "ĠHuzza": 9237,
      "ĠHosea": 9238,
      "ĠHarris": 9239,
      "oda": 9240,
      "oneer": 9241,
      "perce": 9242,
      "perpendicular": 9243,
      "Ġnowhere": 9244,
      "railing": 9245,
      "igr": 9246,
      "igning": 9247,
      "Ġoutrage": 9248,
      "isten": 9249,
      "istics": 9250,
      "Ġnobler": 9251,
      "Ġcomfor": 9252,
      "Ġcomposing": 9253,
      "idean": 9254,
      "ortions": 9255,
      "ĠFe": 9256,
      "ĠFl": 9257,
      "ĠFo": 9258,
      "ĠFin": 9259,
[...]
