{
  "version": "1.0",
  "truncation": null,
  "padding": null,
  "added_tokens": [
    {
      "id": 0,
      "content": "<pad>",
      "single_word": false,
      "lstrip": false,
      "rstrip": false,
      "normalized": false,
      "special": true
    },
    {
      "id": 1,
      "content": "<bos>",
      "single_word": false,
      "lstrip": false,
      "rstrip": false,
      "normalized": false,
      "special": true
    },
    {
      "id": 2,
      "content": "<eos>",
      "single_word": false,
      "lstrip": false,
      "rstrip": false,
      "normalized": false,
      "special": true
    },
    {
      "id": 3,
      "content": "<unk>",
      "single_word": false,
      "lstrip": false,
      "rstrip": false,
      "normalized": false,
      "special": true
    },
    {
      "id": 4,
      "content": "<user>",
      "single_word": false,
      "lstrip": false,
      "rstrip": false,
      "normalized": false,
      "special": true
    },
    {
      "id": 5,
      "content": "<assistant>",
      "single_word": false,
      "lstrip": false,
      "rstrip": false,
      "normalized": false,
      "special": true
    }
  ],
  "normalizer": {
    "type": "NFC"
  },
  "pre_tokenizer": {
    "type": "ByteLevel",
    "add_prefix_space": false,
    "trim_offsets": true,
    "use_regex": true
  },
  "post_processor": null,
  "decoder": {
    "type": "ByteLevel",
    "add_prefix_space": true,
    "trim_offsets": true,
    "use_regex": true
  },
  "model": {
    "type": "BPE",
    "dropout": null,
    "unk_token": "<unk>",
    "continuing_subword_prefix": null,
    "end_of_word_suffix": null,
    "fuse_unk": false,
    "byte_fallback": false,
    "ignore_merges": false,
    "vocab": {
      "<pad>": 0,
      "<bos>": 1,
      "<eos>": 2,
      "<unk>": 3,
      "<user>": 4,
      "<assistant>": 5,
      "!": 6,
      "\"": 7,
      "#": 8,
      "$": 9,
      "%": 10,
      "&": 11,
      "'": 12,
      "(": 13,
      ")": 14,
      "*": 15,
      "+": 16,
      ",": 17,
      "-": 18,
      ".": 19,
      "/": 20,
      "0": 21,
      "1": 22,
      "2": 23,
      "3": 24,
      "4": 25,
      "5": 26,
      "6": 27,
      "7": 28,
      "8": 29,
      "9": 30,
      ":": 31,
      ";": 32,
      "<": 33,
      "=": 34,
      ">": 35,
      "?": 36,
      "@": 37,
      "A": 38,
      "B": 39,
      "C": 40,
      "D": 41,
      "E": 42,
      "F": 43,
      "G": 44,
      "H": 45,
      "I": 46,
      "J": 47,
      "K": 48,
      "L": 49,
      "M": 50,
      "N": 51,
      "O": 52,
      "P": 53,
      "Q": 54,
      "R": 55,
      "S": 56,
      "T": 57,
      "U": 58,
      "V": 59,
      "W": 60,
      "X": 61,
      "Y": 62,
      "Z": 63,
      "[": 64,
      "\\": 65,
      "]": 66,
      "^": 67,
      "_": 68,
      "`": 69,
      "a": 70,
      "b": 71,
      "c": 72,
      "d": 73,
      "e": 74,
      "f": 75,
      "g": 76,
      "h": 77,
      "i": 78,
      "j": 79,
      "k": 80,
      "l": 81,
      "m": 82,
      "n": 83,
      "o": 84,
      "p": 85,
      "q": 86,
      "r": 87,
      "s": 88,
      "t": 89,
      "u": 90,
      "v": 91,
      "w": 92,
      "x": 93,
      "y": 94,
      "z": 95,
      "{": 96,
      "|": 97,
      "}": 98,
      "~": 99,
      "¡": 100,
      "¢": 101,
      "£": 102,
      "¤": 103,
      "¥": 104,
      "¦": 105,
      "§": 106,
      "¨": 107,
      "©": 108,
      "ª": 109,
      "«": 110,
      "¬": 111,
      "®": 112,
      "¯": 113,
      "°": 114,
      "±": 115,
      "²": 116,
      "³": 117,
      "´": 118,
      "µ": 119,
      "¶": 120,
      "·": 121,
      "¸": 122,
      "¹": 123,
      "º": 124,
      "»": 125,
      "¼": 126,
      "½": 127,
      "¾": 128,
      "¿": 129,
      "À": 130,
      "Á": 131,
      "Â": 132,
      "Ã": 133,
      "Ä": 134,
      "Å": 135,
      "Æ": 136,
      "Ç": 137,
      "È": 138,
      "É": 139,
      "Ê": 140,
      "Ë": 141,
      "Ì": 142,
      "Í": 143,
      "Î": 144,
      "Ï": 145,
      "Ð": 146,
      "Ñ": 147,
      "Ò": 148,
      "Ó": 149,
      "Ô": 150,
      "Õ": 151,
      "Ö": 152,
      "×": 153,
      "Ø": 154,
      "Ù": 155,
      "Ú": 156,
      "Û": 157,
      "Ü": 158,
      "Ý": 159,
      "Þ": 160,
      "ß": 161,
      "à": 162,
      "á": 163,
      "â": 164,
      "ã": 165,
      "ä": 166,
      "å": 167,
      "æ": 168,
      "ç": 169,
      "è": 170,
      "é": 171,
      "ê": 172,
      "ë": 173,
      "ì": 174,
      "í": 175,
      "î": 176,
      "ï": 177,
      "ð": 178,
      "ñ": 179,
      "ò": 180,
      "ó": 181,
      "ô": 182,
      "õ": 183,
      "ö": 184,
      "÷": 185,
      "ø": 186,
      "ù": 187,
      "ú": 188,
      "û": 189,
      "ü": 190,
      "ý": 191,
      "þ": 192,
      "ÿ": 193,
      "Ā": 194,
      "ā": 195,
      "Ă": 196,
      "ă": 197,
      "Ą": 198,
      "ą": 199,
      "Ć": 200,
      "ć": 201,
      "Ĉ": 202,
      "ĉ": 203,
      "Ċ": 204,
      "ċ": 205,
      "Č": 206,
      "č": 207,
      "Ď": 208,
      "ď": 209,
      "Đ": 210,
      "đ": 211,
      "Ē": 212,
      "ē": 213,
      "Ĕ": 214,
      "ĕ": 215,
      "Ė": 216,
      "ė": 217,
      "Ę": 218,
      "ę": 219,
      "Ě": 220,
      "ě": 221,
      "Ĝ": 222,
      "ĝ": 223,
      "Ğ": 224,
      "ğ": 225,
      "Ġ": 226,
      "ġ": 227,
      "Ģ": 228,
      "ģ": 229,
      "Ĥ": 230,
      "ĥ": 231,
      "Ħ": 232,
      "ħ": 233,
      "Ĩ": 234,
      "ĩ": 235,
      "Ī": 236,
      "ī": 237,
      "Ĭ": 238,
      "ĭ": 239,
      "Į": 240,
      "į": 241,
      "İ": 242,
      "ı": 243,
      "Ĳ": 244,
      "ĳ": 245,
      "Ĵ": 246,
      "ĵ": 247,
      "Ķ": 248,
      "ķ": 249,
      "ĸ": 250,
      "Ĺ": 251,
      "ĺ": 252,
      "Ļ": 253,
      "ļ": 254,
      "Ľ": 255,
      "ľ": 256,
      "Ŀ": 257,
      "ŀ": 258,
      "Ł": 259,
      "ł": 260,
      "Ń": 261,
      "Ġt": 262,
      "he": 263,
      "Ġa": 264,
      "in": 265,
      "Ġthe": 266,
      "Ġs": 267,
      "Ġo": 268,
      "Ġw": 269,
      "re": 270,
      "ha": 271,
      "nd": 272,
      "er": 273,
      "Ġb": 274,
      "ing": 275,
      "is": 276,
      "ed": 277,
      "it": 278,
      "Ġm": 279,
      "âĢ": 280,
      "ou": 281,
      "Ġf": 282,
      "le": 283,
      "Ġof": 284,
      "Ġc": 285,
      "on": 286,
      "en": 287,
      "or": 288,
      "Ġand": 289,
      "ll": 290,
      "ar": 291,
      "Ġin": 292,
      "st": 293,
      "an": 294,
      "Ġto": 295,
      "Ġh": 296,
      "at": 297,
      "Ġd": 298,
      "Ġp": 299,
      "es": 300,
      "Ġl": 301,
      "hat": 302,
      "om": 303,
      "as": 304,
      "Ġn": 305,
      "ow": 306,
      "Ġth": 307,
      "ĠI": 308,
      "ut": 309,
      "Ġhe": 310,
      "Ġha": 311,
      "ly": 312,
      "im": 313,
      "Ġbe": 314,
      "Ġg": 315,
      "se": 316,
      "gh": 317,
      "ic": 318,
      "Ġthat": 319,
      "Ġe": 320,
      "âĢĻ": 321,
      "ot": 322,
      "Ġit": 323,
      "ld": 324,
      "Ġu": 325,
      "ve": 326,
      "al": 327,
      "Ġon": 328,
      "ac": 329,
      "id": 330,
      "ver": 331,
      "Ġst": 332,
      "Ġhis": 333,
      "et": 334,
      "ir": 335,
      "ad": 336,
      "ent": 337,
      "ith": 338,
      "ay": 339,
      "the": 340,
      "Ġy": 341,
      "Ġse": 342,
      "Ġwas": 343,
      "ur": 344,
      "ght": 345,
      "Ġas": 346,
      "Ġwith": 347,
      "âĢľ": 348,
      "âĢĶ": 349,
      "Ġr": 350,
      "ain": 351,
      "Ġfor": 352,
      "Ġwh": 353,
      "Ġre": 354,
      "ce": 355,
      "Ġis": 356,
      "ion": 357,
      "ke": 358,
      "oo": 359,
      "ĠT": 360,
      "il": 361,
      "and": 362,
      "Ġwe": 363,
      "âĢĿ": 364,
      "am": 365,
      "hale": 366,
      "ight": 367,
      "ĠA": 368,
      "Ġat": 369,
      "ch": 370,
      "Ġan": 371,
      "Ġall": 372,
      "ĠS": 373,
      "ore": 374,
      "all": 375,
      "ill": 376,
      "ter": 377,
      "ro": 378,
      "ast": 379,
      "if": 380,
      "Ġso": 381,
      "Ġsu": 382,
      "qu": 383,
      "Ġsh": 384,
      "Ġfr": 385,
      "Ġthis": 386,
      "Ġnot": 387,
      "ous": 388,
      "Ġme": 389,
      "th": 390,
      "ck": 391,
      "Ġup": 392,
      "Ġyou": 393,
      "Ġhim": 394,
      "ome": 395,
      "pe": 396,
      "to": 397,
      "ul": 398,
      "Ġwhale": 399,
      "Ġby": 400,
      "ss": 401,
      "Ġbut": 402,
      "ip": 403,
      "Ġmy": 404,
      "Ġde": 405,
      "ge": 406,
      "Ġfrom": 407,
      "ard": 408,
      "ould": 409,
      "Ġle": 410,
      "ab": 411,
      "ap": 412,
      "red": 413,
      "ĠB": 414,
      "Ġv": 415,
      "Ġhad": 416,
      "Ġsa": 417,
      "em": 418,
      "ong": 419,
      "ri": 420,
      "ct": 421,
      "her": 422,
      "ĠW": 423,
      "Ġone": 424,
      "ant": 425,
      "un": 426,
      "ess": 427,
      "ound": 428,
      "Ġwhe": 429,
      "ers": 430,
      "um": 431,
      "Ġor": 432,
      "ough": 433,
      "out": 434,
      "art": 435,
      "Ġhave": 436,
      "Ġbo": 437,
      "Ġli": 438,
      "Ġcon": 439,
      "ra": 440,
      "ost": 441,
      "han": 442,
      "ĠThe": 443,
      "own": 444,
      "us": 445,
      "Ġal": 446,
      "Ġthere": 447,
      "el": 448,
      "ich": 449,
      "po": 450,
      "Ġwere": 451,
      "per": 452,
      "ĠP": 453,
      "Ġun": 454,
      "ust": 455,
      "Ġman": 456,
      "lo": 457,
      "ĠC": 458,
      "ist": 459,
      "ind": 460,
      "ig": 461,
      "Ġne": 462,
      "one": 463,
      "ĠH": 464,
      "very": 465,
      "Ġsome": 466,
      "ame": 467,
      "ther": 468,
      "lf": 469,
      "ak": 470,
      "Ġk": 471,
      "od": 472,
      "Ġtheir": 473,
      "of": 474,
      "Ġnow": 475,
      "ack": 476,
      "tain": 477,
      "ine": 478,
      "Ġwhich": 479,
      "Ġno": 480,
      "Ġout": 481,
      "Ġfe": 482,
      "ood": 483,
      "res": 484,
      "Ġex": 485,
      "reat": 486,
      "ook": 487,
      "ort": 488,
      "Ġab": 489,
      "ide": 490,
      "Ġcom": 491,
      "Ġupon": 492,
      "Ġinto": 493,
      "ime": 494,
      "ĠM": 495,
      "Ġthey": 496,
      "Ġsp": 497,
      "ag": 498,
      "Ġare": 499,
      "able": 500,
      "Ġj": 501,
      "ate": 502,
      "Ġthem": 503,
      "ĠF": 504,
      "hed": 505,
      "Ġthen": 506,
      "Ġye": 507,
      "ue": 508,
      "Ġwhen": 509,
      "ation": 510,
      "Ġwho": 511,
      "ĠBut": 512,
      "Ġlike": 513,
      "Ġag": 514,
      "Ġdo": 515,
      "nt": 516,
      "ie": 517,
      "ite": 518,
      "Ġship": 519,
      "ĠSt": 520,
      ".âĢĿ": 521,
      "ĠâĢľ": 522,
      "ish": 523,
      "iv": 524,
      "Ġover": 525,
      "ile": 526,
      "ious": 527,
      "ĠN": 528,
      "Ġbl": 529,
      "hab": 530,
      "Ġmore": 531,
      "itt": 532,
      "Ġpl": 533,
      "ace": 534,
      "ive": 535,
      "Ġpo": 536,
      "The": 537,
      "ally": 538,
      "ity": 539,
      "uck": 540,
      "Ġseem": 541,
      "Ġwor": 542,
      "ings": 543,
      "Ġother": 544,
      "self": 545,
      "we": 546,
      "ub": 547,
      "Ġwhat": 548,
      "ib": 549,
      "av": 550,
      "te": 551,
      "nder": 552,
      "ĠD": 553,
      "ure": 554,
      "ies": 555,
      "ness": 556,
      "way": 557,
      "ward": 558,
      "less": 559,
      "ass": 560,
      "ep": 561,
      "Ġaf": 562,
      "Ġbeen": 563,
      "Ġstr": 564,
      "ull": 565,
      "ick": 566,
      "ĠAhab": 567,
      "ol": 568,
      "Ġtr": 569,
      "Ġkn": 570,
      "fore": 571,
      "our": 572,
      "ĠL": 573,
      "que": 574,
      "Ġold": 575,
      "ree": 576,
      "Ġpro": 577,
      "Ġher": 578,
      "ling": 579,
      "ance": 580,
      "ted": 581,
      "ud": 582,
      "be": 583,
      "Ġwould": 584,
      "ning": 585,
      "Ġdown": 586,
      "Ġagain": 587,
      "Ġif": 588,
      "are": 589,
      "Ġthese": 590,
      "Ġro": 591,
      "Ġthou": 592,
      "Ġsea": 593,
      "ake": 594,
      "Ġhand": 595,
      "Ġtw": 596,
      "ars": 597,
      "Ġboat": 598,
      "Ġar": 599,
      "hing": 600,
      "Ġany": 601,
      "ĠG": 602,
      "ark": 603,
      "Ġcan": 604,
      "Ġgo": 605,
      "ink": 606,
      "Ġsha": 607,
      "Ġits": 608,
      "ated": 609,
      "Ġhar": 610,
      "ven": 611,
      "Ġhead": 612,
      "Ġwill": 613,
      "Ġonly": 614,
      "Ġam": 615,
      "Ġbr": 616,
      "pp": 617,
      "Ġsaid": 618,
      "Ġgr": 619,
      ",âĢĿ": 620,
      "Ġtime": 621,
      "ittle": 622,
      "Ġho": 623,
      "ire": 624,
      "ye": 625,
      "wn": 626,
      "Ġthr": 627,
      "man": 628,
      "Ġfl": 629,
      "ose": 630,
      "ĠAnd": 631,
      "Ġwat": 632,
      "Ġabout": 633,
      "fe": 634,
      "Ġus": 635,
      "aptain": 636,
      "!âĢĿ": 637,
      "ubb": 638,
      "ng": 639,
      "Ġlong": 640,
      "Ġgreat": 641,
      "Ġsuch": 642,
      "Ġvery": 643,
      "Ġper": 644,
      "ple": 645,
      "Ġthan": 646,
      "ry": 647,
      "Ġco": 648,
      "Ġstill": 649,
      "age": 650,
      "ise": 651,
      "Ġpart": 652,
      "ach": 653,
      "Ġsee": 654,
      "Ġim": 655,
      "ne": 656,
      "ĠO": 657,
      "Ġen": 658,
      "Ġsay": 659,
      "les": 660,
      "ild": 661,
      "Ġpre": 662,
      "de": 663,
      "Ġmust": 664,
      "Ġlook": 665,
      "Ġlittle": 666,
      "uch": 667,
      "anc": 668,
      "Ġlast": 669,
      "ell": 670,
      "ho": 671,
      "that": 672,
      "led": 673,
      "urn": 674,
      "Ġseemed": 675,
      "Ġsm": 676,
      "cc": 677,
      "ail": 678,
      "his": 679,
      "ord": 680,
      "Ġhere": 681,
      "most": 682,
      "pt": 683,
      "Ġtoo": 684,
      "Ġway": 685,
      "ade": 686,
      "Ġafter": 687,
      "au": 688,
      "Ġsc": 689,
      "Ġthough": 690,
      "Ġsl": 691,
      "Ġbefore": 692,
      "arb": 693,
      "?âĢĿ": 694,
      "ĠIt": 695,
      "Ġhow": 696,
      "Ġhas": 697,
      "Ġqu": 698,
      "Ġdid": 699,
      "Ġoff": 700,
      "irst": 701,
      "co": 702,
      "rew": 703,
      "ows": 704,
      "ful": 705,
      "Ġtwo": 706,
      "Ġmost": 707,
      "ĠWhale": 708,
      "li": 709,
      "Ġcould": 710,
      "Ġthose": 711,
      "ried": 712,
      "ĠE": 713,
      "Ġday": 714,
      "ĠHe": 715,
      "ved": 716,
      "Ġyet": 717,
      "Ġround": 718,
      "Ġsw": 719,
      "Ġpe": 720,
      "sh": 721,
      "ory": 722,
      "ife": 723,
      "Ġsail": 724,
      "Ġyour": 725,
      "Que": 726,
      "perm": 727,
      "Ġdis": 728,
      "Ġmay": 729,
      "Ġmight": 730,
      "Ġcr": 731,
      "ary": 732,
      "ions": 733,
      "ath": 734,
      "other": 735,
      "Ġthrough": 736,
      "Ġour": 737,
      "Ġgl": 738,
      "ft": 739,
      "ting": 740,
      "ving": 741,
      "head": 742,
      "Ġcha": 743,
      "ever": 744,
      "Ġrem": 745,
      "Ġown": 746,
      "Ġmen": 747,
      "by": 748,
      "But": 749,
      "ks": 750,
      "ment": 751,
      "ped": 752,
      "omet": 753,
      "men": 754,
      "Ġad": 755,
      "ons": 756,
      "eque": 757,
      "Ġfirst": 758,
      "Queeque": 759,
      "Queequeg": 760,
      "cl": 761,
      "est": 762,
      "Ġside": 763,
      "Ġfo": 764,
      "pl": 765,
      "Ġsame": 766,
      "iz": 767,
      "ount": 768,
      "Ġevery": 769,
      "oy": 770,
      "Ġspe": 771,
      "Ġcl": 772,
      "Ġshould": 773,
      "ian": 774,
      "Ġwhere": 775,
      "ĠStubb": 776,
      "Ġthree": 777,
      "ign": 778,
      "Ġthing": 779,
      "imes": 780,
      "hes": 781,
      "Ġeven": 782,
      "ors": 783,
      "ff": 784,
      "ice": 785,
      "ps": 786,
      "ty": 787,
      "ĠJ": 788,
      "ĠR": 789,
      "Ġback": 790,
      "Ġmat": 791,
      "ĠPe": 792,
      "ible": 793,
      "wards": 794,
      "ens": 795,
      "Ġmuch": 796,
      "act": 797,
      "Ġharpo": 798,
      "llow": 799,
      "ical": 800,
      "for": 801,
      "ang": 802,
      "Ġthought": 803,
      "not": 804,
      "Ġnever": 805,
      "ial": 806,
      "int": 807,
      "ern": 808,
      "Ġpr": 809,
      "Ġcont": 810,
      "igh": 811,
      "Ġbeing": 812,
      "yes": 813,
      "ering": 814,
      "Ġwhile": 815,
      "Ġwhales": 816,
      "so": 817,
      "Ġcame": 818,
      "ily": 819,
      "ove": 820,
      "Ġwhite": 821,
      "ular": 822,
      "ence": 823,
      "Ġke": 824,
      "Ġmade": 825,
      "Ġdes": 826,
      "Ġch": 827,
      "Ġever": 828,
      "den": 829,
      "wh": 830,
      "here": 831,
      "Ġob": 832,
      "Ġbet": 833,
      "pre": 834,
      "ĠY": 835,
      "Ġknow": 836,
      "aw": 837,
      "ĠQueequeg": 838,
      "ating": 839,
      "ĠIn": 840,
      "Ġgood": 841,
      "Ġunder": 842,
      "ied": 843,
      "ves": 844,
      "ren": 845,
      "ange": 846,
      "ĠFor": 847,
      "arbuck": 848,
      "Ġsomet": 849,
      "mer": 850,
      "Ġaway": 851,
      "Ġinst": 852,
      "Ġpres": 853,
      "Ġstand": 854,
      "Ġwell": 855,
      "Ġsaw": 856,
      "ble": 857,
      "Ġalmost": 858,
      ".âĢĶ": 859,
      "HA": 860,
      "ans": 861,
      "ather": 862,
      "ged": 863,
      "Ġworld": 864,
      "II": 865,
      "with": 866,
      "orn": 867,
      "Ġeyes": 868,
      "Ġsun": 869,
      "Ġwater": 870,
      "Ġlight": 871,
      "Ġshe": 872,
      "ER": 873,
      "com": 874,
      "Ġamong": 875,
      "Ġcar": 876,
      "Ġent": 877,
      "Ġhimself": 878,
      "Ġcons": 879,
      "me": 880,
      "Ġ(": 881,
      "read": 882,
      "Ġthink": 883,
      "Ġend": 884,
      "ĠCaptain": 885,
      "land": 886,
      "Ġcall": 887,
      "ber": 888,
      "ched": 889,
      "âĢĺ": 890,
      "Ġfar": 891,
      "Ġnight": 892,
      "sel": 893,
      "Ġsub": 894,
      "king": 895,
      "Ġ_": 896,
      "Ġbeg": 897,
      "oth": 898,
      "ĠStarbuck": 899,
      "bo": 900,
      "hen": 901,
      "Ġsk": 902,
      "Ġop": 903,
      "Ġste": 904,
      "aking": 905,
      "rave": 906,
      "ations": 907,
      "up": 908,
      "Ġlife": 909,
      "like": 910,
      "Ġseen": 911,
      "ung": 912,
      "ertain": 913,
      "quod": 914,
      "but": 915,
      "spe": 916,
      "ener": 917,
      "Ġdist": 918,
      "Ġpass": 919,
      "Ġdeck": 920,
      "ex": 921,
      "Ġturn": 922,
      "Ġcome": 923,
      "oment": 924,
      "XX": 925,
      "Ġair": 926,
      "irc": 927,
      "ching": 928,
      "TER": 929,
      "ures": 930,
      "Ġfound": 931,
      "als": 932,
      "ced": 933,
      "Ġtell": 934,
      "Ġacc": 935,
      "ase": 936,
      "Ġthings": 937,
      "ently": 938,
      "sp": 939,
      "vi": 940,
      "Ġsort": 941,
      "Ġwo": 942,
      "Ġwithout": 943,
      "ah": 944,
      "air": 945,
      "rom": 946,
      "ash": 947,
      "ave": 948,
      "Ġbel": 949,
      "der": 950,
      "ock": 951,
      "az": 952,
      "Ġwind": 953,
      "har": 954,
      "its": 955,
      "Ġland": 956,
      "ask": 957,
      "mon": 958,
      "su": 959,
      "Ġinter": 960,
      "ĠSo": 961,
      "Ġblack": 962,
      "Ġagainst": 963,
      "ping": 964,
      "ts": 965,
      "Ġonce": 966,
      "Ġbod": 967,
      "Ġmany": 968,
      "HAP": 969,
      "ci": 970,
      "Ġmoment": 971,
      "ened": 972,
      "Ġdark": 973,
      "HAPTER": 974,
      "get": 975,
      "ower": 976,
      "ĠPequod": 977,
      "Ġsur": 978,
      "Ġcried": 979,
      "con": 980,
      "ect": 981,
      "Ġsir": 982,
      "med": 983,
      "und": 984,
      "Ġfore": 985,
      "sed": 986,
      "Ġmast": 987,
      "Ġfull": 988,
      "Ġcur": 989,
      "Ġcrew": 990,
      "Ġlet": 991,
      "Ġstrange": 992,
      "ale": 993,
      "Ġapp": 994,
      "Ġalong": 995,
      "!âĢĶ": 996,
      "Ġir": 997,
      "Ġwent": 998,
      "str": 999,
      "ĠTh": 1000,
      "Ġcomp": 1001,
      "ucket": 1002,
      "Ġbec": 1003,
      "ĠWh": 1004,
      "ause": 1005,
      "gr": 1006,
      "ix": 1007,
      "was": 1008,
      "Ġtill": 1009,
      "Ġsou": 1010,
      "oun": 1011,
      "Ġhalf": 1012,
      "ific": 1013,
      "Ġsoon": 1014,
      "ared": 1015,
      "aring": 1016,
      "Ġhum": 1017,
      "ween": 1018,
      "ways": 1019,
      "ship": 1020,
      "ms": 1021,
      "Ġdra": 1022,
      "Ġear": 1023,
      "ngth": 1024,
      "CHAPTER": 1025,
      "ser": 1026,
      "whale": 1027,
      "Ġwha": 1028,
      "ished": 1029,
      "ither": 1030,
      "Ġinc": 1031,
      "Ġget": 1032,
      "Ġanother": 1033,
      "ĠThere": 1034,
      "now": 1035,
      "Ġtowards": 1036,
      "Ġplace": 1037,
      "Ġhands": 1038,
      "ew": 1039,
      "reen": 1040,
      "Ġmon": 1041,
      "Ġheart": 1042,
      "Ġboats": 1043,
      "Ġshar": 1044,
      "ances": 1045,
      "arge": 1046,
      "Ġpur": 1047,
      "Ġheav": 1048,
      "Ġwhole": 1049,
      "Ġhold": 1050,
      "ls": 1051,
      "Ġsle": 1052,
      "Ġbro": 1053,
      "Ġmo": 1054,
      "Ġfeel": 1055,
      "fin": 1056,
      "ug": 1057,
      "Ġset": 1058,
      "ery": 1059,
      "Ġcertain": 1060,
      "ene": 1061,
      "Ġeach": 1062,
      "ross": 1063,
      "Ġfeet": 1064,
      "Ġsmall": 1065,
      "ject": 1066,
      "iness": 1067,
      "It": 1068,
      "cul": 1069,
      "Ġte": 1070,
      "athan": 1071,
      "ason": 1072,
      "ten": 1073,
      "vent": 1074,
      "Ġthee": 1075,
      "Ġswe": 1076,
      "Ġcirc": 1077,
      "Ġdr": 1078,
      "ered": 1079,
      "ken": 1080,
      "ying": 1081,
      "lled": 1082,
      "Ġjust": 1083,
      "viathan": 1084,
      "tr": 1085,
      "haps": 1086,
      "ingly": 1087,
      "oub": 1088,
      "Ġput": 1089,
      "Ġheard": 1090,
      "ides": 1091,
      "pose": 1092,
      "Ġmake": 1093,
      "chan": 1094,
      "Ġsight": 1095,
      "itud": 1096,
      "Ġlo": 1097,
      "antucket": 1098,
      "Ġhard": 1099,
      "mb": 1100,
      "tle": 1101,
      "Ġter": 1102,
      "Ġwr": 1103,
      "Ġmar": 1104,
      "Ġline": 1105,
      "ĠTime": 1106,
      "ĠSperm": 1107,
      "ters": 1108,
      "ĠGod": 1109,
      "Ġbetween": 1110,
      "._": 1111,
      "And": 1112,
      "ual": 1113,
      "ition": 1114,
      "cks": 1115,
      "Ġdead": 1116,
      "He": 1117,
      "dden": 1118,
      "Ġmind": 1119,
      "ict": 1120,
      "wor": 1121,
      "Ġind": 1122,
      "Ġthy": 1123,
      "Ġgener": 1124,
      "iar": 1125,
      "outh": 1126,
      "Ġnat": 1127,
      "Ġtake": 1128,
      "Ġtimes": 1129,
      "Ġinde": 1130,
      "ane": 1131,
      "Ġhor": 1132,
      "In": 1133,
      "Ġboth": 1134,
      "Ġface": 1135,
      "Ġhigh": 1136,
      "Ġhel": 1137,
      "Ġmyself": 1138,
      "HE": 1139,
      "sc": 1140,
      "Ġque": 1141,
      "Ġcaptain": 1142,
      "Ġlarge": 1143,
      "ult": 1144,
      "Ġsomething": 1145,
      "Ġbody": 1146,
      "Ġfish": 1147,
      "Ġright": 1148,
      "Ġsudden": 1149,
      "Ġleg": 1150,
      "Ġharpoone": 1151,
      "go": 1152,
      "ins": 1153,
      "isher": 1154,
      "ked": 1155,
      "ner": 1156,
      "Ġbur": 1157,
      "ising": 1158,
      "Ġstre": 1159,
      "eth": 1160,
      "this": 1161,
      "gether": 1162,
      "vil": 1163,
      "Ġclo": 1164,
      "ates": 1165,
      "ĠNantucket": 1166,
      "Ġrun": 1167,
      "ump": 1168,
      "fl": 1169,
      "lask": 1170,
      "Ġcle": 1171,
      "Ġstood": 1172,
      "ained": 1173,
      "amp": 1174,
      "ĠThen": 1175,
      "elt": 1176,
      "Ġwhaling": 1177,
      "pr": 1178,
      "ĠV": 1179,
      "leg": 1180,
      "Ġche": 1181,
      "Ġcal": 1182,
      "arted": 1183,
      "Ġnear": 1184,
      ",âĢĶ": 1185,
      "ster": 1186,
      "Ġeye": 1187,
      "there": 1188,
      "ool": 1189,
      "tern": 1190,
      "ably": 1191,
      "Ġpoor": 1192,
      "Ġimp": 1193,
      "Ġpresent": 1194,
      "Ġcalled": 1195,
      "from": 1196,
      "ured": 1197,
      "Ġwild": 1198,
      "nded": 1199,
      "Ġfew": 1200,
      "ds": 1201,
      "mand": 1202,
      "what": 1203,
      "Ġsperm": 1204,
      "had": 1205,
      "Ġchan": 1206,
      "ank": 1207,
      "Ġperhaps": 1208,
      "Ġlay": 1209,
      "Ġthus": 1210,
      "Ġel": 1211,
      "ets": 1212,
      "ĠAs": 1213,
      "Ġnothing": 1214,
      "ction": 1215,
      "ĠWhat": 1216,
      "akes": 1217,
      "uff": 1218,
      "Ġbus": 1219,
      "enc": 1220,
      "owed": 1221,
      "ute": 1222,
      "Ġreg": 1223,
      "ĠFlask": 1224,
      "iously": 1225,
      "ging": 1226,
      "light": 1227,
      "side": 1228,
      "Ġwar": 1229,
      "Ġflo": 1230,
      "Ġcreat": 1231,
      "Ġnor": 1232,
      "thing": 1233,
      "Ġopen": 1234,
      "ople": 1235,
      "Ġtou": 1236,
      "rest": 1237,
      "how": 1238,
      "op": 1239,
      "ince": 1240,
      "Ġsat": 1241,
      "Ġdon": 1242,
      "ider": 1243,
      "ceed": 1244,
      "Ġyears": 1245,
      "Ġfire": 1246,
      "orning": 1247,
      "Ġname": 1248,
      "ĠAt": 1249,
      "ssed": 1250,
      "Ġvoy": 1251,
      "ĠWe": 1252,
      "Ġspout": 1253,
      "Ġposs": 1254,
      "Ġinstant": 1255,
      "Now": 1256,
      "full": 1257,
      "him": 1258,
      "where": 1259,
      "Ġcap": 1260,
      "owing": 1261,
      "cted": 1262,
      "Ġnew": 1263,
      "Ġenough": 1264,
      "aught": 1265,
      "cond": 1266,
      "Ġiron": 1267,
      "ĠWhite": 1268,
      "culiar": 1269,
      "Ġap": 1270,
      "lent": 1271,
      "Ġcra": 1272,
      "ĠThis": 1273,
      "ift": 1274,
      "achine": 1275,
      "ravell": 1276,
      "What": 1277,
      "my": 1278,
      "ming": 1279,
      "no": 1280,
      "Ġsound": 1281,
      "Ġfelt": 1282,
      "Ġread": 1283,
      "Ġsup": 1284,
      "Ġlength": 1285,
      "aves": 1286,
      "cr": 1287,
      "Ġbre": 1288,
      "Ġdoub": 1289,
      "ards": 1290,
      "Ġleft": 1291,
      "abin": 1292,
      "ines": 1293,
      "Ġarm": 1294,
      "Ġbegan": 1295,
      "Ġsleep": 1296,
      "ape": 1297,
      "tom": 1298,
      "Ġbed": 1299,
      "ised": 1300,
      "Ġmark": 1301,
      "ought": 1302,
      "Ġcor": 1303,
      "arr": 1304,
      "Ġrest": 1305,
      "ĠMo": 1306,
      "Ġjo": 1307,
      "Ġdoes": 1308,
      "ived": 1309,
      "Ġlooked": 1310,
      "Ġdays": 1311,
      "pro": 1312,
      "ĠâĢĻ": 1313,
      "Ġwood": 1314,
      "Ġcut": 1315,
      "Ġinv": 1316,
      "iled": 1317,
      "Ġatt": 1318,
      "Ġconc": 1319,
      "ĠLe": 1320,
      "Ġindeed": 1321,
      "io": 1322,
      "sing": 1323,
      "wing": 1324,
      "Ġsing": 1325,
      "Ġfur": 1326,
      "Ġfast": 1327,
      "Ġfour": 1328,
      "onah": 1329,
      "Ġhour": 1330,
      "ically": 1331,
      "aced": 1332,
      "Ġseas": 1333,
      "ural": 1334,
      "cean": 1335,
      "br": 1336,
      "Ġsign": 1337,
      "nding": 1338,
      "ities": 1339,
      "Ġmid": 1340,
      "Ġlow": 1341,
      "icular": 1342,
      "log": 1343,
      "Ġwhose": 1344,
      "ief": 1345,
      "Ġpoint": 1346,
      "St": 1347,
      "mast": 1348,
      "old": 1349,
      "you": 1350,
      "Ġhat": 1351,
      "ined": 1352,
      "ĠInd": 1353,
      "ents": 1354,
      "ousand": 1355,
      "Ġless": 1356,
      "Ġalso": 1357,
      "Ġplain": 1358,
      "Ġseems": 1359,
      "Ġgoing": 1360,
      "Ġshall": 1361,
      "selves": 1362,
      "Ġsoul": 1363,
      "THE": 1364,
      "ler": 1365,
      "ĠâĢĺ": 1366,
      "Ġsim": 1367,
      "Ġoil": 1368,
      "Ġocc": 1369,
      "Ġfin": 1370,
      "Ġfisher": 1371,
      "ont": 1372,
      "eness": 1373,
      "arn": 1374,
      "Ġitself": 1375,
      "Ġvast": 1376,
      "Ġalways": 1377,
      "ches": 1378,
      "iver": 1379,
      "Ġac": 1380,
      "Ġmin": 1381,
      "Ġhun": 1382,
      "aces": 1383,
      "Ġret": 1384,
      "ĠThey": 1385,
      "Ġpeople": 1386,
      "Ġmatter": 1387,
      "Ġsometimes": 1388,
      "Ġentire": 1389,
      "ually": 1390,
      "wise": 1391,
      "Ġtail": 1392,
      "ones": 1393,
      "Ġdro": 1394,
      "Ġhear": 1395,
      "Ġem": 1396,
      "umb": 1397,
      "aken": 1398,
      "Ġcomple": 1399,
      "Ġcannot": 1400,
      "Ġkeep": 1401,
      "which": 1402,
      "fully": 1403,
      "cess": 1404,
      "sm": 1405,
      "under": 1406,
      "Ġsn": 1407,
      "Ġfind": 1408,
      "Ġint": 1409,
      "Ġdone": 1410,
      "Ġdire": 1411,
      "Ġbest": 1412,
      "ĠSe": 1413,
      "iffe": 1414,
      "Ġmean": 1415,
      "Ġjaw": 1416,
      "Ġpeculiar": 1417,
      "Ġfollow": 1418,
      "Ġstanding": 1419,
      "Ġearth": 1420,
      "nce": 1421,
      "ring": 1422,
      "Ġwant": 1423,
      "urning": 1424,
      "âĢĶâĢľ": 1425,
      "Ġres": 1426,
      "Ġdeep": 1427,
      "Ġneed": 1428,
      "ĠDick": 1429,
      "ildad": 1430,
      "Ġsmo": 1431,
      "Ġharpoon": 1432,
      "Ġturned": 1433,
      "itude": 1434,
      "Th": 1435,
      "long": 1436,
      "Ġes": 1437,
      "inted": 1438,
      "Ġinte": 1439,
      "Ġham": 1440,
      "Ġere": 1441,
      "Ġrather": 1442,
      "Ġleast": 1443,
      "Ġfear": 1444,
      "Ġhowever": 1445,
      "ĠJonah": 1446,
      "ded": 1447,
      "kes": 1448,
      "ĠU": 1449,
      "Ġver": 1450,
      "Ġact": 1451,
      "ream": 1452,
      "ĠThat": 1453,
      "Ġvis": 1454,
      "ately": 1455,
      "ĠOh": 1456,
      "Ġtook": 1457,
      "anger": 1458,
      "undred": 1459,
      "eneath": 1460,
      "As": 1461,
      "ph": 1462,
      "ze": 1463,
      "Ġfam": 1464,
      "orm": 1465,
      "illed": 1466,
      "Ġshort": 1467,
      "Ġboard": 1468,
      "Ġliving": 1469,
      "clud": 1470,
      "ized": 1471,
      "Ġbecause": 1472,
      "gin": 1473,
      "ient": 1474,
      "ond": 1475,
      "Ġcabin": 1476,
      "uth": 1477,
      "otion": 1478,
      "Ġsec": 1479,
      "pect": 1480,
      "Ġships": 1481,
      "Ġknown": 1482,
      "boat": 1483,
      "Ġclose": 1484,
      "Ġvoyage": 1485,
      "raveller": 1486,
      "?âĢĶ": 1487,
      "Ġbul": 1488,
      "Ġmorning": 1489,
      "Ġcol": 1490,
      "stand": 1491,
      "Ġgone": 1492,
      "Ġwithin": 1493,
      "Ġreason": 1494,
      "tering": 1495,
      "Ġyoung": 1496,
      "Ġsav": 1497,
      "Ġlive": 1498,
      "oft": 1499,
      "ĠNo": 1500,
      "Ġword": 1501,
      "Ġwork": 1502,
      "Ġchar": 1503,
      "ier": 1504,
      "over": 1505,
      "Ġsince": 1506,
      "rent": 1507,
      "Ġcent": 1508,
      "any": 1509,
      "Ġele": 1510,
      "Ġstra": 1511,
      "ains": 1512,
      "Ġrep": 1513,
      "cept": 1514,
      "Ġmere": 1515,
      "Ġvo": 1516,
      "Ġabove": 1517,
      "iend": 1518,
      "Ġblood": 1519,
      "ibly": 1520,
      "hind": 1521,
      "olog": 1522,
      "ys": 1523,
      "Ġmain": 1524,
      "Ġmouth": 1525,
      "ouse": 1526,
      "lly": 1527,
      "Ġhome": 1528,
      "Ġdim": 1529,
      "Ġpull": 1530,
      "see": 1531,
      "ided": 1532,
      "ident": 1533,
      "Ġred": 1534,
      "ilt": 1535,
      "ously": 1536,
      "ĠPip": 1537,
      "ively": 1538,
      "Ġprof": 1539,
      "Ġcontin": 1540,
      "Ġbetter": 1541,
      "Ġwonder": 1542,
      "ĠMoby": 1543,
      "bed": 1544,
      "ger": 1545,
      "ton": 1546,
      "inct": 1547,
      "Ġmis": 1548,
      "Ġpers": 1549,
      "Ġthir": 1550,
      "Ġgreen": 1551,
      "ĠBildad": 1552,
      "Ġtrue": 1553,
      "Ġgeneral": 1554,
      "ĠLeviathan": 1555,
      "aid": 1556,
      "sail": 1557,
      "ĠK": 1558,
      "Ġocean": 1559,
      "rem": 1560,
      "Ġcase": 1561,
      "stance": 1562,
      "owly": 1563,
      "Ġgiv": 1564,
      "Ġgive": 1565,
      "ached": 1566,
      "Ġstri": 1567,
      "entle": 1568,
      "âĢľâĢĺ": 1569,
      "Ġsol": 1570,
      "Ġdeath": 1571,
      "Ġwhether": 1572,
      "aving": 1573,
      "Ġconsider": 1574,
      "iet": 1575,
      "kn": 1576,
      "lish": 1577,
      "some": 1578,
      "hand": 1579,
      "Ġcare": 1580,
      "Ġdevil": 1581,
      "Ġdoor": 1582,
      "ĠNor": 1583,
      "There": 1584,
      "Ġwaters": 1585,
      "press": 1586,
      "face": 1587,
      "Ġaw": 1588,
      "Ġser": 1589,
      "ret": 1590,
      "Ġbeneath": 1591,
      "ited": 1592,
      "lling": 1593,
      "Ġgot": 1594,
      "Ġsecond": 1595,
      "uring": 1596,
      "Ġves": 1597,
      "antic": 1598,
      "Ġlooking": 1599,
      "ĠPeleg": 1600,
      "Ġcircum": 1601,
      "Ġharpooneer": 1602,
      "Ġbusiness": 1603,
      "day": 1604,
      "ike": 1605,
      "Ġtable": 1606,
      "Ġport": 1607,
      "vest": 1608,
      "Ġorder": 1609,
      "els": 1610,
      "ĠMan": 1611,
      "Ġart": 1612,
      "Ġprev": 1613,
      "Ġadv": 1614,
      "Ġsky": 1615,
      "Ġcomplete": 1616,
      "Ġvessel": 1617,
      "fort": 1618,
      "sw": 1619,
      "uge": 1620,
      "Ġmate": 1621,
      "Ġins": 1622,
      "Ġwhy": 1623,
      "Ġwhalemen": 1624,
      "ries": 1625,
      "Ġext": 1626,
      "iew": 1627,
      "Ġprec": 1628,
      "ĠEng": 1629,
      "Ġspec": 1630,
      "rence": 1631,
      "ixed": 1632,
      "Ġcalm": 1633,
      "),": 1634,
      ";âĢĶ": 1635,
      "lic": 1636,
      "Ġbow": 1637,
      "Ġmad": 1638,
      "Ġmass": 1639,
      "Ġcour": 1640,
      "Ġlad": 1641,
      "Ġhapp": 1642,
      "iding": 1643,
      "ortal": 1644,
      "Ġcommand": 1645,
      "ages": 1646,
      "ivory": 1647,
      "tered": 1648,
      "hold": 1649,
      "ĠIndian": 1650,
      "bl": 1651,
      "dle": 1652,
      "fter": 1653,
      "look": 1654,
      "night": 1655,
      "Ġsy": 1656,
      "Ġoars": 1657,
      "oud": 1658,
      "Ġhaving": 1659,
      "alle": 1660,
      "Ġkind": 1661,
      "Ġground": 1662,
      "fect": 1663,
      "spect": 1664,
      "Ġterr": 1665,
      "Aye": 1666,
      "count": 1667,
      "pent": 1668,
      "when": 1669,
      "xt": 1670,
      "inc": 1671,
      "ense": 1672,
      "Ġthousand": 1673,
      "Ġstart": 1674,
      "Ġform": 1675,
      "iff": 1676,
      "Ġconf": 1677,
      "locks": 1678,
      "ĠCh": 1679,
      "ield": 1680,
      "Ġappe": 1681,
      "ipe": 1682,
      "oes": 1683,
      "par": 1684,
      "Ġtaken": 1685,
      "Ġsqu": 1686,
      "Ġwa": 1687,
      "Ġwide": 1688,
      "Ġbows": 1689,
      "Ġmer": 1690,
      "Ġinf": 1691,
      "Ġtogether": 1692,
      "Ġpit": 1693,
      "ottom": 1694,
      "Ġseam": 1695,
      "aint": 1696,
      "ĠTraveller": 1697,
      "ils": 1698,
      "Ġsuper": 1699,
      "ĠBe": 1700,
      "emed": 1701,
      "Ġexp": 1702,
      "ĠNow": 1703,
      "Ġheads": 1704,
      "ments": 1705,
      "Ġclear": 1706,
      "more": 1707,
      "Ġsile": 1708,
      "ress": 1709,
      "Ġfine": 1710,
      "Ġoften": 1711,
      "Ġcas": 1712,
      "ena": 1713,
      "Ġhundred": 1714,
      "Ġlower": 1715,
      "Ġund": 1716,
      "ention": 1717,
      "Ġforth": 1718,
      "Ġref": 1719,
      "iling": 1720,
      "agn": 1721,
      "iest": 1722,
      "were": 1723,
      "Ġswim": 1724,
      "III": 1725,
      "Wh": 1726,
      "down": 1727,
      "ma": 1728,
      "sy": 1729,
      "Ġfact": 1730,
      "Ġcount": 1731,
      "ening": 1732,
      "Ġbehind": 1733,
      "Ġgentle": 1734,
      "though": 1735,
      "rie": 1736,
      "ists": 1737,
      "isted": 1738,
      "Ġcoming": 1739,
      "Ġaff": 1740,
      "Ġparticular": 1741,
      "Ġobject": 1742,
      "ĠYet": 1743,
      "Ġbroad": 1744,
      "Ġsuddenly": 1745,
      "aus": 1746,
      "wo": 1747,
      "wat": 1748,
      "Ġmur": 1749,
      "Ġcry": 1750,
      "stion": 1751,
      "esides": 1752,
      "ots": 1753,
      "veral": 1754,
      "theless": 1755,
      "Ġass": 1756,
      "Ġfriend": 1757,
      "ushed": 1758,
      "offin": 1759,
      "Ġcomes": 1760,
      "ĠNew": 1761,
      "Ġstruck": 1762,
      "Ġknew": 1763,
      "Ġwatch": 1764,
      "heads": 1765,
      "meric": 1766,
      "ready": 1767,
      "Ġhuman": 1768,
      "Ġelse": 1769,
      "Ġsavage": 1770,
      "Oh": 1771,
      "ead": 1772,
      "Ġturning": 1773,
      "Ġaye": 1774,
      "Ġbreat": 1775,
      "Ġfle": 1776,
      "stern": 1777,
      "Ġtop": 1778,
      "them": 1779,
      "they": 1780,
      "ceived": 1781,
      "Ġdec": 1782,
      "Ġview": 1783,
      "ants": 1784,
      "ĠHow": 1785,
      "ĠMr": 1786,
      "ĠMor": 1787,
      "itting": 1788,
      "Ġroom": 1789,
      "Ġgold": 1790,
      "Ġquick": 1791,
      "ĠYou": 1792,
      "board": 1793,
      "Ġstead": 1794,
      "cially": 1795,
      "Ġdarkness": 1796,
      "Ġstraight": 1797,
      "rous": 1798,
      "round": 1799,
      "who": 1800,
      "Ġfro": 1801,
      "Ġfair": 1802,
      "Ġlost": 1803,
      "ashed": 1804,
      "Ġstory": 1805,
      "ays": 1806,
      "then": 1807,
      "Ġrig": 1808,
      "Ġsoft": 1809,
      "Ġnext": 1810,
      "tego": 1811,
      "Ġshad": 1812,
      "Ġfoot": 1813,
      "Ġaccount": 1814,
      "ashtego": 1815,
      "Ġcraft": 1816,
      "Ġfurther": 1817,
      "line": 1818,
      "ric": 1819,
      "vo": 1820,
      "val": 1821,
      "Ġ1": 1822,
      "Ġide": 1823,
      "reg": 1824,
      "Ġmet": 1825,
      "Ġmod": 1826,
      "Ġfres": 1827,
      "ative": 1828,
      "Ġple": 1829,
      "Ġthick": 1830,
      "Ġeas": 1831,
      "vered": 1832,
      "Ġrel": 1833,
      "Ġfell": 1834,
      "Ġabs": 1835,
      "Ġplan": 1836,
      "Ġbright": 1837,
      "ĠOn": 1838,
      "Ġslowly": 1839,
      "Ġswift": 1840,
      "Ġcru": 1841,
      "Ġsharp": 1842,
      "Ġbroken": 1843,
      "Ġhelp": 1844,
      "Ġvoice": 1845,
      "Ahab": 1846,
      "aut": 1847,
      "ces": 1848,
      "gy": 1849,
      "ired": 1850,
      "Ġivory": 1851,
      "Ġten": 1852,
      "Ġtem": 1853,
      "Ġsix": 1854,
      "Ġod": 1855,
      "Ġwall": 1856,
      "Ġbat": 1857,
      "Ġfanc": 1858,
      "Ġtold": 1859,
      "ĠIf": 1860,
      "their": 1861,
      "Ġforward": 1862,
      "oose": 1863,
      "Ġlean": 1864,
      "ush": 1865,
      "Ġthemselves": 1866,
      "Ġquar": 1867,
      "Ġchase": 1868,
      "Ġ(_": 1869,
      "upon": 1870,
      "XXX": 1871,
      "Ġbelow": 1872,
      "Ġqueer": 1873,
      "Ġdoubt": 1874,
      "00": 1875,
      "cast": 1876,
      "gl": 1877,
      "ior": 1878,
      "jo": 1879,
      "ru": 1880,
      "right": 1881,
      "Ġtre": 1882,
      "have": 1883,
      "Ġbook": 1884,
      "Ġcross": 1885,
      "Ġcaught": 1886,
      "Ġhill": 1887,
      "Ġlat": 1888,
      "Ġlau": 1889,
      "Ġgu": 1890,
      "Ġsure": 1891,
      "together": 1892,
      "Ġdep": 1893,
      "Ġtherefore": 1894,
      "Ġspir": 1895,
      "iles": 1896,
      "Ġblue": 1897,
      "Ġstrong": 1898,
      "Ġtrans": 1899,
      "Ġgrand": 1900,
      "while": 1901,
      "Ġwond": 1902,
      "Ġcurious": 1903,
      "At": 1904,
      "No": 1905,
      "can": 1906,
      "yed": 1907,
      "Ġtri": 1908,
      "Ġspo": 1909,
      "Ġbar": 1910,
      "Ġmine": 1911,
      "Ġgre": 1912,
      "Ġgaz": 1913,
      "Ġuse": 1914,
      "Ġfellow": 1915,
      "Ġcommon": 1916,
      "Ġothers": 1917,
      "Ġproper": 1918,
      "Ġhope": 1919,
      "ancing": 1920,
      "ĠRight": 1921,
      "Ġcontr": 1922,
      "Ġobser": 1923,
      "Ġpassed": 1924,
      "ĠWeena": 1925,
      "Ġfishery": 1926,
      "So": 1927,
      "ned": 1928,
      "ses": 1929,
      "uous": 1930,
      "Ġori": 1931,
      "Ġhuge": 1932,
      "Ġpal": 1933,
      "set": 1934,
      "Ġseveral": 1935,
      "Ġvar": 1936,
      "unt": 1937,
      "Ġord": 1938,
      "Ġalone": 1939,
      "Ġaloft": 1940,
      "lock": 1941,
      "ods": 1942,
      "Ġflu": 1943,
      "Ġspeak": 1944,
      "Ġkept": 1945,
      "Ġdrag": 1946,
      "Ġpursu": 1947,
      "Ġperson": 1948,
      "Ġcourse": 1949,
      "For": 1950,
      "Ġwaves": 1951,
      "Ġbu": 1952,
      "Ġbottom": 1953,
      "Ġmut": 1954,
      "Ġcast": 1955,
      "Ġhouse": 1956,
      "Ġdet": 1957,
      "Ġdream": 1958,
      "Ġpar": 1959,
      "oman": 1960,
      "Ġnum": 1961,
      "Ġgall": 1962,
      "Ġglo": 1963,
      "Ġev": 1964,
      "Ġreal": 1965,
      "ĠTashtego": 1966,
      "ĠAll": 1967,
      "Ġmeans": 1968,
      "ĠNot": 1969,
      "Ġrope": 1970,
      "pped": 1971,
      "Ġcond": 1972,
      "Ġslight": 1973,
      "world": 1974,
      "Ġrunning": 1975,
      "ifferent": 1976,
      "penter": 1977,
      ".âĢĻ": 1978,
      "Qu": 1979,
      "bod": 1980,
      "cha": 1981,
      "eel": 1982,
      "gn": 1983,
      "ience": 1984,
      "Ġ*": 1985,
      "Ġut": 1986,
      "Ġbit": 1987,
      "Ġmist": 1988,
      "lls": 1989,
      "Ġdiv": 1990,
      "owers": 1991,
      "Ġequ": 1992,
      "acing": 1993,
      "ades": 1994,
      "Ġra": 1995,
      "Ġrec": 1996,
      "Ġreve": 1997,
      "ames": 1998,
      "ĠAmeric": 1999,
      "Ġanim": 2000,
      "ored": 2001,
      "Ġlee": 2002,
      "appe": 2003,
      "antly": 2004,
      "ĠHis": 2005,
      "ieve": 2006,
      "eping": 2007,
      "Ġtry": 2008,
      "Ġquite": 2009,
      "Ġchild": 2010,
      "Ġchief": 2011,
      "Ġpurpose": 2012,
      "Ġteeth": 2013,
      "Ġharpooneers": 2014,
      "Ġacross": 2015,
      "known": 2016,
      "ĠEnglish": 2017,
      "ĠMorlocks": 2018,
      "OR": 2019,
      "mo": 2020,
      "min": 2021,
      "rist": 2022,
      "sl": 2023,
      "time": 2024,
      "Ġtaking": 2025,
      "Ġsal": 2026,
      "iss": 2027,
      "Ġfif": 2028,
      "Ġfree": 2029,
      "Ġcat": 2030,
      "Ġcook": 2031,
      "Ġph": 2032,
      "Ġlim": 2033,
      "Ġstern": 2034,
      "ilar": 2035,
      "ĠSp": 2036,
      "Ġsum": 2037,
      "pecially": 2038,
      "ipped": 2039,
      "rible": 2040,
      "ĠWith": 2041,
      "Ġspr": 2042,
      "agg": 2043,
      "ives": 2044,
      "itted": 2045,
      "ĠDe": 2046,
      "Ġstranger": 2047,
      "Ġprop": 2048,
      "Ġrolled": 2049,
      "arks": 2050,
      "Ġgoes": 2051,
      "Ġused": 2052,
      "Ġparts": 2053,
      "Ġsailor": 2054,
      "Ġdisco": 2055,
      "Ġnatural": 2056,
      "Ġbreak": 2057,
      "Ġorigin": 2058,
      ",âĢĻ": 2059,
      "do": 2060,
      "ding": 2061,
      "ky": 2062,
      "phan": 2063,
      "will": 2064,
      "zz": 2065,
      "Ġve": 2066,
      "into": 2067,
      "Ġwal": 2068,
      "erning": 2069,
      "Ġmaking": 2070,
      "Ġmagn": 2071,
      "Ġinvest": 2072,
      "Ġnigh": 2073,
      "Ġgave": 2074,
      "Ġeither": 2075,
      "thr": 2076,
      "aked": 2077,
      "Ġkill": 2078,
      "Ġnoble": 2079,
      "Ġblind": 2080,
      "ĠGreen": 2081,
      "ĠHere": 2082,
      "Ġsailors": 2083,
      "Ġmonster": 2084,
      "Ġdirect": 2085,
      "Ġfresh": 2086,
      "bs": 2087,
      "cons": 2088,
      "ia": 2089,
      "nat": 2090,
      "ued": 2091,
      "uct": 2092,
      "would": 2093,
      "Ġed": 2094,
      "hel": 2095,
      "ises": 2096,
      "Ġmachine": 2097,
      "Ġfurn": 2098,
      "orr": 2099,
      "Ġhur": 2100,
      "Ġdart": 2101,
      "Ġpat": 2102,
      "Ġpast": 2103,
      "Ġstep": 2104,
      "Ġwhom": 2105,
      "ĠTo": 2106,
      "ified": 2107,
      "Ġsole": 2108,
      "Ġwhaleman": 2109,
      "Ġexact": 2110,
      "Ġago": 2111,
      "Ġproceed": 2112,
      "Ġarms": 2113,
      "Ġanything": 2114,
      "Ġsays": 2115,
      "urned": 2116,
      "Ġdesc": 2117,
      "Ġdistance": 2118,
      "Ġsharks": 2119,
      "Ġheaven": 2120,
      "Ġhoriz": 2121,
      "Ġchance": 2122,
      "Ġcreature": 2123,
      "Ġtouching": 2124,
      "Ġidea": 2125,
      "_,": 2126,
      "awn": 2127,
      "dis": 2128,
      "lit": 2129,
      "last": 2130,
      "mn": 2131,
      "oard": 2132,
      "Ġtal": 2133,
      "het": 2134,
      "inter": 2135,
      "inning": 2136,
      "Ġwake": 2137,
      "Ġbone": 2138,
      "Ġmild": 2139,
      "Ġfre": 2140,
      "Ġfat": 2141,
      "Ġfly": 2142,
      "Ġtow": 2143,
      "asion": 2144,
      "ality": 2145,
      "acle": 2146,
      "vers": 2147,
      "irm": 2148,
      "ĠTr": 2149,
      "ifted": 2150,
      "ips": 2151,
      "Ġleap": 2152,
      "ĠBy": 2153,
      "Ġalready": 2154,
      "posed": 2155,
      "Ġunt": 2156,
      "Ġmanner": 2157,
      "ivid": 2158,
      "Ġplay": 2159,
      "lessly": 2160,
      "pping": 2161,
      "deck": 2162,
      "Ġcrow": 2163,
      "Ġchap": 2164,
      "Ġcarry": 2165,
      "Ġbelong": 2166,
      "Ġsurface": 2167,
      "ountain": 2168,
      "Ġmarin": 2169,
      "Ġhours": 2170,
      "Ġesc": 2171,
      "Whale": 2172,
      "ear": 2173,
      "gs": 2174,
      "mat": 2175,
      "mod": 2176,
      "swe": 2177,
      "inary": 2178,
      "Ġske": 2179,
      "Ġsnow": 2180,
      "Ġble": 2181,
      "Ġbir": 2182,
      "Ġmotion": 2183,
      "Ġfixed": 2184,
      "stit": 2185,
      "Ġpri": 2186,
      "Ġemb": 2187,
      "Ġisland": 2188,
      "Ġweather": 2189,
      "rop": 2190,
      "Ġsho": 2191,
      "Ġshow": 2192,
      "ulous": 2193,
      "Ġmyst": 2194,
      "Ġleviathan": 2195,
      "apped": 2196,
      "again": 2197,
      "Ġprod": 2198,
      "Ġoffic": 2199,
      "Ġmighty": 2200,
      "ularly": 2201,
      "cient": 2202,
      "ground": 2203,
      "Ġfeeling": 2204,
      "Ġsweet": 2205,
      "Ġregard": 2206,
      "Ġsingle": 2207,
      "Ġsilent": 2208,
      "That": 2209,
      "ee": 2210,
      "ires": 2211,
      "kilt": 2212,
      "little": 2213,
      "ob": 2214,
      "ert": 2215,
      "Ġbones": 2216,
      "Ġmakes": 2217,
      "Ġfall": 2218,
      "Ġfig": 2219,
      "Ġce": 2220,
      "ats": 2221,
      "att": 2222,
      "Ġdread": 2223,
      "Ġpower": 2224,
      "Ġlance": 2225,
      "Ġlove": 2226,
      "Ġlamp": 2227,
      "Ġnarr": 2228,
      "ĠIs": 2229,
      "Ġgun": 2230,
      "ĠAn": 2231,
      "pend": 2232,
      "top": 2233,
      "pos": 2234,
      "Ġsomehow": 2235,
      "tained": 2236,
      "ĠMachine": 2237,
      "icked": 2238,
      "ĠLord": 2239,
      "before": 2240,
      "arent": 2241,
      "Ġrock": 2242,
      "inking": 2243,
      "Ġbrain": 2244,
      "ney": 2245,
      "Ġsailed": 2246,
      "itudes": 2247,
      "Ġquestion": 2248,
      "Ġcreatures": 2249,
      "Ġsuppose": 2250,
      "Ġquarter": 2251,
      "castle": 2252,
      "Ġgrey": 2253,
      "?âĢĻ": 2254,
      "IL": 2255,
      "end": 2256,
      "every": 2257,
      "fast": 2258,
      "hore": 2259,
      "mock": 2260,
      "nib": 2261,
      "ught": 2262,
      "Ġid": 2263,
      "inner": 2264,
      "Ġbig": 2265,
      "Ġbarb": 2266,
      "iting": 2267,
      "onor": 2268,
      "Ġhull": 2269,
      "Ġhung": 2270,
      "Ġhither": 2271,
      "Ġdarted": 2272,
      "Ġpain": 2273,
      "Ġheld": 2274,
      "sequ": 2275,
      "seemed": 2276,
      "Ġeight": 2277,
      "ote": 2278,
      "acy": 2279,
      "acific": 2280,
      "Ġsto": 2281,
      "enty": 2282,
      "Ġaspect": 2283,
      "Ġreco": 2284,
      "ility": 2285,
      "Ġant": 2286,
      "thy": 2287,
      "Ġlead": 2288,
      "apid": 2289,
      "Ġwhatever": 2290,
      "olved": 2291,
      "Ġbrow": 2292,
      "lied": 2293,
      "Ġglass": 2294,
      "Ġremain": 2295,
      "Ġadm": 2296,
      "Ġmoon": 2297,
      "ugg": 2298,
      "Ġinterest": 2299,
      "Ġprevious": 2300,
      "Captain": 2301,
      "LE": 2302,
      "dra": 2303,
      "host": 2304,
      "lt": 2305,
      "tty": 2306,
      "warks": 2307,
      "Ġill": 2308,
      "Ġign": 2309,
      "ining": 2310,
      "inging": 2311,
      "ism": 2312,
      "Ġmus": 2313,
      "Ġdam": 2314,
      "Ġpict": 2315,
      "Ġlate": 2316,
      "ashing": 2317,
      "Ġgrew": 2318,
      "ented": 2319,
      "Ġrib": 2320,
      "Ġwhit": 2321,
      "Ġmeet": 2322,
      "Ġlearn": 2323,
      "Ġvio": 2324,
      "Ġaltogether": 2325,
      "ager": 2326,
      "iving": 2327,
      "Ġplaced": 2328,
      "Ġrose": 2329,
      "Ġbrought": 2330,
      "ubber": 2331,
      "Ġcold": 2332,
      "nest": 2333,
      "Ġenc": 2334,
      "Ġquiet": 2335,
      "ize": 2336,
      "Ġmates": 2337,
      "Ġburst": 2338,
      "Ġnearly": 2339,
      "ency": 2340,
      "Ġcapt": 2341,
      "Ġcutting": 2342,
      "Ġminute": 2343,
      "Ġwondrous": 2344,
      "cing": 2345,
      "come": 2346,
      "des": 2347,
      "fo": 2348,
      "pon": 2349,
      "pass": 2350,
      "she": 2351,
      "sha": 2352,
      "ĠX": 2353,
      "erable": 2354,
      "Ġbill": 2355,
      "itary": 2356,
      "Ġmortal": 2357,
      "leton": 2358,
      "Ġcoffin": 2359,
      "arily": 2360,
      "stances": 2361,
      "ator": 2362,
      "asure": 2363,
      "Ġnone": 2364,
      "uture": 2365,
      "acious": 2366,
      "aching": 2367,
      "these": 2368,
      "Ġru": 2369,
      "Ġran": 2370,
      "cel": 2371,
      "ores": 2372,
      "room": 2373,
      "about": 2374,
      "Ġvic": 2375,
      "unning": 2376,
      "poss": 2377,
      "ĠPer": 2378,
      "ĠPar": 2379,
      "Ġexper": 2380,
      "been": 2381,
      "arer": 2382,
      "Ġaround": 2383,
      "Ġcoast": 2384,
      "Ġsaying": 2385,
      "anced": 2386,
      "Ġremem": 2387,
      "ians": 2388,
      "Ġdesce": 2389,
      "Ġplainly": 2390,
      "Ġfollowed": 2391,
      "Ġespecially": 2392,
      "Ġfamous": 2393,
      "cluded": 2394,
      "Ġprecise": 2395,
      "Ġeasy": 2396,
      "Ġvarious": 2397,
      "Ġflukes": 2398,
      "aggoo": 2399,
      "Well": 2400,
      "_)": 2401,
      "aul": 2402,
      "aff": 2403,
      "cious": 2404,
      "ef": 2405,
      "por": 2406,
      "pres": 2407,
      "ral": 2408,
      "Ġtried": 2409,
      "inger": 2410,
      "Ġmiles": 2411,
      "Ġfive": 2412,
      "lect": 2413,
      "Ġden": 2414,
      "Ġpipe": 2415,
      "Ġlur": 2416,
      "omin": 2417,
      "asant": 2418,
      "Ġhast": 2419,
      "Ġghost": 2420,
      "sea": 2421,
      "seen": 2422,
      "Ġef": 2423,
      "Ġevent": 2424,
      "Ġetern": 2425,
      "idden": 2426,
      "irt": 2427,
      "ayed": 2428,
      "Ġsepar": 2429,
      "Ġashore": 2430,
      "Ġrising": 2431,
      "Ġrespect": 2432,
      "Ġsuff": 2433,
      "Ġsuspe": 2434,
      "Ġshr": 2435,
      "Ġshot": 2436,
      "cket": 2437,
      "ĠPacific": 2438,
      "Ġunknown": 2439,
      "ĠCan": 2440,
      "ĠCape": 2441,
      "off": 2442,
      "aged": 2443,
      "Ġjack": 2444,
      "ĠDaggoo": 2445,
      "Ġtruth": 2446,
      "Ġeng": 2447,
      "Ġscar": 2448,
      "Ġdisc": 2449,
      "izing": 2450,
      "rench": 2451,
      "Ġbelieve": 2452,
      "ĠThough": 2453,
      "ounter": 2454,
      "whales": 2455,
      "ences": 2456,
      "Ġconcerning": 2457,
      "could": 2458,
      "lord": 2459,
      "mates": 2460,
      "part": 2461,
      "sur": 2462,
      "yal": 2463,
      "Ġice": 2464,
      "inn": 2465,
      "orous": 2466,
      "ature": 2467,
      "Ġpil": 2468,
      "ased": 2469,
      "Ġheat": 2470,
      "Ġhair": 2471,
      "aled": 2472,
      "Ġstro": 2473,
      "âĢĶâĢĶ": 2474,
      "Ġrepe": 2475,
      "Ġreally": 2476,
      "ĠAl": 2477,
      "ĠAr": 2478,
      "ĠSome": 2479,
      "ĠWell": 2480,
      "unk": 2481,
      "ession": 2482,
      "Ġboy": 2483,
      "Ġuncom": 2484,
      "Ġjud": 2485,
      "ivil": 2486,
      "Ġimm": 2487,
      "plain": 2488,
      "white": 2489,
      "Ġcarpenter": 2490,
      "Ġpassage": 2491,
      "ext": 2492,
      "harpo": 2493,
      "medi": 2494,
      "Ġforehead": 2495,
      "Ġnature": 2496,
      "Ġimport": 2497,
      "Ġwarm": 2498,
      "Ġready": 2499,
      "Ġcompletely": 2500,
      "ĠChrist": 2501,
      "Ġseamen": 2502,
      "Ġgentlemen": 2503,
      "Ġnumber": 2504,
      ":âĢĶ": 2505,
      "Fish": 2506,
      "IN": 2507,
      "VI": 2508,
      "We": 2509,
      "aim": 2510,
      "after": 2511,
      "cause": 2512,
      "eper": 2513,
      "such": 2514,
      "vast": 2515,
      "vals": 2516,
      "Ġsil": 2517,
      "Ġsch": 2518,
      "Ġbound": 2519,
      "Ġmount": 2520,
      "Ġfool": 2521,
      "len": 2522,
      "stant": 2523,
      "stone": 2524,
      "Ġdie": 2525,
      "owards": 2526,
      "utes": 2527,
      "utch": 2528,
      "uttle": 2529,
      "imp": 2530,
      "ices": 2531,
      "acet": 2532,
      "alled": 2533,
      "Ġsupp": 2534,
      "Ġdeg": 2535,
      "Ġdest": 2536,
      "Ġdecl": 2537,
      "aps": 2538,
      "Ġval": 2539,
      "Ġvain": 2540,
      "ume": 2541,
      "Ġbold": 2542,
      "Ġnose": 2543,
      "Ġexam": 2544,
      "Ġexcl": 2545,
      "Ġexcept": 2546,
      "ague": 2547,
      "ĠDon": 2548,
      "Ġthrust": 2549,
      "ĠOne": 2550,
      "Ġsails": 2551,
      "evertheless": 2552,
      "Ġremained": 2553,
      "Ġadd": 2554,
      "Ġthoughts": 2555,
      "Ġcarried": 2556,
      "Ġthinking": 2557,
      "Ġturns": 2558,
      "cont": 2559,
      "Ġdrawing": 2560,
      "Ġhelm": 2561,
      "Ġlegs": 2562,
      "Ġpossible": 2563,
      "Ġsmoke": 2564,
      "Ġbulk": 2565,
      "Ġthird": 2566,
      "ĠKing": 2567,
      "Ġrigging": 2568,
      "body": 2569,
      "through": 2570,
      "Ġexactly": 2571,
      "Ġskeleton": 2572,
      "!âĢĻ": 2573,
      "AN": 2574,
      "IV": 2575,
      "With": 2576,
      "ales": 2577,
      "don": 2578,
      "hor": 2579,
      "mp": 2580,
      "must": 2581,
      "two": 2582,
      "ues": 2583,
      "uly": 2584,
      "Ã¦": 2585,
      "Ġsad": 2586,
      "reck": 2587,
      "err": 2588,
      "Ġmove": 2589,
      "ories": 2590,
      "still": 2591,
      "Ġhig": 2592,
      "Ġhint": 2593,
      "Ġthunder": 2594,
      "Ġhang": 2595,
      "iment": 2596,
      "Ġgir": 2597,
      "aded": 2598,
      "Ġrapid": 2599,
      "Ġshout": 2600,
      "ths": 2601,
      "Ġupper": 2602,
      "Ġleaving": 2603,
      "ement": 2604,
      "umed": 2605,
      "ustom": 2606,
      "Ġkilled": 2607,
      "ĠSteel": 2608,
      "Ġblubber": 2609,
      "ĠDo": 2610,
      "Ġaft": 2611,
      "Ġgrow": 2612,
      "ording": 2613,
      "Ġscr": 2614,
      "Ġsailing": 2615,
      "Ġprom": 2616,
      "Ġstands": 2617,
      "Ġsubstance": 2618,
      "Ġskull": 2619,
      "Ġdistinct": 2620,
      "Ġaccom": 2621,
      "ashion": 2622,
      "Ġbecome": 2623,
      "Ġheavy": 2624,
      "Ġoccasion": 2625,
      "Ġbulwarks": 2626,
      "Ġodd": 2627,
      "Ġfifty": 2628,
      "How": 2629,
      "Look": 2630,
      "bone": 2631,
      "che": 2632,
      "even": 2633,
      "great": 2634,
      "lin": 2635,
      "uzz": 2636,
      "yond": 2637,
      "ĠQu": 2638,
      "inting": 2639,
      "Ġsent": 2640,
      "Ġsides": 2641,
      "Ġoh": 2642,
      "Ġbree": 2643,
      "itions": 2644,
      "Ġmil": 2645,
      "ouble": 2646,
      "lest": 2647,
      "llig": 2648,
      "Ġdri": 2649,
      "Ġlaw": 2650,
      "Ġlines": 2651,
      "Ġbeaut": 2652,
      "sey": 2653,
      "ics": 2654,
      "Ġeager": 2655,
      "idering": 2656,
      "ety": 2657,
      "amb": 2658,
      "Ġann": 2659,
      "asted": 2660,
      "Ġdel": 2661,
      "empt": 2662,
      "ĠWhere": 2663,
      "ĠWhen": 2664,
      "Ġneg": 2665,
      "acked": 2666,
      "Ġexpress": 2667,
      "Ġcomm": 2668,
      "Ġcomfort": 2669,
      "Ġjet": 2670,
      "olute": 2671,
      "Ġknows": 2672,
      "Ġrolling": 2673,
      "Ġarri": 2674,
      "dered": 2675,
      "ailed": 2676,
      "Ġharpoons": 2677,
      "Ġunderstand": 2678,
      "Ġpresently": 2679,
      "hens": 2680,
      "Ġskin": 2681,
      "Ġforecastle": 2682,
      "Ġappro": 2683,
      "Ġshark": 2684,
      "Ġholding": 2685,
      "Ġhardly": 2686,
      "Ġmarve": 2687,
      "Ġtouch": 2688,
      "Ġpossibly": 2689,
      "Ġmiddle": 2690,
      "Ġhammock": 2691,
      "Ġspecies": 2692,
      "Ġlaugh": 2693,
      "ĠAmerican": 2694,
      "ĠGreenland": 2695,
      "Ġviolent": 2696,
      "ĠSteelkilt": 2697,
      "ET": 2698,
      "IS": 2699,
      "Nor": 2700,
      "OO": 2701,
      "found": 2702,
      "ges": 2703,
      "ially": 2704,
      "rant": 2705,
      "wk": 2706,
      "Ġtack": 2707,
      "Ġage": 2708,
      "rer": 2709,
      "ham": 2710,
      "Ġmood": 2711,
      "Ġfuture": 2712,
      "Ġcorn": 2713,
      "ony": 2714,
      "Ġinten": 2715,
      "Ġgro": 2716,
      "Ġears": 2717,
      "velo": 2718,
      "account": 2719,
      "Ġstop": 2720,
      "Ġstorm": 2721,
      "Ġhist": 2722,
      "Ġwhis": 2723,
      "Ġrev": 2724,
      "ilo": 2725,
      "Ġmem": 2726,
      "those": 2727,
      "ipt": 2728,
      "gest": 2729,
      "Ġunf": 2730,
      "isting": 2731,
      "ĠHo": 2732,
      "Ġspring": 2733,
      "ieved": 2734,
      "Ġpointed": 2735,
      "Ġwords": 2736,
      "Ġtwenty": 2737,
      "Ġcannib": 2738,
      "Ġperil": 2739,
      "Ġpretty": 2740,
      "Ġsmell": 2741,
      "Ġglance": 2742,
      "Ġremains": 2743,
      "Ġsideways": 2744,
      "ĠYes": 2745,
      "Ġsteel": 2746,
      "Ġcompany": 2747,
      "ĠWhy": 2748,
      "Ġcertainly": 2749,
      "chant": 2750,
      "Ġwrink": 2751,
      "Ġfinal": 2752,
      "ivers": 2753,
      "Ġvisible": 2754,
      "ologist": 2755,
      "Ġthirty": 2756,
      "aused": 2757,
      "Ġintense": 2758,
      "(_": 2759,
      "Pe": 2760,
      "VII": 2761,
      "You": 2762,
      "_.": 2763,
      "certain": 2764,
      "ev": 2765,
      "eed": 2766,
      "hum": 2767,
      "lass": 2768,
      "ny": 2769,
      "oh": 2770,
      "pes": 2771,
      "somet": 2772,
      "zy": 2773,
      "Ġtree": 2774,
      "Ġtrave": 2775,
      "hether": 2776,
      "ressed": 2777,
      "edall": 2778,
      "Ġmal": 2779,
      "Ġfain": 2780,
      "Ġfirm": 2781,
      "let": 2782,
      "Ġdut": 2783,
      "Ġpale": 2784,
      "oms": 2785,
      "Ġheed": 2786,
      "acter": 2787,
      "acted": 2788,
      "idel": 2789,
      "Ġstarted": 2790,
      "Ġself": 2791,
      "ĠAye": 2792,
      "Ġfront": 2793,
      "ipping": 2794,
      "ĠBesides": 2795,
      "usion": 2796,
      "ushing": 2797,
      "Ġuns": 2798,
      "Ġking": 2799,
      "Ġspread": 2800,
      "Ġjoy": 2801,
      "Ġoverboard": 2802,
      "Then": 2803,
      "inks": 2804,
      "ference": 2805,
      "lesh": 2806,
      "Ġcontri": 2807,
      "Ġcheer": 2808,
      "Ġsimilar": 2809,
      "Ġentirely": 2810,
      "Ġjaws": 2811,
      "Ġneeds": 2812,
      "Ġcentre": 2813,
      "Ġprofound": 2814,
      "Ġstrike": 2815,
      "Ġbreath": 2816,
      "Ġfancy": 2817,
      "AIL": 2818,
      "This": 2819,
      "VIII": 2820,
      "aith": 2821,
      "cial": 2822,
      "fish": 2823,
      "lers": 2824,
      "much": 2825,
      "pan": 2826,
      "use": 2827,
      "Ġtim": 2828,
      "Ġtall": 2829,
      "Ġtong": 2830,
      "Ġtra": 2831,
      "hered": 2832,
      "Ġastern": 2833,
      "inx": 2834,
      "Ġwon": 2835,
      "rel": 2836,
      "ison": 2837,
      "itable": 2838,
      "itated": 2839,
      "Ġmention": 2840,
      "Ġfight": 2841,
      "Ġcand": 2842,
      "Ġhonor": 2843,
      "Ġdust": 2844,
      "Ġduring": 2845,
      "Ġdifferent": 2846,
      "Ġdinner": 2847,
      "Ġpan": 2848,
      "Ġlit": 2849,
      "Ġlab": 2850,
      "Ġlock": 2851,
      "Ġheight": 2852,
      "ldom": 2853,
      "alo": 2854,
      "Ġring": 2855,
      "Ġreceived": 2856,
      "oof": 2857,
      "Ġanch": 2858,
      "Ġancient": 2859,
      "three": 2860,
      "thought": 2861,
      "Ġleve": 2862,
      "app": 2863,
      "anted": 2864,
      "Ġboys": 2865,
      "Ġlie": 2866,
      "Ġconce": 2867,
      "posing": 2868,
      "Ġunless": 2869,
      "Ġexceed": 2870,
      "Ġspot": 2871,
      "Ġyear": 2872,
      "Ġprob": 2873,
      "akeman": 2874,
      "Ġhoisted": 2875,
      "never": 2876,
      "Ġenorm": 2877,
      "Ġremark": 2878,
      "plic": 2879,
      "Ġkeen": 2880,
      "Ġinstances": 2881,
      "Ġinstead": 2882,
      "Ġwoe": 2883,
      "Ġalongside": 2884,
      "Ġbecame": 2885,
      "Ġhearts": 2886,
      "change": 2887,
      "Ġstrength": 2888,
      "Ġchest": 2889,
      "Ġregular": 2890,
      "Ġfloor": 2891,
      "Ġoccur": 2892,
      "Ġemp": 2893,
      "Ġempt": 2894,
      "smith": 2895,
      "Ġconsiderable": 2896,
      "swer": 2897,
      "looking": 2898,
      "sych": 2899,
      "Ġbattle": 2900,
      "rupt": 2901,
      "Ġspirit": 2902,
      "Ġpursuit": 2903,
      "Ġleeward": 2904,
      "orrow": 2905,
      "Ġflying": 2906,
      "Ġescape": 2907,
      "Ġlearned": 2908,
      "Ġpilot": 2909,
      "edallah": 2910,
      "Yes": 2911,
      "bb": 2912,
      "car": 2913,
      "cut": 2914,
      "kind": 2915,
      "know": 2916,
      "lat": 2917,
      "sk": 2918,
      "uc": 2919,
      "Ġahead": 2920,
      "Ġsens": 2921,
      "Ġsense": 2922,
      "erous": 2923,
      "Ġbad": 2924,
      "isible": 2925,
      "Ġma": 2926,
      "Ġmountain": 2927,
      "Ġcou": 2928,
      "arm": 2929,
      "Ġtossed": 2930,
      "Ġbear": 2931,
      "Ġest": 2932,
      "Ġstate": 2933,
      "aying": 2934,
      "Ġyards": 2935,
      "Ġrare": 2936,
      "aining": 2937,
      "Ġreached": 2938,
      "Ġang": 2939,
      "Ġsucc": 2940,
      "Ġdef": 2941,
      "Ġdev": 2942,
      "Ġleak": 2943,
      "apping": 2944,
      "Ġvig": 2945,
      "umps": 2946,
      "Ġconne": 2947,
      "ĠCom": 2948,
      "Ġnecess": 2949,
      "Ġpop": 2950,
      "aved": 2951,
      "test": 2952,
      "ĠLook": 2953,
      "Ġimag": 2954,
      "Ġscene": 2955,
      "fulness": 2956,
      "Ġclot": 2957,
      "ignity": 2958,
      "Ġevening": 2959,
      "ĠRad": 2960,
      "Ġmatch": 2961,
      "Ġkeel": 2962,
      "Ġpassing": 2963,
      "Ġinterval": 2964,
      "Ġsurpr": 2965,
      "Ġmaster": 2966,
      "Ġincred": 2967,
      "Ġgetting": 2968,
      "._)": 2969,
      "Ġgenerally": 2970,
      "Ġhorse": 2971,
      "Ġstream": 2972,
      "Ġsupper": 2973,
      "Ġcorp": 2974,
      "Ġfishermen": 2975,
      "ifference": 2976,
      "Ġhammer": 2977,
      "ierce": 2978,
      "Ġgiven": 2979,
      "Ġappear": 2980,
      "Ġswimming": 2981,
      "Ġflew": 2982,
      "Ġswiftly": 2983,
      "Ġutter": 2984,
      "Ġanimal": 2985,
      "natural": 2986,
      "Ġmariners": 2987,
      "Ġeffect": 2988,
      "Ġrepeated": 2989,
      "Ġdegree": 2990,
      "Ġenormous": 2991,
      "Ġempty": 2992,
      "sychologist": 2993,
      "Ho": 2994,
      "IX": 2995,
      "To": 2996,
      "When": 2997,
      "back": 2998,
      "did": 2999,
      "got": 3000,
      "onder": 3001,
      "pit": 3002,
      "sle": 3003,
      "uit": 3004,
      "yet": 3005,
      "Ġtor": 3006,
      "Ġtakes": 3007,
      "inced": 3008,
      "Ġwound": 3009,
      "Ġbra": 3010,
      "Ġborn": 3011,
      "Ġbesides": 3012,
      "eding": 3013,
      "Ġmot": 3014,
      "oul": 3015,
      "Ġcho": 3016,
      "anqu": 3017,
      "Ġdi": 3018,
      "Ġdrew": 3019,
      "Ġped": 3020,
      "Ġpen": 3021,
      "Ġhence": 3022,
      "Ġbeat": 3023,
      "Ġbearing": 3024,
      "Ġbehold": 3025,
      "Ġgale": 3026,
      "semb": 3027,
      "ading": 3028,
      "Ġseated": 3029,
      "Ġseldom": 3030,
      "Ġforty": 3031,
      "key": 3032,
      "ĠSuch": 3033,
      "ĠSAIL": 3034,
      "iful": 3035,
      "Ġfright": 3036,
      "thou": 3037,
      "pered": 3038,
      "Ġleave": 3039,
      "aped": 3040,
      "Ġvague": 3041,
      "ĠWho": 3042,
      "Ġunw": 3043,
      "aker": 3044,
      "ĠMed": 3045,
      "Ġspace": 3046,
      "ĠFrom": 3047,
      "ĠFrench": 3048,
      "ĠFedallah": 3049,
      "ishing": 3050,
      "Ġblow": 3051,
      "tend": 3052,
      "ĠDutch": 3053,
      "icking": 3054,
      "ĠLet": 3055,
      "linging": 3056,
      "Ġroyal": 3057,
      "Ġgrass": 3058,
      "Ġperi": 3059,
      "Ġcoat": 3060,
      "Ġseeing": 3061,
      "Ġimpress": 3062,
      "ords": 3063,
      "Ġadded": 3064,
      "Ġlightning": 3065,
      "Ġlandlord": 3066,
      "Ġintervals": 3067,
      "Ġstrangely": 3068,
      "Ġdraw": 3069,
      "Ġmoved": 3070,
      "Ġlog": 3071,
      "Ġhorr": 3072,
      "flu": 3073,
      "Ġfloating": 3074,
      "himself": 3075,
      "Ġdoublo": 3076,
      "Ġconcern": 3077,
      "Ġelephan": 3078,
      "Ġstriking": 3079,
      "Ġcases": 3080,
      "water": 3081,
      "Ġsteady": 3082,
      "Ġleaning": 3083,
      "Ġsolemn": 3084,
      "Ġfrequ": 3085,
      "Ġuntil": 3086,
      "Ġfigure": 3087,
      "Ġgunw": 3088,
      "Ġignor": 3089,
      "Ġwhiteness": 3090,
      "ĠParsee": 3091,
      "Ġhigher": 3092,
      "Ġduty": 3093,
      "ĠSAILOR": 3094,
      "ND": 3095,
      "ST": 3096,
      "bre": 3097,
      "bit": 3098,
      "bor": 3099,
      "bat": 3100,
      "cent": 3101,
      "cher": 3102,
      "came": 3103,
      "creat": 3104,
      "fact": 3105,
      "iery": 3106,
      "mind": 3107,
      "tis": 3108,
      "than": 3109,
      "yard": 3110,
      "your": 3111,
      "reme": 3112,
      "hawk": 3113,
      "erman": 3114,
      "Ġbes": 3115,
      "Ġmed": 3116,
      "Ġfaint": 3117,
      "Ġcre": 3118,
      "orpo": 3119,
      "ari": 3120,
      "stem": 3121,
      "Ġdanger": 3122,
      "Ġpie": 3123,
      "Ġlaid": 3124,
      "owder": 3125,
      "iced": 3126,
      "icul": 3127,
      "ury": 3128,
      "anded": 3129,
      "Ġweight": 3130,
      "Ġanswe": 3131,
      "Ġanswer": 3132,
      "Ġdelight": 3133,
      "Ġvol": 3134,
      "ĠPsychologist": 3135,
      "Ġneck": 3136,
      "oney": 3137,
      "thern": 3138,
      "ĠMy": 3139,
      "agan": 3140,
      "Ġblank": 3141,
      "Ġpos": 3142,
      "avor": 3143,
      "ĠLike": 3144,
      "Ġproject": 3145,
      "Ġhollow": 3146,
      "Ġflowers": 3147,
      "Ġprep": 3148,
      "hole": 3149,
      "Ġswam": 3150,
      "Ġdisappe": 3151,
      "headed": 3152,
      "Ġbeginning": 3153,
      "Ġtelling": 3154,
      "Ġmasts": 3155,
      "Ġcompass": 3156,
      "ships": 3157,
      "finite": 3158,
      "Ġcircle": 3159,
      "Ġterrible": 3160,
      "works": 3161,
      "Ġstret": 3162,
      "Ġapart": 3163,
      "Ġwooden": 3164,
      "Stubb": 3165,
      "Ġhunters": 3166,
      "ĠSee": 3167,
      "uthor": 3168,
      "Ġcharacter": 3169,
      "Ġcircumstances": 3170,
      "Ġpitch": 3171,
      "Ġ18": 3172,
      "Ġplanks": 3173,
      "Ġorders": 3174,
      "Ġraised": 3175,
      "Ġtalk": 3176,
      "Ġregarded": 3177,
      "possible": 3178,
      "Ġscarce": 3179,
      "something": 3180,
      "Ġanswered": 3181,
      "Be": 3182,
      "Who": 3183,
      "aun": 3184,
      "away": 3185,
      "bu": 3186,
      "bes": 3187,
      "cle": 3188,
      "col": 3189,
      "circ": 3190,
      "hip": 3191,
      "just": 3192,
      "nal": 3193,
      "oe": 3194,
      "pet": 3195,
      "ron": 3196,
      "rise": 3197,
      "yp": 3198,
      "Ġtub": 3199,
      "held": 3200,
      "inity": 3201,
      "Ġoar": 3202,
      "haling": 3203,
      "erm": 3204,
      "Ġbubb": 3205,
      "Ġbread": 3206,
      "isc": 3207,
      "itor": 3208,
      "Ġfit": 3209,
      "Ġfashion": 3210,
      "Ġflesh": 3211,
      "Ġcries": 3212,
      "Ġcivil": 3213,
      "oned": 3214,
      "eng": 3215,
      "Ġhinted": 3216,
      "Ġhidden": 3217,
      "atory": 3218,
      "Ġpushed": 3219,
      "ese": 3220,
      "oward": 3221,
      "Ġthin": 3222,
      "Ġgrave": 3223,
      "vering": 3224,
      "Ġstar": 3225,
      "Ġyield": 3226,
      "Ġseat": 3227,
      "Ġaside": 3228,
      "ĠTHE": 3229,
      "ĠSc": 3230,
      "ĠShe": 3231,
      "ĠSouth": 3232,
      "Ġshock": 3233,
      "pest": 3234,
      "Ġdelic": 3235,
      "Ġdeeper": 3236,
      "Ġvap": 3237,
      "Ġsave": 3238,
      "antime": 3239,
      "ĠPo": 3240,
      "Ġnearer": 3241,
      "Ġexc": 3242,
      "ĠMe": 3243,
      "Ġje": 3244,
      "Ġwholly": 3245,
      "Ġblows": 3246,
      "They": 3247,
      "Ġotherwise": 3248,
      "well": 3249,
      "teen": 3250,
      "ĠLakeman": 3251,
      "Ġamid": 3252,
      "Ġgras": 3253,
      "rying": 3254,
      "ails": 3255,
      "Ġafterwards": 3256,
      "ĠEd": 3257,
      "Ġdism": 3258,
      "Ġpract": 3259,
      "Ġconsidering": 3260,
      "Ġsubject": 3261,
      "hard": 3262,
      "Ġlands": 3263,
      "Ġbodily": 3264,
      "strange": 3265,
      "Ġhump": 3266,
      "Ġincre": 3267,
      "Ġtend": 3268,
      "Ġthyself": 3269,
      "Ġsleeping": 3270,
      "Ġmidnight": 3271,
      "Starbuck": 3272,
      "Ġdrop": 3273,
      "Ġdropped": 3274,
      "Ġsmoking": 3275,
      "Ġintellig": 3276,
      "cluding": 3277,
      "Ġsecret": 3278,
      "Ġwonderful": 3279,
      "Ġgiving": 3280,
      "Ġterror": 3281,
      "Why": 3282,
      "While": 3283,
      "Ġcountry": 3284,
      "Ġaffair": 3285,
      "Ġguess": 3286,
      "Ġspoke": 3287,
      "Ġgazing": 3288,
      "Ġcontrast": 3289,
      "Ġoriginal": 3290,
      "Ġjacket": 3291,
      "Ġuncommon": 3292,
      "harpoone": 3293,
      "Ġbreeze": 3294,
      "Ġnegro": 3295,
      "ĠRadney": 3296,
      "AR": 3297,
      "All": 3298,
      "Mr": 3299,
      "Not": 3300,
      "Sperm": 3301,
      "Where": 3302,
      "af": 3303,
      "ares": 3304,
      "bro": 3305,
      "boy": 3306,
      "city": 3307,
      "ek": 3308,
      "ez": 3309,
      "gan": 3310,
      "ium": 3311,
      "lad": 3312,
      "lished": 3313,
      "mit": 3314,
      "might": 3315,
      "ram": 3316,
      "rust": 3317,
      "same": 3318,
      "sub": 3319,
      "Ġoper": 3320,
      "Ġwit": 3321,
      "Ġband": 3322,
      "Ġball": 3323,
      "Ġmother": 3324,
      "ouds": 3325,
      "Ġfilled": 3326,
      "Ġinser": 3327,
      "Ġhook": 3328,
      "Ġdashed": 3329,
      "Ġphan": 3330,
      "Ġlying": 3331,
      "Ġloose": 3332,
      "imate": 3333,
      "imens": 3334,
      "Ġbeach": 3335,
      "Ġbeyond": 3336,
      "Ġgods": 3337,
      "Ġeast": 3338,
      "Ġstone": 3339,
      "Ġstars": 3340,
      "Ġstuff": 3341,
      "Ġrace": 3342,
      "Ġformer": 3343,
      "âĢĿâĢĶ": 3344,
      "alling": 3345,
      "rod": 3346,
      "aste": 3347,
      "Ġshore": 3348,
      "Ġmyster": 3349,
      "ĠBl": 3350,
      "rig": 3351,
      "umin": 3352,
      "Ġlies": 3353,
      "raid": 3354,
      "Ġalive": 3355,
      "igantic": 3356,
      "Ġsomewhat": 3357,
      "Ġsomewhere": 3358,
      "Ġnoise": 3359,
      "Ġspare": 3360,
      "Ġyellow": 3361,
      "ĠNevertheless": 3362,
      "itten": 3363,
      "iber": 3364,
      "Ġtruly": 3365,
      "Ġknock": 3366,
      "Ġprov": 3367,
      "ude": 3368,
      "udden": 3369,
      "being": 3370,
      "Ġarg": 3371,
      "Ġgrowing": 3372,
      "Ġhole": 3373,
      "Ġperils": 3374,
      "Ġimmen": 3375,
      "Ġlooks": 3376,
      "ledge": 3377,
      "arboard": 3378,
      "Ġswall": 3379,
      "Ġswung": 3380,
      "Ġfoam": 3381,
      "oyage": 3382,
      "Ġspeaking": 3383,
      "angu": 3384,
      "Ġnevertheless": 3385,
      "ints": 3386,
      "Ġdeser": 3387,
      "Ġinstance": 3388,
      "Ġentered": 3389,
      "speak": 3390,
      "Ġdistant": 3391,
      "Ġblackness": 3392,
      "ĠThou": 3393,
      "Ġdrawn": 3394,
      "Ġmoving": 3395,
      "Ġdrown": 3396,
      "Here": 3397,
      "work": 3398,
      "Ġindivid": 3399,
      "ĠNantucketer": 3400,
      "Ġsignific": 3401,
      "Ġminutes": 3402,
      "Ġhunt": 3403,
      "ĠSea": 3404,
      "Ġmeaning": 3405,
      "Ġcircumstance": 3406,
      "Ġhappened": 3407,
      "rief": 3408,
      "Ġshadow": 3409,
      "Ġshadows": 3410,
      "Ġabsolute": 3411,
      "Ġcruising": 3412,
      "Ġtriump": 3413,
      "Ġbuild": 3414,
      "Ġhorizon": 3415,
      "Ġchapter": 3416,
      "earth": 3417,
      "Ġprodig": 3418,
      "Ġquietly": 3419,
      "Ġeternal": 3420,
      "Ġsuspended": 3421,
      "Ġperiod": 3422,
      "If": 3423,
      "Me": 3424,
      "My": 3425,
      "ON": 3426,
      "cy": 3427,
      "cur": 3428,
      "gain": 3429,
      "lantic": 3430,
      "put": 3431,
      "ply": 3432,
      "pers": 3433,
      "sho": 3434,
      "uced": 3435,
      "war": 3436,
      "Ġtur": 3437,
      "inion": 3438,
      "Ġsit": 3439,
      "Ġslo": 3440,
      "Ġowing": 3441,
      "reason": 3442,
      "half": 3443,
      "ingers": 3444,
      "ital": 3445,
      "Ġfun": 3446,
      "Ġfaces": 3447,
      "Ġfaith": 3448,
      "lence": 3449,
      "onze": 3450,
      "ench": 3451,
      "Ġinside": 3452,
      "stead": 3453,
      "Ġtown": 3454,
      "Ġhot": 3455,
      "Ġhide": 3456,
      "Ġhorn": 3457,
      "atic": 3458,
      "Ġder": 3459,
      "Ġdied": 3460,
      "Ġpul": 3461,
      "Ġpun": 3462,
      "Ġpick": 3463,
      "Ġlone": 3464,
      "Ġlord": 3465,
      "Ġloud": 3466,
      "Ġlips": 3467,
      "Ġhail": 3468,
      "Ġgod": 3469,
      "oted": 3470,
      "lded": 3471,
      "almost": 3472,
      "Ġones": 3473,
      "idence": 3474,
      "Ġstud": 3475,
      "Ġstove": 3476,
      "etr": 3477,
      "ental": 3478,
      "Ġsevent": 3479,
      "urally": 3480,
      "Ġrid": 3481,
      "Ġrust": 3482,
      "Ġrise": 3483,
      "Ġformed": 3484,
      "Ġreel": 3485,
      "iliar": 3486,
      "ĠAfter": 3487,
      "Ġsul": 3488,
      "Ġmeasure": 3489,
      "Ġleaves": 3490,
      "apers": 3491,
      "Ġvill": 3492,
      "ctly": 3493,
      "ĠWHA": 3494,
      "Ġbox": 3495,
      "Ġlives": 3496,
      "Ġconven": 3497,
      "rage": 3498,
      "loss": 3499,
      "Ġouter": 3500,
      "Ġfeat": 3501,
      "Ġexpl": 3502,
      "Ġdog": 3503,
      "Ġpocket": 3504,
      "Ġworse": 3505,
      "Ġworship": 3506,
      "ibr": 3507,
      "urely": 3508,
      "lessness": 3509,
      "Ġtrying": 3510,
      "Ġflag": 3511,
      "Ġwatching": 3512,
      "feet": 3513,
      "ancy": 3514,
      "Ġdidn": 3515,
      "Ġpeace": 3516,
      "should": 3517,
      "Ġyourself": 3518,
      "Ġcrown": 3519,
      "Ġclam": 3520,
      "Ġdecks": 3521,
      "Ġaccording": 3522,
      "Ġcompar": 3523,
      "Ġsouls": 3524,
      "Ġearnest": 3525,
      "Ġdeadly": 3526,
      "Ġlargest": 3527,
      "Ġfinally": 3528,
      "Ġfollowing": 3529,
      "boats": 3530,
      "Ġelev": 3531,
      "Ġmerely": 3532,
      "Ġpulling": 3533,
      "Ġgives": 3534,
      "hands": 3535,
      "incip": 3536,
      "Ġsquall": 3537,
      "Ġmurm": 3538,
      "000": 3539,
      "Ġordinary": 3540,
      "Ġslightest": 3541,
      "Ġhorizont": 3542,
      "Ġpriv": 3543,
      "pendicular": 3544,
      "posite": 3545,
      "arently": 3546,
      "Ġhitherto": 3547,
      "Ġbillows": 3548,
      "Ġremember": 3549,
      "Ġdescend": 3550,
      "mediately": 3551,
      "aimed": 3552,
      "Ġcorner": 3553,
      "Pequod": 3554,
      "Ġemplo": 3555,
      "Ġphantom": 3556,
      "God": 3557,
      "Is": 3558,
      "Le": 3559,
      "On": 3560,
      "One": 3561,
      "cal": 3562,
      "cri": 3563,
      "ere": 3564,
      "ech": 3565,
      "fire": 3566,
      "hun": 3567,
      "iac": 3568,
      "life": 3569,
      "mate": 3570,
      "port": 3571,
      "pie": 3572,
      "sun": 3573,
      "tw": 3574,
      "Ġauthor": 3575,
      "Ġobe": 3576,
      "Ġwise": 3577,
      "Ġwife": 3578,
      "rels": 3579,
      "erick": 3580,
      "Ġbrave": 3581,
      "Ġfill": 3582,
      "Ġfiery": 3583,
      "lection": 3584,
      "Ġcoo": 3585,
      "only": 3586,
      "once": 3587,
      "anks": 3588,
      "Ġtoma": 3589,
      "Ġpad": 3590,
      "Ġpost": 3591,
      "Ġled": 3592,
      "Ġlof": 3593,
      "Ġluck": 3594,
      "Ġlung": 3595,
      "Ġlances": 3596,
      "Ġthro": 3597,
      "eter": 3598,
      "Ġseized": 3599,
      "Ġwithdra": 3600,
      "Ġrang": 3601,
      "Ġrear": 3602,
      "Ġrever": 3603,
      "Ġrequ": 3604,
      "amed": 3605,
      "Ġshud": 3606,
      "Ġshowed": 3607,
      "Ġmechan": 3608,
      "arden": 3609,
      "Ġlever": 3610,
      "apan": 3611,
      "Ġvan": 3612,
      "Ġsake": 3613,
      "Ġconve": 3614,
      "used": 3615,
      "elve": 3616,
      "perate": 3617,
      "ĠCome": 3618,
      "ĠHorn": 3619,
      "taining": 3620,
      "Ġcompre": 3621,
      "ĠMay": 3622,
      "Ġspite": 3623,
      "Ġplaces": 3624,
      "aven": 3625,
      "Ġafraid": 3626,
      "Ġroll": 3627,
      "Ġshape": 3628,
      "Ġthrown": 3629,
      "Ġflame": 3630,
      "Ġlonger": 3631,
      "Ġscuttle": 3632,
      "shma": 3633,
      "Ġeverything": 3634,
      "Ġspeed": 3635,
      "Ġsubtle": 3636,
      "Ġopened": 3637,
      "Ġsorts": 3638,
      "azing": 3639,
      "Ġwindlass": 3640,
      "Ġblacksmith": 3641,
      "Ġinches": 3642,
      "aneously": 3643,
      "ishery": 3644,
      "Ġeyeing": 3645,
      "Ġtouched": 3646,
      "Ġsatis": 3647,
      "noon": 3648,
      "Ġsounds": 3649,
      "Ġmarked": 3650,
      "Ġjolly": 3651,
      "Ġinvol": 3652,
      "Ġlowered": 3653,
      "Ġsimply": 3654,
      "Ġoccup": 3655,
      "Ġreturned": 3656,
      "umbling": 3657,
      "small": 3658,
      "ondon": 3659,
      "ology": 3660,
      "Ġsolid": 3661,
      "Ġawful": 3662,
      "retched": 3663,
      "Ġextreme": 3664,
      "Ġterrors": 3665,
      "Ġgolden": 3666,
      "Ġmodern": 3667,
      "ĠOnly": 3668,
      "Ġtempor": 3669,
      "Ġlaug": 3670,
      "Ġmagnitude": 3671,
      "Ġinvested": 3672,
      "Ġdirectly": 3673,
      "Ġidol": 3674,
      "Ġpictures": 3675,
      "Ġribs": 3676,
      "follow": 3677,
      "Ġprecisely": 3678,
      "Ġseparate": 3679,
      "Ġfoolish": 3680,
      "Ġdestro": 3681,
      "Ġexample": 3682,
      "Ġshouted": 3683,
      "Ġcannibal": 3684,
      "human": 3685,
      "ohn": 3686,
      "Ġdoubloon": 3687,
      "Ġindividual": 3688,
      "Ġtomahawk": 3689,
      "Ġlofty": 3690,
      "shmael": 3691,
      "Al": 3692,
      "By": 3693,
      "CK": 3694,
      "bel": 3695,
      "captain": 3696,
      "crew": 3697,
      "eks": 3698,
      "far": 3699,
      "first": 3700,
      "hil": 3701,
      "lim": 3702,
      "large": 3703,
      "lines": 3704,
      "mar": 3705,
      "ojo": 3706,
      "pper": 3707,
      "pair": 3708,
      "rid": 3709,
      "sperm": 3710,
      "tled": 3711,
      "towards": 3712,
      "uish": 3713,
      "xion": 3714,
      "Ġtreat": 3715,
      "Ġtorn": 3716,
      "ination": 3717,
      "Ġsway": 3718,
      "Ġsick": 3719,
      "rees": 3720,
      "has": 3721,
      "haust": 3722,
      "Ġbore": 3723,
      "Ġbag": 3724,
      "Ġbase": 3725,
      "isp": 3726,
      "eds": 3727,
      "Ġmill": 3728,
      "Ġfow": 3729,
      "Ġfield": 3730,
      "Ġfierce": 3731,
      "Ġcher": 3732,
      "Ġcool": 3733,
      "Ġcunning": 3734,
      "Ġcustom": 3735,
      "arch": 3736,
      "Ġinqu": 3737,
      "aning": 3738,
      "anch": 3739,
      "antern": 3740,
      "Ġtoss": 3741,
      "Ġhost": 3742,
      "ater": 3743,
      "Ġda": 3744,
      "Ġdiff": 3745,
      "Ġdifference": 3746,
      "Ġpir": 3747,
      "Ġpuff": 3748,
      "Ġplent": 3749,
      "Ġpuzz": 3750,
      "ution": 3751,
      "Ġhailed": 3752,
      "Ġgra": 3753,
      "Ġgame": 3754,
      "Ġgigantic": 3755,
      "Ġeat": 3756,
      "aling": 3757,
      "Ġstir": 3758,
      "Ġyonder": 3759,
      "urther": 3760,
      "âĢĶâĢĿ": 3761,
      "Ġrich": 3762,
      "ceiving": 3763,
      "ooped": 3764,
      "Ġwear": 3765,
      "Ġweary": 3766,
      "ĠSir": 3767,
      "ifting": 3768,
      "Ġnoticed": 3769,
      "think": 3770,
      "thousand": 3771,
      "Ġbutter": 3772,
      "Ġdemand": 3773,
      "abs": 3774,
      "abri": 3775,
      "Ġvibr": 3776,
      "ems": 3777,
      "anting": 3778,
      "uming": 3779,
      "ument": 3780,
      "umped": 3781,
      "outs": 3782,
      "Ġconv": 3783,
      "ussey": 3784,
      "onest": 3785,
      "Ġexcel": 3786,
      "Ġabund": 3787,
      "Ġaboard": 3788,
      "Ġspine": 3789,
      "iveness": 3790,
      "ivered": 3791,
      "Ġpole": 3792,
      "Ġponder": 3793,
      "Ġworking": 3794,
      "tell": 3795,
      "tending": 3796,
      "ĠLondon": 3797,
      "Ġrocks": 3798,
      "Ġtwelve": 3799,
      "Ġarr": 3800,
      "Ġbronze": 3801,
      "fected": 3802,
      "Ġways": 3803,
      "arble": 3804,
      "ĠWhales": 3805,
      "Ġsword": 3806,
      "Ġcrit": 3807,
      "Ġglory": 3808,
      "place": 3809,
      "Ġclim": 3810,
      "Ġmatches": 3811,
      "why": 3812,
      "prec": 3813,
      "merged": 3814,
      "Ġpreser": 3815,
      "Ġwatery": 3816,
      "Ġsubsequ": 3817,
      "Ġwindward": 3818,
      "sued": 3819,
      "Ġirons": 3820,
      "Ġmonoman": 3821,
      "oubled": 3822,
      "Ġputting": 3823,
      "Ġwrong": 3824,
      "itional": 3825,
      "iction": 3826,
      "aneous": 3827,
      "Ġpresented": 3828,
      "Ġmarks": 3829,
      "Ġretreat": 3830,
      "Ġdirection": 3831,
      "Ġvisit": 3832,
      "Ġpreviously": 3833,
      "Ġvessels": 3834,
      "Ġprecious": 3835,
      "ĠEngland": 3836,
      "Ġmadness": 3837,
      "Ġcommanded": 3838,
      "Ġsystem": 3839,
      "Ġthousands": 3840,
      "Ġquickly": 3841,
      "Ġpleasant": 3842,
      "Ġfancied": 3843,
      "Ġtrees": 3844,
      "Ġlatter": 3845,
      "Ġgallery": 3846,
      "Ġgloom": 3847,
      "Ġglobe": 3848,
      "Ġwalked": 3849,
      "Ġfatal": 3850,
      "Ġmystic": 3851,
      "Ġbarbar": 3852,
      "Ġrecogn": 3853,
      "Ġvicinity": 3854,
      "present": 3855,
      "irtue": 3856,
      "Ġstroke": 3857,
      "ĠChristian": 3858,
      "aceti": 3859,
      "Ġrapidly": 3860,
      "Ġtackles": 3861,
      "Ġlevel": 3862,
      "ĠMedical": 3863,
      "Ġgunwale": 3864,
      "uddenly": 3865,
      "Ġimmense": 3866,
      "ĠWHALE": 3867,
      "abriel": 3868,
      ".[": 3869,
      "AT": 3870,
      "Let": 3871,
      "RE": 3872,
      "Time": 3873,
      "Upon": 3874,
      "bing": 3875,
      "bow": 3876,
      "bly": 3877,
      "bet": 3878,
      "bound": 3879,
      "cceed": 3880,
      "clock": 3881,
      "dy": 3882,
      "dist": 3883,
      "fer": 3884,
      "house": 3885,
      "ien": 3886,
      "iant": 3887,
      "jest": 3888,
      "lance": 3889,
      "made": 3890,
      "nor": 3891,
      "num": 3892,
      "oke": 3893,
      "uable": 3894,
      "vious": 3895,
      "wr": 3896,
      "wind": 3897,
      "zen": 3898,
      "Ġtum": 3899,
      "Ġtest": 3900,
      "Ġson": 3901,
      "Ġsink": 3902,
      "Ġsitting": 3903,
      "Ġwid": 3904,
      "erv": 3905,
      "Ġbent": 3906,
      "Ġbless": 3907,
      "Ġbare": 3908,
      "Ġburn": 3909,
      "ision": 3910,
      "ister": 3911,
      "Ġmould": 3912,
      "Ġmeth": 3913,
      "Ġfer": 3914,
      "Ġfate": 3915,
      "Ġfath": 3916,
      "Ġfoul": 3917,
      "Ġfingers": 3918,
      "lee": 3919,
      "Ġcong": 3920,
      "Ġcause": 3921,
      "armed": 3922,
      "arger": 3923,
      "Ġinex": 3924,
      "anwhile": 3925,
      "Ġhous": 3926,
      "attered": 3927,
      "Ġdat": 3928,
      "Ġdil": 3929,
      "Ġdare": 3930,
      "Ġdignity": 3931,
      "Ġpot": 3932,
      "Ġpay": 3933,
      "Ġpair": 3934,
      "omen": 3935,
      "asing": 3936,
      "Ġbecom": 3937,
      "Ġeh": 3938,
      "Ġeff": 3939,
      "otted": 3940,
      "idn": 3941,
      "ett": 3942,
      "etic": 3943,
      "iring": 3944,
      "Ġseason": 3945,
      "urch": 3946,
      "Ġris": 3947,
      "Ġrain": 3948,
      "Ġrag": 3949,
      "Ġrate": 3950,
      "Ġwhir": 3951,
      "Ġreck": 3952,
      "ceive": 3953,
      "oop": 3954,
      "ooping": 3955,
      "ilby": 3956,
      "Ġweap": 3957,
      "terr": 3958,
      "Ġsucceed": 3959,
      "Ġmeat": 3960,
      "Ġmeant": 3961,
      "Ġvac": 3962,
      "ctic": 3963,
      "rair": 3964,
      "ĠPro": 3965,
      "Ġunaccount": 3966,
      "Ġunivers": 3967,
      "istence": 3968,
      "ĠHussey": 3969,
      "Ġaband": 3970,
      "Ġjump": 3971,
      "ĠFast": 3972,
      "Ġdoing": 3973,
      "Ġshipmates": 3974,
      "ĠStand": 3975,
      "Ġplank": 3976,
      "Ġstrain": 3977,
      "icks": 3978,
      "icken": 3979,
      "bell": 3980,
      "bered": 3981,
      "Ġarch": 3982,
      "ĠGu": 3983,
      "ĠGerman": 3984,
      "Ġamber": 3985,
      "Ġbring": 3986,
      "Ġgrim": 3987,
      "Ġgrown": 3988,
      "Ġflames": 3989,
      "Ġperfect": 3990,
      "Ġperceived": 3991,
      "Ġimper": 3992,
      "Ġimpossible": 3993,
      "Ġscrew": 3994,
      "Ġglad": 3995,
      "Ġremo": 3996,
      "Ġremote": 3997,
      "Ġshoulder": 3998,
      "Ġprot": 3999,
      "Ġpray": 4000,
      "Ġcontent": 4001,
      "ĠYojo": 4002,
      "Ġsunset": 4003,
      "command": 4004,
      "Ġenter": 4005,
      "Ġopposite": 4006,
      "Ġsurv": 4007,
      "Ġsurround": 4008,
      "ĠThus": 4009,
      "Ġheavens": 4010,
      "mbol": 4011,
      "Ġhorrible": 4012,
      "scr": 4013,
      "Ġburning": 4014,
      "Ġcalcul": 4015,
      "Ġchanced": 4016,
      "Ġfloated": 4017,
      "Ġopening": 4018,
      "Ġnameless": 4019,
      "ĠAtlantic": 4020,
      "Ġsupposed": 4021,
      "cript": 4022,
      "Ġattached": 4023,
      "Ġreturn": 4024,
      "Ġsnat": 4025,
      "Ġwanted": 4026,
      "Ġcolor": 4027,
      "Ġcontinually": 4028,
      "Ġcareful": 4029,
      "Ġadvance": 4030,
      "black": 4031,
      "Ġsymbol": 4032,
      "allen": 4033,
      "Ġsuperior": 4034,
      "Ġsilence": 4035,
      "Ġgentleman": 4036,
      "Ġfairly": 4037,
      "Ġsixty": 4038,
      "Ġgaze": 4039,
      "Ġobserved": 4040,
      "Ġconduct": 4041,
      "Ġrevealed": 4042,
      "Ġchildren": 4043,
      "Ġchiefly": 4044,
      "Ġsalt": 4045,
      "Ġoriginally": 4046,
      "Ġfurnished": 4047,
      "Ġdescried": 4048,
      "Ġfalling": 4049,
      "Ġpicture": 4050,
      "Ġcaptured": 4051,
      "ĠPerth": 4052,
      "Ġimmortal": 4053,
      "Ġimportant": 4054,
      "Ġsilver": 4055,
      "contin": 4056,
      "Ġhistory": 4057,
      "Ġrevol": 4058,
      "iloso": 4059,
      "Ġmemory": 4060,
      "Ġhorror": 4061,
      "orpoise": 4062,
      "Ġposition": 4063,
      "ĠEditor": 4064,
      "Ġlaughed": 4065,
      "AL": 4066,
      "Boy": 4067,
      "EL": 4068,
      "Se": 4069,
      "Some": 4070,
      "Ste": 4071,
      "bid": 4072,
      "clo": 4073,
      "called": 4074,
      "eye": 4075,
      "ford": 4076,
      "gall": 4077,
      "giv": 4078,
      "hood": 4079,
      "ikes": 4080,
      "jah": 4081,
      "ker": 4082,
      "mis": 4083,
      "moment": 4084,
      "oa": 4085,
      "oc": 4086,
      "uce": 4087,
      "uel": 4088,
      "uction": 4089,
      "vas": 4090,
      "Ġess": 4091,
      "Ġast": 4092,
      "ina": 4093,
      "inal": 4094,
      "Ġwont": 4095,
      "hast": 4096,
      "erial": 4097,
      "ergy": 4098,
      "Ġber": 4099,
      "Ġbid": 4100,
      "edford": 4101,
      "itive": 4102,
      "Ġmort": 4103,
      "Ġfinger": 4104,
      "leet": 4105,
      "lected": 4106,
      "ork": 4107,
      "orge": 4108,
      "llous": 4109,
      "Ġinch": 4110,
      "Ġincl": 4111,
      "Ġincom": 4112,
      "Ġinner": 4113,
      "sters": 4114,
      "stood": 4115,
      "Ġdouble": 4116,
      "Ġpall": 4117,
      "Ġpill": 4118,
      "Ġpaused": 4119,
      "Ġlangu": 4120,
      "Ġnaked": 4121,
      "Ġthither": 4122,
      "ĠIshmael": 4123,
      "uted": 4124,
      "Ġhall": 4125,
      "Ġhaul": 4126,
      "Ġhabit": 4127,
      "Ġbell": 4128,
      "Ġge": 4129,
      "icip": 4130,
      "icles": 4131,
      "aches": 4132,
      "Ġstor": 4133,
      "Ġstout": 4134,
      "irgin": 4135,
      "urity": 4136,
      "Ġrow": 4137,
      "Ġrum": 4138,
      "Ġrushed": 4139,
      "Ġrush": 4140,
      "Ġfort": 4141,
      "Ġforced": 4142,
      "Ġforget": 4143,
      "Ġreach": 4144,
      "ools": 4145,
      "ands": 4146,
      "ĠAND": 4147,
      "Ġsocial": 4148,
      "Ġsug": 4149,
      "Ġshook": 4150,
      "Ġfrantic": 4151,
      "Ġupwards": 4152,
      "ipp": 4153,
      "Ġdeal": 4154,
      "aph": 4155,
      "aping": 4156,
      "ĠBedford": 4157,
      "Ġvivid": 4158,
      "Ġboiling": 4159,
      "Ġlived": 4160,
      "pointed": 4161,
      "perhaps": 4162,
      "Ġunus": 4163,
      "istic": 4164,
      "ĠHa": 4165,
      "aks": 4166,
      "acks": 4167,
      "idered": 4168,
      "Ġages": 4169,
      "ilent": 4170,
      "ĠNature": 4171,
      "avo": 4172,
      "tended": 4173,
      "Ġtrunk": 4174,
      "Ġrolls": 4175,
      "ĠGree": 4176,
      "Ġbrother": 4177,
      "Ġflood": 4178,
      "pleasant": 4179,
      "new": 4180,
      "ĠOf": 4181,
      "ĠOr": 4182,
      "Ġprey": 4183,
      "orded": 4184,
      "Ġscient": 4185,
      "Ġslow": 4186,
      "Ġslid": 4187,
      "lijah": 4188,
      "ĠEven": 4189,
      "Ġswinging": 4190,
      "Ġglided": 4191,
      "Ġremind": 4192,
      "Ġfoe": 4193,
      "Ġspect": 4194,
      "ĠJapan": 4195,
      "Ġprow": 4196,
      "Ġprincip": 4197,
      "Ġknowing": 4198,
      "Ġinstinct": 4199,
      "Ġlighted": 4200,
      "Ġcarries": 4201,
      "Ġendless": 4202,
      "Ġsteward": 4203,
      "Ġwinds": 4204,
      "super": 4205,
      "suff": 4206,
      "cience": 4207,
      "Ġsought": 4208,
      "Ġheaving": 4209,
      "Ġsetting": 4210,
      "Ġdrink": 4211,
      "anean": 4212,
      "Ġcaptains": 4213,
      "ultaneously": 4214,
      "Ġclean": 4215,
      "Ġbushes": 4216,
      "Ġspouts": 4217,
      "ravelling": 4218,
      "Ġattention": 4219,
      "Ġattempt": 4220,
      "ios": 4221,
      "Ġlowering": 4222,
      "Ġhunted": 4223,
      "Ġresolved": 4224,
      "Ġfamiliar": 4225,
      "clude": 4226,
      "Ġsecure": 4227,
      "Ġclosely": 4228,
      "Ġsolitary": 4229,
      "Ġadvancing": 4230,
      "Ġoarsmen": 4231,
      "Ġconfident": 4232,
      "Ġappeared": 4233,
      "Ġmerchant": 4234,
      "Ġcasks": 4235,
      "Ġmurder": 4236,
      "Ġfriends": 4237,
      "Ġsteadily": 4238,
      "voc": 4239,
      "Ġcrossing": 4240,
      "Ġdragged": 4241,
      "Ġbuoy": 4242,
      "Ġevinced": 4243,
      "Ġequal": 4244,
      "ĠDeath": 4245,
      "Ġdiscovered": 4246,
      "Ġmariner": 4247,
      "against": 4248,
      "Ġofficers": 4249,
      "Ġmusk": 4250,
      "Ġencounter": 4251,
      "Ġevents": 4252,
      "innacle": 4253,
      "Ġschool": 4254,
      "Ġhanging": 4255,
      "Ġviolently": 4256,
      "OOK": 4257,
      "Ġperilous": 4258,
      "Ġanchor": 4259,
      "Ġremarkable": 4260,
      "Ġpedest": 4261,
      "Ġdisappeared": 4262,
      "Ġprodigious": 4263,
      "Ġhorizontal": 4264,
      "Ġlungs": 4265,
      "Ġplenty": 4266,
      "Ġscientific": 4267,
      "Sir": 4268,
      "_),": 4269,
      "ax": 4270,
      "bur": 4271,
      "cried": 4272,
      "dep": 4273,
      "dling": 4274,
      "dark": 4275,
      "east": 4276,
      "fat": 4277,
      "fric": 4278,
      "iot": 4279,
      "joy": 4280,
      "low": 4281,
      "lted": 4282,
      "liness": 4283,
      "morning": 4284,
      "os": 4285,
      "rising": 4286,
      "take": 4287,
      "uated": 4288,
      "uvi": 4289,
      "vation": 4290,
      "wood": 4291,
      "ĠQue": 4292,
      "Ġtun": 4293,
      "heart": 4294,
      "hearted": 4295,
      "inous": 4296,
      "Ġsize": 4297,
      "Ġwed": 4298,
      "Ġwish": 4299,
      "Ġwreck": 4300,
      "requ": 4301,
      "hal": 4302,
      "nds": 4303,
      "Ġbab": 4304,
      "Ġbucket": 4305,
      "Ġbinnacle": 4306,
      "isto": 4307,
      "Ġfet": 4308,
      "Ġfail": 4309,
      "Ġfather": 4310,
      "Ġfiend": 4311,
      "lets": 4312,
      "Ġcity": 4313,
      "Ġcounter": 4314,
      "enance": 4315,
      "orious": 4316,
      "oratory": 4317,
      "sto": 4318,
      "ann": 4319,
      "Ġtoil": 4320,
      "Ġdry": 4321,
      "Ġdying": 4322,
      "Ġdumb": 4323,
      "Ġdawn": 4324,
      "Ġpains": 4325,
      "Ġlantern": 4326,
      "Ġlarger": 4327,
      "asp": 4328,
      "ashes": 4329,
      "Ġnur": 4330,
      "Ġnav": 4331,
      "Ġthine": 4332,
      "Ġhemp": 4333,
      "Ġbeef": 4334,
      "Ġbeheld": 4335,
      "Ġgay": 4336,
      "Ġgest": 4337,
      "ici": 4338,
      "icious": 4339,
      "icted": 4340,
      "otch": 4341,
      "alth": 4342,
      "acher": 4343,
      "achel": 4344,
      "verted": 4345,
      "Ġstat": 4346,
      "Ġstiff": 4347,
      "Ġstarboard": 4348,
      "Ġseven": 4349,
      "Ġashes": 4350,
      "Ġassu": 4351,
      "Ġasked": 4352,
      "Ġrail": 4353,
      "Ġforgot": 4354,
      "Ġreser": 4355,
      "Ġresemb": 4356,
      "oops": 4357,
      "ament": 4358,
      "ights": 4359,
      "ĠAb": 4360,
      "ĠAd": 4361,
      "chief": 4362,
      "ĠSam": 4363,
      "illy": 4364,
      "rope": 4365,
      "astic": 4366,
      "ifying": 4367,
      "Ġsuck": 4368,
      "Ġfrag": 4369,
      "pected": 4370,
      "peculiar": 4371,
      "geon": 4372,
      "apt": 4373,
      "ĠBr": 4374,
      "Ġvent": 4375,
      "Ġsafe": 4376,
      "ĠWill": 4377,
      "ounded": 4378,
      "Ġconsequ": 4379,
      "ĠThese": 4380,
      "poor": 4381,
      "Ġuncons": 4382,
      "Ġunseen": 4383,
      "locity": 4384,
      "ĠCha": 4385,
      "Ġnoon": 4386,
      "Ġexh": 4387,
      "Ġcomb": 4388,
      "Ġcomr": 4389,
      "Ġsport": 4390,
      "Ġwhence": 4391,
      "Ġdoom": 4392,
      "Ġpointing": 4393,
      "ndering": 4394,
      "Ġstrugg": 4395,
      "Ġtranqu": 4396,
      "Ġtroubled": 4397,
      "Ġproved": 4398,
      "arest": 4399,
      "ĠGabriel": 4400,
      "Ġcanvas": 4401,
      "irectly": 4402,
      "Ġthrow": 4403,
      "fell": 4404,
      "!âĢĿâĢĶ": 4405,
      "Ġgreater": 4406,
      "Ġperpendicular": 4407,
      "Ġencount": 4408,
      "Ġscor": 4409,
      "Ġourselves": 4410,
      "Ġglimp": 4411,
      "Ġchair": 4412,
      "Ġowners": 4413,
      "mented": 4414,
      "ĠRam": 4415,
      "ĠRoman": 4416,
      "form": 4417,
      "ernal": 4418,
      "Ġobsc": 4419,
      "pressed": 4420,
      "Ġbegin": 4421,
      "box": 4422,
      "Ġopinion": 4423,
      "Ġdisting": 4424,
      "Ġpassion": 4425,
      "Ġwindow": 4426,
      "Ġappre": 4427,
      "strous": 4428,
      "ounced": 4429,
      "Ġwhalers": 4430,
      "Ġmonkey": 4431,
      "ugged": 4432,
      "Ġminds": 4433,
      "Ġnative": 4434,
      "Ġnaturally": 4435,
      "Ġhelped": 4436,
      "Ġquest": 4437,
      "Ġinstantly": 4438,
      "Ġcapst": 4439,
      "Ġresting": 4440,
      "Ġinvisible": 4441,
      "Ġinvari": 4442,
      "Ġsigns": 4443,
      "Ġpoints": 4444,
      "lerable": 4445,
      "Ġsimple": 4446,
      "Ġsimultaneously": 4447,
      "Ġearthly": 4448,
      "Thou": 4449,
      "ĠUn": 4450,
      "ĠUpon": 4451,
      "Ġverd": 4452,
      "phinx": 4453,
      "Ġfamily": 4454,
      "standing": 4455,
      "Ġcentral": 4456,
      "Ġdimens": 4457,
      "Ġpulled": 4458,
      "Ġcontinued": 4459,
      "Ġmissing": 4460,
      "Ġcarefully": 4461,
      "Ġdevils": 4462,
      "Ġspecial": 4463,
      "Ġcalmly": 4464,
      "Ġinfer": 4465,
      "Ġsuperstit": 4466,
      "Ġundul": 4467,
      "watch": 4468,
      "whole": 4469,
      "Ġfrost": 4470,
      "gypt": 4471,
      "Ġdeparted": 4472,
      "Ġdeterm": 4473,
      "Ġbitter": 4474,
      "Ġfreely": 4475,
      "Ġlimbs": 4476,
      "Ġsummer": 4477,
      "Ġvelocity": 4478,
      "Ġdescri": 4479,
      "Ġcarrying": 4480,
      "Ġbird": 4481,
      "Ġislands": 4482,
      "attoo": 4483,
      "Ġnarrow": 4484,
      "Ġstopped": 4485,
      "Ġcapture": 4486,
      "_).": 4487,
      "Ġengaged": 4488,
      "ING": 4489,
      "Ġmounted": 4490,
      "Ġdeclared": 4491,
      "Ġbeauty": 4492,
      "Ġbeautiful": 4493,
      "Ġarrived": 4494,
      "Ġmarvellous": 4495,
      "Ġwrinkled": 4496,
      "Ġtravel": 4497,
      "Ġtongue": 4498,
      "Ġprobably": 4499,
      "Ġoccurred": 4500,
      "Ġmajest": 4501,
      "Ġsuccess": 4502,
      "Ġsurprise": 4503,
      "Ġelephant": 4504,
      "Ġfrequently": 4505,
      "Ġprepared": 4506,
      "Ġinserted": 4507,
      "Ġhideous": 4508,
      "Ġlonely": 4509,
      "Ġemployed": 4510,
      "Ġexcellent": 4511,
      "Ġunaccountable": 4512,
      "Ġencountered": 4513,
      "Ġglimpse": 4514,
      "BOOK": 4515,
      "CH": 4516,
      "Come": 4517,
      "De": 4518,
      "Do": 4519,
      "HT": 4520,
      "His": 4521,
      "IC": 4522,
      "Mo": 4523,
      "Nantucket": 4524,
      "Of": 4525,
      "QU": 4526,
      "Re": 4527,
      "aver": 4528,
      "bar": 4529,
      "bul": 4530,
      "cor": 4531,
      "cabin": 4532,
      "dr": 4533,
      "ees": 4534,
      "four": 4535,
      "gen": 4536,
      "gly": 4537,
      "gment": 4538,
      "gener": 4539,
      "ggy": 4540,
      "hill": 4541,
      "kers": 4542,
      "lings": 4543,
      "may": 4544,
      "mist": 4545,
      "mitted": 4546,
      "morrow": 4547,
      "olent": 4548,
      "pic": 4549,
      "pid": 4550,
      "pur": 4551,
      "sim": 4552,
      "say": 4553,
      "sion": 4554,
      "shar": 4555,
      "said": 4556,
      "Ġz": 4557,
      "Ġident": 4558,
      "Ġerr": 4559,
      "Ġtar": 4560,
      "Ġain": 4561,
      "inte": 4562,
      "Ġsac": 4563,
      "Ġsank": 4564,
      "Ġwing": 4565,
      "Ġwore": 4566,
      "Ġwine": 4567,
      "Ġwhar": 4568,
      "rene": 4569,
      "happ": 4570,
      "Ġbuck": 4571,
      "Ġbench": 4572,
      "itality": 4573,
      "Ġmor": 4574,
      "Ġmult": 4575,
      "Ġmarble": 4576,
      "ouching": 4577,
      "Ġcred": 4578,
      "Ġcub": 4579,
      "Ġcord": 4580,
      "Ġcoward": 4581,
      "oning": 4582,
      "enge": 4583,
      "orse": 4584,
      "ste": 4585,
      "stic": 4586,
      "aned": 4587,
      "another": 4588,
      "Ġhit": 4589,
      "Ġhonest": 4590,
      "Ġpred": 4591,
      "Ġpub": 4592,
      "Ġpath": 4593,
      "Ġpiled": 4594,
      "Ġpumps": 4595,
      "Ġprair": 4596,
      "Ġlist": 4597,
      "Ġlod": 4598,
      "Ġlifted": 4599,
      "Ġnay": 4600,
      "Ġnerv": 4601,
      "Ġthread": 4602,
      "ĠII": 4603,
      "Ġheel": 4604,
      "Ġheave": 4605,
      "Ġbears": 4606,
      "Ġgently": 4607,
      "Ġgarden": 4608,
      "Ġeating": 4609,
      "adually": 4610,
      "aye": 4611,
      "Ġserene": 4612,
      "uries": 4613,
      "Ġforce": 4614,
      "ceans": 4615,
      "kest": 4616,
      "keep": 4617,
      "Ġwest": 4618,
      "Ġweak": 4619,
      "ighted": 4620,
      "ĠAh": 4621,
      "child": 4622,
      "Ġange": 4623,
      "ĠSha": 4624,
      "ĠSund": 4625,
      "Ġsusp": 4626,
      "Ġshut": 4627,
      "ckets": 4628,
      "pel": 4629,
      "Ġbye": 4630,
      "Ġdeemed": 4631,
      "Ġvalle": 4632,
      "Ġvirtue": 4633,
      "ember": 4634,
      "antity": 4635,
      "unic": 4636,
      "ounding": 4637,
      "Ġwheel": 4638,
      "rah": 4639,
      "usk": 4640,
      "usive": 4641,
      "Ġthereby": 4642,
      "point": 4643,
      "ĠPal": 4644,
      "ĠPres": 4645,
      "ĠPol": 4646,
      "Ġmankind": 4647,
      "loft": 4648,
      "ĠCon": 4649,
      "ĠChar": 4650,
      "ĠCHAPTER": 4651,
      "ĠHar": 4652,
      "tains": 4653,
      "respo": 4654,
      "Ġextern": 4655,
      "Ġexpect": 4656,
      "Ġexhaust": 4657,
      "Ġsplit": 4658,
      "Ġwhenever": 4659,
      "Ġdoors": 4660,
      "ishment": 4661,
      "Ġworth": 4662,
      "Ġworks": 4663,
      "ĠDel": 4664,
      "Ġtrouble": 4665,
      "Ġproble": 4666,
      "Ġprocess": 4667,
      "udge": 4668,
      "bear": 4669,
      "ĠGr": 4670,
      "Ġharm": 4671,
      "Ġholy": 4672,
      "Ġhosp": 4673,
      "Ġflat": 4674,
      "fered": 4675,
      "Ġcoll": 4676,
      "Ġcovered": 4677,
      "near": 4678,
      "Ġenchan": 4679,
      "Ġpressed": 4680,
      "Ġscattered": 4681,
      "owsers": 4682,
      "lique": 4683,
      "ĠEx": 4684,
      "Ġadvent": 4685,
      "onsider": 4686,
      "Ġclass": 4687,
      "Ġshoulders": 4688,
      "ĠJohn": 4689,
      "ensable": 4690,
      "ensity": 4691,
      "angs": 4692,
      "nothing": 4693,
      "vessel": 4694,
      "coming": 4695,
      "Ġcarved": 4696,
      "Ġconscious": 4697,
      "Ġends": 4698,
      "lands": 4699,
      "Ġcalls": 4700,
      "unger": 4701,
      "aze": 4702,
      "conf": 4703,
      "Ġcrews": 4704,
      "Ġappar": 4705,
      "Ġapparently": 4706,
      "Ġcompan": 4707,
      "gris": 4708,
      "grand": 4709,
      "Ġtiller": 4710,
      "ification": 4711,
      "Ġearly": 4712,
      "Ġwhaler": 4713,
      "Ġmonstrous": 4714,
      "Ġfeels": 4715,
      "Ġsweeping": 4716,
      "Ġterms": 4717,
      "Ġburied": 4718,
      "Ġstreets": 4719,
      "ĠVery": 4720,
      "Ġpossess": 4721,
      "Ġcraw": 4722,
      "Ġbreaking": 4723,
      "arrow": 4724,
      "Ġdropping": 4725,
      "umbers": 4726,
      "umbled": 4727,
      "Ġsnug": 4728,
      "Ġintent": 4729,
      "Though": 4730,
      "Ġactually": 4731,
      "Ġelement": 4732,
      "Ġreport": 4733,
      "Ġdimin": 4734,
      "sails": 4735,
      "Ġhappens": 4736,
      "Ġsym": 4737,
      "Ġoarsman": 4738,
      "Ġconfess": 4739,
      "Ġinfall": 4740,
      "Ġseaman": 4741,
      "ausing": 4742,
      "Ġ17": 4743,
      "Ġleaned": 4744,
      "Ġbooks": 4745,
      "Ġcrossed": 4746,
      "Ġlatitudes": 4747,
      "Ġspoken": 4748,
      "Ġpalms": 4749,
      "untarily": 4750,
      "Ġmuttered": 4751,
      "ĠSpan": 4752,
      "Ġdarting": 4753,
      "Ġleaping": 4754,
      "Ġbelonged": 4755,
      "Ġmotionless": 4756,
      "Ġembr": 4757,
      "Ġofficer": 4758,
      "Ġanticip": 4759,
      "Ġengra": 4760,
      "mediate": 4761,
      "Ġaccompan": 4762,
      "Ġmilk": 4763,
      "Ġdeliber": 4764,
      "Ġmoody": 4765,
      "Ġwrinkles": 4766,
      "Ġmentioned": 4767,
      "Ġimagine": 4768,
      "Ġclothes": 4769,
      "circum": 4770,
      "Ġcivilized": 4771,
      "Ġvapor": 4772,
      "Ġmysterious": 4773,
      "Ġtriumph": 4774,
      "earthly": 4775,
      "Ġseventy": 4776,
      "Ġconvenient": 4777,
      "Ġcomprehe": 4778,
      "ispensable": 4779,
      "Ġsubsequent": 4780,
      "between": 4781,
      "Ġfathoms": 4782,
      "Ġbecomes": 4783,
      "Ġaston": 4784,
      "Ġassured": 4785,
      "Ġapprehens": 4786,
      "Ġcapstan": 4787,
      "Ġdimensions": 4788,
      "!_": 4789,
      ");": 4790,
      "Avast": 4791,
      "Can": 4792,
      "Gr": 4793,
      "Good": 4794,
      "IG": 4795,
      "TU": 4796,
      "Very": 4797,
      "ald": 4798,
      "bows": 4799,
      "cra": 4800,
      "dri": 4801,
      "del": 4802,
      "gone": 4803,
      "good": 4804,
      "give": 4805,
      "gress": 4806,
      "hinx": 4807,
      "iance": 4808,
      "jaw": 4809,
      "kin": 4810,
      "liest": 4811,
      "mid": 4812,
      "mong": 4813,
      "mark": 4814,
      "mber": 4815,
      "running": 4816,
      "squ": 4817,
      "sort": 4818,
      "table": 4819,
      "tub": 4820,
      "tons": 4821,
      "ware": 4822,
      "wild": 4823,
      "xter": 4824,
      "zed": 4825,
      "Ġtent": 4826,
      "Ġtap": 4827,
      "Ġtraveller": 4828,
      "Ġtrop": 4829,
      "inv": 4830,
      "Ġsinking": 4831,
      "Ġoath": 4832,
      "Ġwet": 4833,
      "Ġwand": 4834,
      "Ġwicked": 4835,
      "Ġbal": 4836,
      "Ġbull": 4837,
      "Ġbale": 4838,
      "Ġblock": 4839,
      "iter": 4840,
      "ites": 4841,
      "Ġmir": 4842,
      "Ġmuff": 4843,
      "Ġmoney": 4844,
      "ouch": 4845,
      "oured": 4846,
      "Ġfood": 4847,
      "Ġcamp": 4848,
      "enes": 4849,
      "Ġinno": 4850,
      "Ġinflu": 4851,
      "Ġinfinite": 4852,
      "stre": 4853,
      "stra": 4854,
      "stantly": 4855,
      "anity": 4856,
      "Ġhoops": 4857,
      "Ġdome": 4858,
      "Ġdost": 4859,
      "Ġdull": 4860,
      "Ġdamp": 4861,
      "Ġpicked": 4862,
      "Ġling": 4863,
      "asy": 4864,
      "asons": 4865,
      "Ġnations": 4866,
      "Ġthrew": 4867,
      "Ġhes": 4868,
      "Ġhears": 4869,
      "lying": 4870,
      "imming": 4871,
      "Ġgen": 4872,
      "Ġgul": 4873,
      "Ġgained": 4874,
      "oting": 4875,
      "almed": 4876,
      "acc": 4877,
      "Ġstay": 4878,
      "Ġstag": 4879,
      "Ġstubb": 4880,
      "adv": 4881,
      "Ġyes": 4882,
      "Ġyard": 4883,
      "urs": 4884,
      "Ġasce": 4885,
      "Ġrod": 4886,
      "Ġrack": 4887,
      "Ġreaching": 4888,
      "ioned": 4889,
      "ĠTur": 4890,
      "Ġwelded": 4891,
      "ĠAfric": 4892,
      "chn": 4893,
      "ĠSphinx": 4894,
      "oreover": 4895,
      "rolling": 4896,
      "asts": 4897,
      "Ġfrig": 4898,
      "Ġnotice": 4899,
      "Ġmeas": 4900,
      "Ġmeets": 4901,
      "Ġdexter": 4902,
      "arded": 4903,
      "ability": 4904,
      "apsed": 4905,
      "Ġvenge": 4906,
      "emin": 4907,
      "umn": 4908,
      "umsy": 4909,
      "Ġconcluded": 4910,
      "Ġuncertain": 4911,
      "loat": 4912,
      "Ġneither": 4913,
      "ĠHigh": 4914,
      "Ġkings": 4915,
      "ooked": 4916,
      "Ġable": 4917,
      "Ġspl": 4918,
      "Ġsphinx": 4919,
      "ĠFilby": 4920,
      "Ġlikewise": 4921,
      "ĠStill": 4922,
      "Ġworn": 4923,
      "ibility": 4924,
      "Ġstruct": 4925,
      "Ġtrick": 4926,
      "Ġknife": 4927,
      "ĠLine": 4928,
      "Ġprove": 4929,
      "Ġdownwards": 4930,
      "Ġroared": 4931,
      "Ġshake": 4932,
      "venge": 4933,
      "Ġheadlong": 4934,
      "years": 4935,
      "Ġflour": 4936,
      "fellow": 4937,
      "fection": 4938,
      "Ġgreatest": 4939,
      "Ġcover": 4940,
      "Ġseeking": 4941,
      "necess": 4942,
      "ĠOF": 4943,
      "Ġenvelo": 4944,
      "Ġenergy": 4945,
      "Ġenjoy": 4946,
      "dest": 4947,
      "devil": 4948,
      "derer": 4949,
      "Ġafternoon": 4950,
      "Ġsliding": 4951,
      "coast": 4952,
      "ĠElijah": 4953,
      "short": 4954,
      "Ġcrack": 4955,
      "Ġglare": 4956,
      "Ġgliding": 4957,
      "placed": 4958,
      "Ġspear": 4959,
      "Ġclouds": 4960,
      "Ġwhereas": 4961,
      "igned": 4962,
      "orses": 4963,
      "Ġbacks": 4964,
      "Ġmaterial": 4965,
      "formed": 4966,
      "ials": 4967,
      "ernsey": 4968,
      "Ġprim": 4969,
      "Ġdesperate": 4970,
      "Ġknowledge": 4971,
      "Ġsunrise": 4972,
      "Ġconsidered": 4973,
      "Ġconscience": 4974,
      "Ġnights": 4975,
      "Ġaccur": 4976,
      "spir": 4977,
      "spring": 4978,
      "airs": 4979,
      "azz": 4980,
      "Ġmoments": 4981,
      "conc": 4982,
      "Ġfully": 4983,
      "Ġletters": 4984,
      "Ġsooner": 4985,
      "Ġhumor": 4986,
      "Ġmonths": 4987,
      "Ġheaved": 4988,
      "Ġbroke": 4989,
      "Ġsweep": 4990,
      "Ġcircles": 4991,
      "trans": 4992,
      "tracted": 4993,
      "Ġloss": 4994,
      "Ġindifferent": 4995,
      "Ġindirectly": 4996,
      "going": 4997,
      "Ġimpat": 4998,
      "Ġchange": 4999,
      "Ġregularly": 5000,
      "Ġwarp": 5001,
      "Ġfloats": 5002,
      "Ġnorth": 5003,
      "however": 5004,
      "open": 5005,
      "opard": 5006,
      "Ġspouting": 5007,
      "Ġcrazy": 5008,
      "Ġcorre": 5009,
      "Stand": 5010,
      "olding": 5011,
      "Ġhatch": 5012,
      "Ġlesson": 5013,
      "ivering": 5014,
      "Ġacqu": 5015,
      "Ġdrove": 5016,
      "Ġkeeping": 5017,
      "Ġerect": 5018,
      "ĠUnder": 5019,
      "Ġvert": 5020,
      "Ġcolour": 5021,
      "Ġcenturies": 5022,
      "Ġrepres": 5023,
      "ysical": 5024,
      "Ġcontinual": 5025,
      "knife": 5026,
      "Ġserv": 5027,
      "Ġinsult": 5028,
      "Ġlads": 5029,
      "allest": 5030,
      "ĠBecause": 5031,
      "Ġcountenance": 5032,
      "Ġsteadfast": 5033,
      "regation": 5034,
      "Ġmodel": 5035,
      "Ġeasily": 5036,
      "Ġnumerous": 5037,
      "Ġslightly": 5038,
      "Ġutmost": 5039,
      "Ġphren": 5040,
      "Ġphiloso": 5041,
      "Ġspray": 5042,
      "Ġdiscover": 5043,
      "Ġbreakfast": 5044,
      "Ġedge": 5045,
      "Ġleaped": 5046,
      "Ġcrowd": 5047,
      "Ġbirds": 5048,
      "Ġmystery": 5049,
      "Ġfigures": 5050,
      "Ġleading": 5051,
      "Ġadmit": 5052,
      "Ġmeeting": 5053,
      "Ġbursting": 5054,
      "Ġboldly": 5055,
      "Ġexclam": 5056,
      "Ġapproaching": 5057,
      "Ġwhispered": 5058,
      "Ġconceit": 5059,
      "Ġcourage": 5060,
      "Ġvigil": 5061,
      "Ġincredible": 5062,
      "Ġcorpse": 5063,
      "Ġappearance": 5064,
      "Ġbeside": 5065,
      "Ġdangerous": 5066,
      "buoy": 5067,
      "Ġpractical": 5068,
      "Ġintelligence": 5069,
      "harpooneer": 5070,
      "broken": 5071,
      "Ġabsolutely": 5072,
      "Ġfeatures": 5073,
      "Ġelevated": 5074,
      "Ġmurmured": 5075,
      "Ġprivate": 5076,
      "Ġoccupied": 5077,
      "Ġdestroyed": 5078,
      "Ġcustomary": 5079,
      "Ġdaily": 5080,
      "Ġabundant": 5081,
      "Ġponderous": 5082,
      "Ġcritical": 5083,
      "precise": 5084,
      "Ġmonomaniac": 5085,
      "Ġtumult": 5086,
      "Ġmethod": 5087,
      "Ġhouses": 5088,
      "Ġremoved": 5089,
      "given": 5090,
      "Ġsuggest": 5091,
      "Ġpedestal": 5092,
      "uvier": 5093,
      "ĠQueen": 5094,
      "ĠRamad": 5095,
      "Ġdetermined": 5096,
      "Moby": 5097,
      "Ġprairie": 5098,
      "Ġexternal": 5099,
      "Ġenchanted": 5100,
      "AM": 5101,
      "An": 5102,
      "CX": 5103,
      "CXX": 5104,
      "EN": 5105,
      "ES": 5106,
      "First": 5107,
      "Green": 5108,
      "IR": 5109,
      "Nevertheless": 5110,
      "OW": 5111,
      "Post": 5112,
      "_;": 5113,
      "aly": 5114,
      "ault": 5115,
      "bors": 5116,
      "cap": 5117,
      "case": 5118,
      "char": 5119,
      "civil": 5120,
      "een": 5121,
      "eyes": 5122,
      "fr": 5123,
      "five": 5124,
      "gling": 5125,
      "iam": 5126,
      "lay": 5127,
      "live": 5128,
      "lifted": 5129,
      "mouth": 5130,
      "occ": 5131,
      "pat": 5132,
      "rim": 5133,
      "rance": 5134,
      "son": 5135,
      "shad": 5136,
      "tem": 5137,
      "try": 5138,
      "times": 5139,
      "ule": 5140,
      "uished": 5141,
      "vings": 5142,
      "voyage": 5143,
      "ws": 5144,
      "wed": 5145,
      "went": 5146,
      "wond": 5147,
      "wreck": 5148,
      "whether": 5149,
      "whaling": 5150,
      "xman": 5151,
      "yram": 5152,
      "ĠZ": 5153,
      "ĠXXX": 5154,
      "Ġtight": 5155,
      "Ġtig": 5156,
      "Ġtied": 5157,
      "Ġtamb": 5158,
      "Ġtaste": 5159,
      "Ġtattoo": 5160,
      "hew": 5161,
      "heard": 5162,
      "hemat": 5163,
      "Ġax": 5164,
      "Ġawe": 5165,
      "inf": 5166,
      "Ġsin": 5167,
      "Ġsor": 5168,
      "Ġsque": 5169,
      "Ġomn": 5170,
      "Ġought": 5171,
      "Ġwoman": 5172,
      "erc": 5173,
      "Ġbars": 5174,
      "isation": 5175,
      "Ġmag": 5176,
      "Ġmile": 5177,
      "outer": 5178,
      "ouded": 5179,
      "leam": 5180,
      "length": 5181,
      "lephan": 5182,
      "Ġchat": 5183,
      "Ġcup": 5184,
      "Ġcask": 5185,
      "Ġcrest": 5186,
      "Ġcaused": 5187,
      "orne": 5188,
      "arwhale": 5189,
      "Ġinvent": 5190,
      "Ġinscr": 5191,
      "sts": 5192,
      "anes": 5193,
      "anim": 5194,
      "Ġtooth": 5195,
      "Ġtoken": 5196,
      "Ġtomb": 5197,
      "Ġtowing": 5198,
      "Ġhue": 5199,
      "Ġhorses": 5200,
      "atively": 5201,
      "athered": 5202,
      "Ġdish": 5203,
      "Ġdense": 5204,
      "Ġpace": 5205,
      "Ġpity": 5206,
      "Ġpure": 5207,
      "Ġpowder": 5208,
      "Ġpagan": 5209,
      "Ġpapers": 5210,
      "Ġlip": 5211,
      "omy": 5212,
      "omical": 5213,
      "ases": 5214,
      "Ġnail": 5215,
      "Ġnamed": 5216,
      "Ġthreat": 5217,
      "ĠIN": 5218,
      "utable": 5219,
      "Ġhell": 5220,
      "Ġhero": 5221,
      "ima": 5222,
      "Ġga": 5223,
      "Ġgain": 5224,
      "sec": 5225,
      "seem": 5226,
      "seus": 5227,
      "sevent": 5228,
      "icient": 5229,
      "Ġease": 5230,
      "ott": 5231,
      "along": 5232,
      "eted": 5233,
      "etology": 5234,
      "ader": 5235,
      "Ġask": 5236,
      "âĢĶ_": 5237,
      "âĢĶâĢĺ": 5238,
      "Ġrushing": 5239,
      "Ġforms": 5240,
      "Ġforming": 5241,
      "Ġrepose": 5242,
      "Ġreference": 5243,
      "Ġreasons": 5244,
      "Ġisles": 5245,
      "oored": 5246,
      "ĠTun": 5247,
      "ĠTake": 5248,
      "ilight": 5249,
      "ilities": 5250,
      "Ġwel": 5251,
      "ama": 5252,
      "amped": 5253,
      "Ġanat": 5254,
      "road": 5255,
      "ify": 5256,
      "Ġshrie": 5257,
      "Ġshivered": 5258,
      "thus": 5259,
      "Ġupright": 5260,
      "Ġdear": 5261,
      "Ġdemon": 5262,
      "abled": 5263,
      "aper": 5264,
      "ĠBur": 5265,
      "ĠBible": 5266,
      "ĠWest": 5267,
      "ĠWhether": 5268,
      "Ġorgan": 5269,
      "Ġboots": 5270,
      "ostr": 5271,
      "usiness": 5272,
      "ellect": 5273,
      "pol": 5274,
      "pole": 5275,
      "Ġunre": 5276,
      "Ġunearthly": 5277,
      "ĠCr": 5278,
      "ĠCar": 5279,
      "ĠCuvier": 5280,
      "Ġneigh": 5281,
      "ĠHad": 5282,
      "Ġtheirs": 5283,
      "Ġfeeding": 5284,
      "Ġexplain": 5285,
      "Ġexistence": 5286,
      "ooks": 5287,
      "Ġsplin": 5288,
      "agon": 5289,
      "agues": 5290,
      "Ġjer": 5291,
      "Ġjun": 5292,
      "ĠFishery": 5293,
      "Ġdoll": 5294,
      "Ġshipmate": 5295,
      "ivity": 5296,
      "Ġplum": 5297,
      "ĠDough": 5298,
      "ĠDerick": 5299,
      "Ġstrip": 5300,
      "Ġtrace": 5301,
      "Ġtrowsers": 5302,
      "ours": 5303,
      "ourine": 5304,
      "ournal": 5305,
      "Ġherd": 5306,
      "lingly": 5307,
      "behind": 5308,
      "Ġdownward": 5309,
      "Ġhandle": 5310,
      "Ġtwice": 5311,
      "Ġtwisted": 5312,
      "Ġanywhere": 5313,
      "ĠGe": 5314,
      "ĠGo": 5315,
      "ĠGood": 5316,
      "ĠGreat": 5317,
      "Ġcanoe": 5318,
      "Ġamount": 5319,
      "Ġbrown": 5320,
      "Ġgrace": 5321,
      "many": 5322,
      "Ġflung": 5323,
      "Ġflank": 5324,
      "Ġwatched": 5325,
      "Ġusual": 5326,
      "Ġpartly": 5327,
      "Ġseek": 5328,
      "Ġimage": 5329,
      "neez": 5330,
      "ordingly": 5331,
      "Ġslain": 5332,
      "Ġslipped": 5333,
      "Ġquad": 5334,
      "Ġquantity": 5335,
      "ĠEur": 5336,
      "Ġpeep": 5337,
      "Ġglist": 5338,
      "Ġremorse": 5339,
      "Ġfold": 5340,
      "Ġfoss": 5341,
      "Ġspell": 5342,
      "Ġclumsy": 5343,
      "Ġbackward": 5344,
      "Ġcontem": 5345,
      "Ġkey": 5346,
      "Ġdespair": 5347,
      "Ġobvious": 5348,
      "Ġoblique": 5349,
      "Ġpresence": 5350,
      "within": 5351,
      "comple": 5352,
      "Ġthinks": 5353,
      "Ġende": 5354,
      "Ġlanded": 5355,
      "supp": 5356,
      "Ġinterior": 5357,
      "Ġcurrent": 5358,
      "Ġappalling": 5359,
      "Ġirres": 5360,
      "ĠWhile": 5361,
      "Ġsouth": 5362,
      "ouncing": 5363,
      "Ġsettled": 5364,
      "Ġtechn": 5365,
      "true": 5366,
      "Ġsights": 5367,
      "Ġloaded": 5368,
      "Ġburnt": 5369,
      "Ġstreet": 5370,
      "Ġclosed": 5371,
      "ĠNantucketers": 5372,
      "sterday": 5373,
      "Ġspermaceti": 5374,
      "uffalo": 5375,
      "Ġvoyages": 5376,
      "Ġcaps": 5377,
      "Ġnews": 5378,
      "myself": 5379,
      "Ġsounding": 5380,
      "Ġreadily": 5381,
      "cru": 5382,
      "Ġwoods": 5383,
      "Ġattack": 5384,
      "Ġsinging": 5385,
      "ĠIndeed": 5386,
      "Thus": 5387,
      "Ġfearful": 5388,
      "Ġverte": 5389,
      "Ġsecured": 5390,
      "Ġreplied": 5391,
      "Ġvoices": 5392,
      "identally": 5393,
      "iety": 5394,
      "Ġadvanced": 5395,
      "fortable": 5396,
      "Ġextra": 5397,
      "Ġextrem": 5398,
      "Ġladies": 5399,
      "holding": 5400,
      "Ġterrific": 5401,
      "Ġstartled": 5402,
      "iffs": 5403,
      "Ġwait": 5404,
      "Ġwaif": 5405,
      "Ġwaist": 5406,
      "Ġrefuge": 5407,
      "Ġfleet": 5408,
      "ĠMrs": 5409,
      "Ġrelieved": 5410,
      "Ġcruel": 5411,
      "Ġtempest": 5412,
      "Ġwalls": 5413,
      "Ġlatitude": 5414,
      "Ġbarrels": 5415,
      "Ġcontrary": 5416,
      "Ġequator": 5417,
      "Ġcatch": 5418,
      "Ġsummit": 5419,
      "Ġsprang": 5420,
      "Ġdiscovery": 5421,
      "Ġedd": 5422,
      "Ġproceeded": 5423,
      "Ġsilently": 5424,
      "Ġlovely": 5425,
      "Ġnarrative": 5426,
      "position": 5427,
      "Ġpainted": 5428,
      "Ġstopping": 5429,
      "Ġremaining": 5430,
      "Ġadmir": 5431,
      "ĠXL": 5432,
      "celain": 5433,
      "oresby": 5434,
      "Ġexperience": 5435,
      "Ġremembered": 5436,
      "_).âĢĶ": 5437,
      "Ġjudged": 5438,
      "Ġexclaimed": 5439,
      "Ġsadly": 5440,
      "Ġaccompl": 5441,
      "Ġoccasionally": 5442,
      "ĠQuaker": 5443,
      "Ġexpression": 5444,
      "Ġlaughing": 5445,
      "ISH": 5446,
      "Ġsmells": 5447,
      "Ġfirmly": 5448,
      "Ġtimid": 5449,
      "Ġlocked": 5450,
      "Ġconnected": 5451,
      "Ġutterly": 5452,
      "Ġimpression": 5453,
      "Ġimpressions": 5454,
      "Ġignorance": 5455,
      "batross": 5456,
      "Ġpiece": 5457,
      "Ġpieces": 5458,
      "Ġblanket": 5459,
      "Ġprojecting": 5460,
      "ypho": 5461,
      "Ġjeopard": 5462,
      "Ġdeserted": 5463,
      "Ġpulpit": 5464,
      "Ġsullen": 5465,
      "lossal": 5466,
      "Ġmillions": 5467,
      "Ġbarbaric": 5468,
      "ienced": 5469,
      "Ġuniversal": 5470,
      "ĠGuernsey": 5471,
      "Ġambergris": 5472,
      "Ġmortals": 5473,
      "Ġunusual": 5474,
      "ĠGreek": 5475,
      "iosity": 5476,
      "Ġforgotten": 5477,
      "Ġexhib": 5478,
      "ĠPalace": 5479,
      "ĠPresently": 5480,
      "ĠPolar": 5481,
      "IGHT": 5482,
      "Ġcamphor": 5483,
      "Ġstructure": 5484,
      "yramid": 5485,
      "Ġtambourine": 5486,
      "AC": 5487,
      "Americ": 5488,
      "EE": 5489,
      "Go": 5490,
      "LX": 5491,
      "LXX": 5492,
      "Like": 5493,
      "LXXX": 5494,
      "Man": 5495,
      "OD": 5496,
      "OU": 5497,
      "Per": 5498,
      "Right": 5499,
      "Such": 5500,
      "TA": 5501,
      "TH": 5502,
      "Take": 5503,
      "XL": 5504,
      "ball": 5505,
      "bast": 5506,
      "bol": 5507,
      "both": 5508,
      "bably": 5509,
      "bowed": 5510,
      "bbed": 5511,
      "business": 5512,
      "div": 5513,
      "dering": 5514,
      "ec": 5515,
      "eal": 5516,
      "eff": 5517,
      "fold": 5518,
      "gu": 5519,
      "gar": 5520,
      "hy": 5521,
      "iqu": 5522,
      "iences": 5523,
      "lab": 5524,
      "living": 5525,
      "mi": 5526,
      "mir": 5527,
      "mad": 5528,
      "mur": 5529,
      "main": 5530,
      "mel": 5531,
      "mortal": 5532,
      "magn": 5533,
      "opp": 5534,
      "pher": 5535,
      "pted": 5536,
      "pipe": 5537,
      "sight": 5538,
      "sign": 5539,
      "spre": 5540,
      "taking": 5541,
      "turned": 5542,
      "trees": 5543,
      "uv": 5544,
      "uss": 5545,
      "uits": 5546,
      "vances": 5547,
      "ĠXX": 5548,
      "Ġty": 5549,
      "hest": 5550,
      "Ġaud": 5551,
      "Ġaught": 5552,
      "ino": 5553,
      "Ġtheory": 5554,
      "Ġsand": 5555,
      "Ġox": 5556,
      "Ġoceans": 5557,
      "Ġwren": 5558,
      "Ġwomen": 5559,
      "erity": 5560,
      "Ġbun": 5561,
      "Ġbank": 5562,
      "Ġbrief": 5563,
      "ishes": 5564,
      "iti": 5565,
      "itled": 5566,
      "itably": 5567,
      "ittering": 5568,
      "Ġmock": 5569,
      "Ġmason": 5570,
      "Ġfan": 5571,
      "Ġfal": 5572,
      "Ġfare": 5573,
      "Ġfitted": 5574,
      "Ġflinging": 5575,
      "ley": 5576,
      "Ġcod": 5577,
      "Ġcoun": 5578,
      "Ġcaut": 5579,
      "Ġclinging": 5580,
      "oring": 5581,
      "orig": 5582,
      "orical": 5583,
      "ordered": 5584,
      "orcelain": 5585,
      "aries": 5586,
      "Ġinn": 5587,
      "Ġinse": 5588,
      "Ġintr": 5589,
      "Ġincluded": 5590,
      "Ġinev": 5591,
      "stri": 5592,
      "stones": 5593,
      "Ġtore": 5594,
      "Ġhy": 5595,
      "atural": 5596,
      "Ġdance": 5597,
      "Ġdancing": 5598,
      "Ġpause": 5599,
      "Ġpaint": 5600,
      "Ġpisto": 5601,
      "Ġpausing": 5602,
      "Ġlou": 5603,
      "Ġlift": 5604,
      "Ġlawn": 5605,
      "asper": 5606,
      "asmod": 5607,
      "Ġnin": 5608,
      "Ġnod": 5609,
      "Ġnine": 5610,
      "Ġnaught": 5611,
      "Ġnames": 5612,
      "ĠIII": 5613,
      "utation": 5614,
      "Ġhearing": 5615,
      "Ġheaps": 5616,
      "Ġharem": 5617,
      "imag": 5618,
      "iments": 5619,
      "Ġgrief": 5620,
      "seam": 5621,
      "Ġevil": 5622,
      "otest": 5623,
      "Ġult": 5624,
      "acity": 5625,
      "acles": 5626,
      "acting": 5627,
      "vert": 5628,
      "Ġstared": 5629,
      "Ġstairs": 5630,
      "ird": 5631,
      "ado": 5632,
      "Ġseve": 5633,
      "Ġascri": 5634,
      "Ġrad": 5635,
      "Ġrubb": 5636,
      "Ġriver": 5637,
      "Ġforge": 5638,
      "Ġrejo": 5639,
      "ĠTem": 5640,
      "ĠTown": 5641,
      "Ġweek": 5642,
      "among": 5643,
      "Ġattend": 5644,
      "ĠSag": 5645,
      "ills": 5646,
      "rolled": 5647,
      "Ġsoci": 5648,
      "Ġsuit": 5649,
      "quar": 5650,
      "Ġshone": 5651,
      "Ġfruit": 5652,
      "Ġyouth": 5653,
      "ulation": 5654,
      "Ġdeli": 5655,
      "Ġdevelo": 5656,
      "apple": 5657,
      "ĠBunger": 5658,
      "Ġvice": 5659,
      "Ġvener": 5660,
      "emor": 5661,
      "ements": 5662,
      "ctuous": 5663,
      "ĠWas": 5664,
      "Ġliken": 5665,
      "Ġconstit": 5666,
      "Ġconcluding": 5667,
      "rail": 5668,
      "usions": 5669,
      "Ġalike": 5670,
      "ĠPr": 5671,
      "ĠPlat": 5672,
      "ĠPorpoise": 5673,
      "Ġunex": 5674,
      "Ġunspeak": 5675,
      "Ġmanned": 5676,
      "loom": 5677,
      "ĠCX": 5678,
      "ĠCXX": 5679,
      "ĠCoffin": 5680,
      "indeed": 5681,
      "igr": 5682,
      "ĠHist": 5683,
      "akened": 5684,
      "ineyard": 5685,
      "ooded": 5686,
      "Ġspark": 5687,
      "Ġspade": 5688,
      "Ġspasmod": 5689,
      "ĠFather": 5690,
      "Ġyesterday": 5691,
      "Ġagg": 5692,
      "Ġshipped": 5693,
      "ishn": 5694,
      "iousness": 5695,
      "Ġblown": 5696,
      "Ġmoreover": 5697,
      "Ġplun": 5698,
      "Ġpockets": 5699,
      "ucks": 5700,
      "Ġafloat": 5701,
      "Ġstrict": 5702,
      "Ġstranded": 5703,
      "olid": 5704,
      "olation": 5705,
      "olio": 5706,
      "Ġknee": 5707,
      "Ġknees": 5708,
      "ĠLX": 5709,
      "ĠLoose": 5710,
      "question": 5711,
      "Ġprospect": 5712,
      "uding": 5713,
      "udent": 5714,
      "because": 5715,
      "Ġtwig": 5716,
      "Ġarchange": 5717,
      "Ġcanst": 5718,
      "Ġcanal": 5719,
      "Ġshaft": 5720,
      "Ġshaking": 5721,
      "Ġharbor": 5722,
      "Ġheading": 5723,
      "Ġbrill": 5724,
      "Ġgrinning": 5725,
      "Ġhovering": 5726,
      "Ġflow": 5727,
      "Ġflash": 5728,
      "feed": 5729,
      "Ġusing": 5730,
      "Ġusage": 5731,
      "Ġgreatly": 5732,
      "Ġperch": 5733,
      "Ġcop": 5734,
      "Ġcoin": 5735,
      "Ġcoils": 5736,
      "Ġcolossal": 5737,
      "Ġparty": 5738,
      "Ġimmediately": 5739,
      "Ġenem": 5740,
      "Ġpress": 5741,
      "Ġpreced": 5742,
      "Ġprevent": 5743,
      "deep": 5744,
      "hog": 5745,
      "order": 5746,
      "Ġslower": 5747,
      "Ġhowling": 5748,
      "Ġquality": 5749,
      "coat": 5750,
      "Ġmostly": 5751,
      "ĠEqu": 5752,
      "ĠEgypt": 5753,
      "Ġdaylight": 5754,
      "Ġpeering": 5755,
      "shr": 5756,
      "Ġcrotch": 5757,
      "Ġglim": 5758,
      "Ġglancing": 5759,
      "Ġchased": 5760,
      "ĠJove": 5761,
      "ĠRo": 5762,
      "ension": 5763,
      "ensive": 5764,
      "angers": 5765,
      "angled": 5766,
      "Ġproud": 5767,
      "soci": 5768,
      "Ġdesire": 5769,
      "Ġdesign": 5770,
      "Ġchim": 5771,
      "aws": 5772,
      "angel": 5773,
      "Ġwells": 5774,
      "without": 5775,
      "common": 5776,
      "mere": 5777,
      "mered": 5778,
      "Ġcalling": 5779,
      "Ġsubterr": 5780,
      "Ġskill": 5781,
      "Ġsteering": 5782,
      "upper": 5783,
      "Ġdistrust": 5784,
      "spout": 5785,
      "spikes": 5786,
      "Ġwindows": 5787,
      "Ġcursed": 5788,
      "Ġletter": 5789,
      "ĠThr": 5790,
      "graph": 5791,
      "ounce": 5792,
      "ificial": 5793,
      "msman": 5794,
      "fined": 5795,
      "Ġsettle": 5796,
      "Ġtender": 5797,
      "Ġswell": 5798,
      "Ġswept": 5799,
      "tract": 5800,
      "chance": 5801,
      "Ġloom": 5802,
      "Ġterm": 5803,
      "Ġgenerations": 5804,
      "screw": 5805,
      "Ġcloser": 5806,
      ",âĢĶâĢľ": 5807,
      "Ġwildly": 5808,
      "Ġchanged": 5809,
      "Ġelastic": 5810,
      "Ġwarning": 5811,
      "Ġcorrespo": 5812,
      "Ġjob": 5813,
      "prof": 5814,
      "Ġinvolved": 5815,
      "Ġconcent": 5816,
      "Ġfaster": 5817,
      "Ġfourth": 5818,
      "Ġhate": 5819,
      "Ġacce": 5820,
      "Ġhearse": 5821,
      "smo": 5822,
      "Ġsnuff": 5823,
      "Ġsnapped": 5824,
      "Ġfinding": 5825,
      "Ġintellect": 5826,
      "Ġwanting": 5827,
      "Ġneedle": 5828,
      "Ġsmooth": 5829,
      "longed": 5830,
      "Ġshortly": 5831,
      "Ġsavages": 5832,
      "Ġlively": 5833,
      "Ġstraits": 5834,
      "Ġmouths": 5835,
      "Ġdimly": 5836,
      "seeing": 5837,
      "Ġawa": 5838,
      "Ġawake": 5839,
      "Ġserious": 5840,
      "ĠManxman": 5841,
      "Ġarticles": 5842,
      "Ġmasses": 5843,
      "Ġladder": 5844,
      "Ġhappen": 5845,
      "Ġcommander": 5846,
      "Ġsymp": 5847,
      "Ġstarting": 5848,
      "Ġwax": 5849,
      "Ġmerry": 5850,
      "Ġpitched": 5851,
      "Ġexplo": 5852,
      "Ġclearly": 5853,
      "Ġreflection": 5854,
      "Ġafford": 5855,
      "Ġobjects": 5856,
      "Ġmurderer": 5857,
      "Ġcryst": 5858,
      "Ġelsewhere": 5859,
      "sternation": 5860,
      "Ġdecay": 5861,
      "ĠHowever": 5862,
      "Ġstraightway": 5863,
      "Ġaccounts": 5864,
      "Ġplease": 5865,
      "Ġabsent": 5866,
      "Ġhills": 5867,
      "Ġdepart": 5868,
      "Ġstrongly": 5869,
      "cannot": 5870,
      "Ġobserve": 5871,
      "Soon": 5872,
      "chains": 5873,
      "Ġmistake": 5874,
      "mosp": 5875,
      "Ġfifteen": 5876,
      "Ġproport": 5877,
      "Ġprophet": 5878,
      "Ġnaturalists": 5879,
      "Ġwalking": 5880,
      "Ġblinds": 5881,
      "Ġdirections": 5882,
      "Ġhurried": 5883,
      "lasting": 5884,
      "Ġmildly": 5885,
      "ĠTrue": 5886,
      "Ġescaped": 5887,
      "modore": 5888,
      "Ġbirth": 5889,
      "Ġprior": 5890,
      "Ġmoonlight": 5891,
      "Ġdamned": 5892,
      "Ġencoun": 5893,
      "shall": 5894,
      "ĠXC": 5895,
      "Ġruin": 5896,
      "Ġruins": 5897,
      "Ġexperienced": 5898,
      "Ġghosts": 5899,
      "Ġshroud": 5900,
      "Ġheathen": 5901,
      "âĢĶâĢĶâĢĶâĢĶ": 5902,
      "Ġthrusting": 5903,
      "Ġadditional": 5904,
      "Ġdrive": 5905,
      "Ġcommotion": 5906,
      "Ġcomfortable": 5907,
      "Ġtravelled": 5908,
      "Ġcandle": 5909,
      "Ġpanic": 5910,
      "Ġexceeding": 5911,
      "Ġspiritual": 5912,
      "Ġnecessity": 5913,
      "Ġbrawn": 5914,
      "Ġmotions": 5915,
      "Ġconcerned": 5916,
      "Ġelephants": 5917,
      "Ġsolemnly": 5918,
      "creatures": 5919,
      "Ġstretched": 5920,
      "Ġbubbles": 5921,
      "iscuit": 5922,
      "ĠScoresby": 5923,
      "Ġexcit": 5924,
      "ĠMeantime": 5925,
      "ĠMeanwhile": 5926,
      "Ġincreased": 5927,
      "harpooneers": 5928,
      "uminated": 5929,
      "Ġargument": 5930,
      "Ġdrowned": 5931,
      "Ġsignificant": 5932,
      "Ġturf": 5933,
      "Ġderived": 5934,
      "Leviathan": 5935,
      "Ġsatisf": 5936,
      "Ġtemporary": 5937,
      "Ġfowls": 5938,
      "Ġdemanded": 5939,
      "Ġpreserved": 5940,
      "Ġrecognised": 5941,
      "Ġsucceeded": 5942,
      "Ġabandoned": 5943,
      "gallant": 5944,
      "Ġlanguage": 5945,
      "Ġrumors": 5946,
      "Ġreminded": 5947,
      "Ġinvariably": 5948,
      "Ġwharf": 5949,
      "Ġnervous": 5950,
      "ĠDelight": 5951,
      "Ġinfallibly": 5952,
      "straight": 5953,
      "Ġhesitated": 5954,
      "ĠRamadan": 5955,
      "Greenland": 5956,
      "Ġsorry": 5957,
      "ournalist": 5958,
      "ĠGeorge": 5959,
      "bastian": 5960,
      "..": 5961,
      ";âĢĿ": 5962,
      "AD": 5963,
      "Ar": 5964,
      "After": 5965,
      "AST": 5966,
      "Bildad": 5967,
      "Ch": 5968,
      "Ere": 5969,
      "Eng": 5970,
      "IT": 5971,
      "Jonah": 5972,
      "Po": 5973,
      "See": 5974,
      "XC": 5975,
      "born": 5976,
      "bottom": 5977,
      "cer": 5978,
      "ciously": 5979,
      "dom": 5980,
      "dro": 5981,
      "eur": 5982,
      "eight": 5983,
      "each": 5984,
      "erest": 5985,
      "eze": 5986,
      "easy": 5987,
      "fit": 5988,
      "fall": 5989,
      "flo": 5990,
      "fig": 5991,
      "fety": 5992,
      "gentle": 5993,
      "hist": 5994,
      "hundred": 5995,
      "iard": 5996,
      "iers": 5997,
      "kened": 5998,
      "lime": 5999,
      "mal": 6000,
      "met": 6001,
      "mers": 6002,
      "make": 6003,
      "nett": 6004,
      "oon": 6005,
      "ocean": 6006,
      "pot": 6007,
      "pain": 6008,
      "pri": 6009,
      "pane": 6010,
      "rus": 6011,
      "rup": 6012,
      "sn": 6013,
      "som": 6014,
      "sitting": 6015,
      "sneez": 6016,
      "tar": 6017,
      "till": 6018,
      "uke": 6019,
      "uation": 6020,
      "uously": 6021,
      "van": 6022,
      "wha": 6023,
      "wam": 6024,
      "word": 6025,
      "Ġ2": 6026,
      "Ġic": 6027,
      "Ġtide": 6028,
      "Ġtask": 6029,
      "Ġtravelling": 6030,
      "heav": 6031,
      "Ġaut": 6032,
      "Ġaug": 6033,
      "Ġaction": 6034,
      "Ġavo": 6035,
      "Ġavast": 6036,
      "inction": 6037,
      "Ġsan": 6038,
      "Ġwave": 6039,
      "Ġwilt": 6040,
      "Ġwinter": 6041,
      "Ġwaste": 6042,
      "Ġwretched": 6043,
      "reed": 6044,
      "ndous": 6045,
      "Ġbits": 6046,
      "Ġbene": 6047,
      "Ġborne": 6048,
      "itch": 6049,
      "itation": 6050,
      "itating": 6051,
      "itters": 6052,
      "Ġmars": 6053,
      "Ġmach": 6054,
      "Ġmiz": 6055,
      "Ġmixed": 6056,
      "ouched": 6057,
      "Ġfins": 6058,
      "Ġfountain": 6059,
      "Ġfavor": 6060,
      "Ġfallen": 6061,
      "lex": 6062,
      "leep": 6063,
      "leaving": 6064,
      "Ġoffered": 6065,
      "Ġcable": 6066,
      "Ġcell": 6067,
      "Ġcream": 6068,
      "enough": 6069,
      "lland": 6070,
      "llows": 6071,
      "atter": 6072,
      "athed": 6073,
      "Ġdue": 6074,
      "Ġdive": 6075,
      "Ġdived": 6076,
      "Ġpound": 6077,
      "Ġpaced": 6078,
      "Ġpier": 6079,
      "Ġpowers": 6080,
      "Ġpyramid": 6081,
      "especially": 6082,
      "Ġlid": 6083,
      "Ġlake": 6084,
      "Ġlaz": 6085,
      "Ġlashed": 6086,
      "Ġlaun": 6087,
      "omon": 6088,
      "omage": 6089,
      "Ġnailed": 6090,
      "Ġthigh": 6091,
      "utter": 6092,
      "Ġhered": 6093,
      "imin": 6094,
      "Ġbeer": 6095,
      "Ġbeings": 6096,
      "Ġbeating": 6097,
      "Ġginger": 6098,
      "Ġgaining": 6099,
      "Ġghast": 6100,
      "Ġgleam": 6101,
      "secut": 6102,
      "icle": 6103,
      "Ġemerged": 6104,
      "otes": 6105,
      "otions": 6106,
      "othes": 6107,
      "ottle": 6108,
      "Ġur": 6109,
      "alt": 6110,
      "idently": 6111,
      "Ġstal": 6112,
      "Ġstuck": 6113,
      "Ġstark": 6114,
      "Ġstage": 6115,
      "Ġstaring": 6116,
      "Ġstump": 6117,
      "ads": 6118,
      "enting": 6119,
      "entous": 6120,
      "Ġsearch": 6121,
      "urable": 6122,
      "Ġwithstand": 6123,
      "âĢľ_": 6124,
      "Ġrot": 6125,
      "Ġrud": 6126,
      "Ġrage": 6127,
      "Ġrods": 6128,
      "Ġrese": 6129,
      "Ġrestr": 6130,
      "Ġresc": 6131,
      "Ġretained": 6132,
      "Ġreef": 6133,
      "Ġrevenge": 6134,
      "Ġissued": 6135,
      "ĠTypho": 6136,
      "aming": 6137,
      "amming": 6138,
      "ĠAnt": 6139,
      "ĠAcc": 6140,
      "Ġanx": 6141,
      "Ġanon": 6142,
      "ĠSl": 6143,
      "ĠSy": 6144,
      "ĠSpe": 6145,
      "ĠShip": 6146,
      "allers": 6147,
      "alloa": 6148,
      "illing": 6149,
      "royal": 6150,
      "iform": 6151,
      "Ġsoil": 6152,
      "Ġsust": 6153,
      "Ġsuspect": 6154,
      "Ġshown": 6155,
      "Ġshoes": 6156,
      "Ġfrank": 6157,
      "things": 6158,
      "Ġupward": 6159,
      "pended": 6160,
      "uls": 6161,
      "ulate": 6162,
      "ipper": 6163,
      "gered": 6164,
      "abb": 6165,
      "ĠBo": 6166,
      "Ġvict": 6167,
      "Ġvital": 6168,
      "Ġvitality": 6169,
      "Ġsafety": 6170,
      "ribly": 6171,
      "ctions": 6172,
      "ctavo": 6173,
      "Ġboom": 6174,
      "Ġaltern": 6175,
      "elkilt": 6176,
      "ĠPagan": 6177,
      "Ġunlike": 6178,
      "Ġunctuous": 6179,
      "loi": 6180,
      "igwam": 6181,
      "Ġnest": 6182,
      "Ġnearest": 6183,
      "ĠHence": 6184,
      "Ġfears": 6185,
      "Ġexpected": 6186,
      "orted": 6187,
      "ĠMons": 6188,
      "Ġjour": 6189,
      "Ġjumped": 6190,
      "Ġyea": 6191,
      "ĠStart": 6192,
      "ĠStra": 6193,
      "ival": 6194,
      "Ġblast": 6195,
      "Ġpol": 6196,
      "These": 6197,
      "ucked": 6198,
      "Ġseemingly": 6199,
      "Ġworthy": 6200,
      "avig": 6201,
      "nderby": 6202,
      "Ġaffection": 6203,
      "Ġstrained": 6204,
      "Ġstricken": 6205,
      "olate": 6206,
      "Ġtrad": 6207,
      "Ġtrump": 6208,
      "ourth": 6209,
      "ĠLife": 6210,
      "ĠLXXX": 6211,
      "queer": 6212,
      "Ġherds": 6213,
      "uded": 6214,
      "udding": 6215,
      "beat": 6216,
      "bearing": 6217,
      "Ġropes": 6218,
      "Ġhandful": 6219,
      "Ġtwilight": 6220,
      "Ġarched": 6221,
      "Ġanybody": 6222,
      "ĠGay": 6223,
      "ĠGold": 6224,
      "Ġamb": 6225,
      "Ġamazing": 6226,
      "Ġbrid": 6227,
      "Ġbringing": 6228,
      "Ġgradually": 6229,
      "Ġthrone": 6230,
      "Ġthrice": 6231,
      "Ġthrowing": 6232,
      "fee": 6233,
      "feel": 6234,
      "Ġusually": 6235,
      "plen": 6236,
      "plex": 6237,
      "Ġthank": 6238,
      "Ġcoiling": 6239,
      "Ġimmediate": 6240,
      "ĠOver": 6241,
      "ĠOcean": 6242,
      "Ġprelim": 6243,
      "Ġscan": 6244,
      "Ġscorn": 6245,
      "Ġscream": 6246,
      "Ġscenes": 6247,
      "Ġoffice": 6248,
      "Ġswings": 6249,
      "Ġyours": 6250,
      "Ġdisast": 6251,
      "Ġdispl": 6252,
      "Ġcracked": 6253,
      "Ġthroughout": 6254,
      "Ġglittering": 6255,
      "Ġadr": 6256,
      "clusion": 6257,
      "Ġspend": 6258,
      "Ġclut": 6259,
      "Ġclust": 6260,
      "Ġcloud": 6261,
      "ĠJer": 6262,
      "ĠJust": 6263,
      "ĠJopp": 6264,
      "Ġmatters": 6265,
      "Ġmathemat": 6266,
      "Ġprudent": 6267,
      "Ġcontact": 6268,
      "Ġdesired": 6269,
      "Ġchin": 6270,
      "Ġchurch": 6271,
      "Ġobst": 6272,
      "ĠYe": 6273,
      "Ġsunlight": 6274,
      "Ġlights": 6275,
      "Ġentitled": 6276,
      "Ġendure": 6277,
      "landish": 6278,
      "Ġsubs": 6279,
      "Ġsubstant": 6280,
      "Ġsubmerged": 6281,
      "Ġbeget": 6282,
      "Ġskies": 6283,
      "Ġsteam": 6284,
      "Ġsteak": 6285,
      "spec": 6286,
      "Ġdistr": 6287,
      "exam": 6288,
      "Ġtells": 6289,
      "spade": 6290,
      "romed": 6291,
      "ocks": 6292,
      "succ": 6293,
      "Ġinterm": 6294,
      "Ġinterpre": 6295,
      "Ġbodies": 6296,
      "Ġcuriously": 6297,
      "Ġcuriosity": 6298,
      "Ġapplic": 6299,
      "struction": 6300,
      "Ġdraught": 6301,
      "whalemen": 6302,
      "Ġincess": 6303,
      "Ġmonth": 6304,
      "Ġmonsters": 6305,
      "Ġmoss": 6306,
      "Ġsmaller": 6307,
      "Ġswear": 6308,
      "Ġswells": 6309,
      "Ġwrapped": 6310,
      "Ġwritten": 6311,
      "Ġindolent": 6312,
      "Ġindepend": 6313,
      "Ġhelmsman": 6314,
      "goes": 6315,
      "Ġruns": 6316,
      "prit": 6317,
      "ĠVoyage": 6318,
      "Ġcheese": 6319,
      "Ġbusy": 6320,
      "encies": 6321,
      "Ġfloat": 6322,
      "Ġpossession": 6323,
      "Ġlengthwise": 6324,
      "crow": 6325,
      "Ġfury": 6326,
      "Ġfastened": 6327,
      "brÃ¦": 6328,
      "Ġmidst": 6329,
      "master": 6330,
      "Ġplaint": 6331,
      "lerably": 6332,
      "Ġintently": 6333,
      "Ġdireful": 6334,
      "Ġneeded": 6335,
      "Ġneedles": 6336,
      "Ġintended": 6337,
      "Ġfearless": 6338,
      "ĠUp": 6339,
      "Ġactive": 6340,
      "Ġactivity": 6341,
      "phy": 6342,
      "Ġsecurity": 6343,
      "ĠNoah": 6344,
      "Ġcharm": 6345,
      "Ġcentury": 6346,
      "Ġelements": 6347,
      "ception": 6348,
      "Ġbloody": 6349,
      "Ġmiserable": 6350,
      "Ġpersu": 6351,
      "sailors": 6352,
      "remained": 6353,
      "Ġconsideration": 6354,
      "somehow": 6355,
      "ĠNorth": 6356,
      "Ġbowels": 6357,
      "looked": 6358,
      "Ġgrounds": 6359,
      "Ġconfidence": 6360,
      "Ġsquare": 6361,
      "Ġsquares": 6362,
      "Ġmercy": 6363,
      "Ġcasual": 6364,
      "Ġrefer": 6365,
      "Ġswims": 6366,
      "wonder": 6367,
      "Ġbreathing": 6368,
      "themselves": 6369,
      "Ġfrozen": 6370,
      "Ġsoftly": 6371,
      "regular": 6372,
      "Ġrelig": 6373,
      "Ġabsor": 6374,
      "Ġabsence": 6375,
      "Ġplanet": 6376,
      "Ġbrighter": 6377,
      "Ġhelpless": 6378,
      "Ġdoubtless": 6379,
      "glass": 6380,
      "Ġtreacher": 6381,
      "Ġdepth": 6382,
      "Ġdepths": 6383,
      "Ġspirits": 6384,
      "Ġtransp": 6385,
      "Ġwonders": 6386,
      "Ġproperty": 6387,
      "Ġhopeless": 6388,
      "Ġpursued": 6389,
      "Ġgallant": 6390,
      "Ġconditions": 6391,
      "chased": 6392,
      "Ġmistaken": 6393,
      "Ġdivine": 6394,
      "Ġraise": 6395,
      "Ġrecord": 6396,
      "ĠAmerica": 6397,
      "Ġanimated": 6398,
      "Ġanimals": 6399,
      "minent": 6400,
      "Ġcattle": 6401,
      "Ġphysical": 6402,
      "Ġpropri": 6403,
      "Ġfurnish": 6404,
      "Ġhurry": 6405,
      "Ġpatient": 6406,
      "Ġshoal": 6407,
      "Ġleviathans": 6408,
      "Ġdreaded": 6409,
      "Ġdreadful": 6410,
      "ĠAny": 6411,
      "Ġbarbs": 6412,
      "Ġeighteen": 6413,
      "ĠPerseus": 6414,
      "Ġdescending": 6415,
      "aults": 6416,
      "affrail": 6417,
      "offic": 6418,
      "Ġstrove": 6419,
      "Ġjudgment": 6420,
      "harpoon": 6421,
      "Ġsupplied": 6422,
      "Ġvaliant": 6423,
      "Ġvaluable": 6424,
      "Ġhints": 6425,
      "imental": 6426,
      "ustomed": 6427,
      "Ġdistinctly": 6428,
      "Ġoccasional": 6429,
      "liny": 6430,
      "Ġmilky": 6431,
      "Ġdriving": 6432,
      "Ġdelir": 6433,
      "Ġcommunic": 6434,
      "Ġarrival": 6435,
      "Ġmarvels": 6436,
      "Ġtackle": 6437,
      "Ġgroping": 6438,
      "Ġwhisper": 6439,
      "iloqu": 6440,
      "Ġcannibals": 6441,
      "Ġmalice": 6442,
      "Ġcontribut": 6443,
      "Ġcandles": 6444,
      "Ġlaboratory": 6445,
      "Ġexceedingly": 6446,
      "bbing": 6447,
      "skin": 6448,
      "Ġcouple": 6449,
      "Ġanguish": 6450,
      "Ġconnexion": 6451,
      "Ġpopularly": 6452,
      "Ġincredulous": 6453,
      "Ġtormented": 6454,
      "Ġbeholding": 6455,
      "chers": 6456,
      "creature": 6457,
      "faction": 6458,
      "minded": 6459,
      "Ġcreeping": 6460,
      "iculars": 6461,
      "colored": 6462,
      "Ġdelicate": 6463,
      "Ġgrasped": 6464,
      "Ġlandsmen": 6465,
      "Ġtendency": 6466,
      "Ġintelligent": 6467,
      "Ġcontrasting": 6468,
      "Ġwitness": 6469,
      "imension": 6470,
      "Ġswallowed": 6471,
      "Ġbuilding": 6472,
      "Meantime": 6473,
      "Ġhorns": 6474,
      "hunter": 6475,
      "piece": 6476,
      "pieces": 6477,
      "Ġobey": 6478,
      "Ġmechanical": 6479,
      "Ġinvoluntarily": 6480,
      "Ġtemporarily": 6481,
      "CKET": 6482,
      "Ġcherish": 6483,
      "Ġinquir": 6484,
      "Ġtossing": 6485,
      "Ġpirates": 6486,
      "Ġpuzzled": 6487,
      "Ġblessed": 6488,
      "Ġdilig": 6489,
      "Ġrisk": 6490,
      "Ġweapon": 6491,
      "Ġprotect": 6492,
      "Ġsurrounded": 6493,
      "Ġcalculated": 6494,
      "cription": 6495,
      "Ġsnatching": 6496,
      "Ġrevolving": 6497,
      "Steelkilt": 6498,
      "Ġberth": 6499,
      "Ġinclined": 6500,
      "ĠJapanese": 6501,
      "eastward": 6502,
      "Ġbaby": 6503,
      "Ġreserved": 6504,
      "ĠSamuel": 6505,
      "Ġcombined": 6506,
      "Ġsuperstitious": 6507,
      "Ġlodged": 6508,
      "Ġvalley": 6509,
      "Ġapparition": 6510,
      "Ġsympt": 6511,
      "Ġmuffled": 6512,
      "Ġdomestic": 6513,
      "Ġstaggered": 6514,
      "ĠUnderworld": 6515,
      "Ġsteadfastly": 6516,
      "precisely": 6517,
      "lephant": 6518,
      "Ġjerking": 6519,
      "ĠvertebrÃ¦": 6520,
      "Ġextremity": 6521,
      "Ġintric": 6522,
      "ĠTemple": 6523,
      "Ġvenerable": 6524,
      "Ġlikeness": 6525,
      "ishnoo": 6526,
      "Ġarchangel": 6527,
      "ĠEquator": 6528,
      "rupted": 6529,
      "sneezes": 6530,
      "ĠGolden": 6531,
      "ĠJoppa": 6532,
      ";âĢĻ": 6533,
      "AG": 6534,
      "Bl": 6535,
      "During": 6536,
      "Didn": 6537,
      "ED": 6538,
      "EET": 6539,
      "Had": 6540,
      "Hist": 6541,
      "MO": 6542,
      "OG": 6543,
      "Par": 6544,
      "Pull": 6545,
      "Ship": 6546,
      "Tis": 6547,
      "Ye": 6548,
      "ai": 6549,
      "aur": 6550,
      "ban": 6551,
      "bac": 6552,
      "band": 6553,
      "barb": 6554,
      "bones": 6555,
      "cour": 6556,
      "care": 6557,
      "cence": 6558,
      "cross": 6559,
      "chet": 6560,
      "dor": 6561,
      "dig": 6562,
      "done": 6563,
      "dles": 6564,
      "dled": 6565,
      "fed": 6566,
      "fif": 6567,
      "fra": 6568,
      "fted": 6569,
      "fair": 6570,
      "fixed": 6571,
      "fashion": 6572,
      "fishery": 6573,
      "gent": 6574,
      "gers": 6575,
      "god": 6576,
      "gies": 6577,
      "gged": 6578,
      "green": 6579,
      "hot": 6580,
      "iate": 6581,
      "ihil": 6582,
      "jack": 6583,
      "jud": 6584,
      "lph": 6585,
      "mper": 6586,
      "mering": 6587,
      "making": 6588,
      "motion": 6589,
      "nings": 6590,
      "navig": 6591,
      "oly": 6592,
      "ope": 6593,
      "oars": 6594,
      "ogly": 6595,
      "pull": 6596,
      "pany": 6597,
      "pots": 6598,
      "rushing": 6599,
      "sac": 6600,
      "sue": 6601,
      "suddenly": 6602,
      "ti": 6603,
      "tor": 6604,
      "tal": 6605,
      "too": 6606,
      "turn": 6607,
      "tail": 6608,
      "ucted": 6609,
      "ucing": 6610,
      "view": 6611,
      "wer": 6612,
      "wide": 6613,
      "zing": 6614,
      "Åĵ": 6615,
      "Ġ&": 6616,
      "Ġing": 6617,
      "Ġting": 6618,
      "Ġtid": 6619,
      "Ġtink": 6620,
      "Ġtired": 6621,
      "iny": 6622,
      "inch": 6623,
      "inate": 6624,
      "inated": 6625,
      "instant": 6626,
      "Ġsore": 6627,
      "Ġsidel": 6628,
      "Ġsorrow": 6629,
      "Ġoak": 6630,
      "Ġopp": 6631,
      "Ġomen": 6632,
      "Ġwil": 6633,
      "Ġwings": 6634,
      "Ġwool": 6635,
      "Ġwakes": 6636,
      "Ġwigwam": 6637,
      "reve": 6638,
      "render": 6639,
      "remon": 6640,
      "hap": 6641,
      "having": 6642,
      "handed": 6643,
      "Ġban": 6644,
      "Ġbask": 6645,
      "Ġbump": 6646,
      "Ġbowed": 6647,
      "itle": 6648,
      "iterr": 6649,
      "Ġmale": 6650,
      "outhern": 6651,
      "Ġfib": 6652,
      "Ġfacing": 6653,
      "Ġfires": 6654,
      "lement": 6655,
      "Ġcig": 6656,
      "enial": 6657,
      "orough": 6658,
      "orus": 6659,
      "lla": 6660,
      "arance": 6661,
      "arms": 6662,
      "Ġincluding": 6663,
      "sted": 6664,
      "Ġtobac": 6665,
      "Ġhooded": 6666,
      "atra": 6667,
      "Ġdig": 6668,
      "Ġdried": 6669,
      "Ġdaring": 6670,
      "Ġdressed": 6671,
      "Ġpip": 6672,
      "Ġpant": 6673,
      "Ġpine": 6674,
      "Ġpile": 6675,
      "Ġpaid": 6676,
      "Ġpacing": 6677,
      "Ġpaper": 6678,
      "Ġlif": 6679,
      "Ġlashing": 6680,
      "Ġlifting": 6681,
      "omb": 6682,
      "omach": 6683,
      "omantic": 6684,
      "asc": 6685,
      "Ġthorough": 6686,
      "utions": 6687,
      "Ġhey": 6688,
      "Ġheap": 6689,
      "Ġhealth": 6690,
      "Ġhaven": 6691,
      "Ġbelly": 6692,
      "Ġgar": 6693,
      "Ġgate": 6694,
      "Ġgathered": 6695,
      "several": 6696,
      "Ġemer": 6697,
      "othed": 6698,
      "Ġum": 6699,
      "always": 6700,
      "Ġonset": 6701,
      "aco": 6702,
      "acon": 6703,
      "verb": 6704,
      "verse": 6705,
      "Ġstave": 6706,
      "Ġstayed": 6707,
      "Ġstooped": 6708,
      "etus": 6709,
      "iron": 6710,
      "adoes": 6711,
      "Ġyon": 6712,
      "Ġyarn": 6713,
      "Ġsend": 6714,
      "Ġsees": 6715,
      "Ġseren": 6716,
      "Ġsending": 6717,
      "Ġseize": 6718,
      "Ġseizing": 6719,
      "Ġasser": 6720,
      "Ġassoci": 6721,
      "Ġrows": 6722,
      "Ġroof": 6723,
      "Ġrude": 6724,
      "Ġromantic": 6725,
      "Ġforb": 6726,
      "Ġwhist": 6727,
      "Ġreli": 6728,
      "Ġreceiving": 6729,
      "Ġreplen": 6730,
      "cell": 6731,
      "cest": 6732,
      "ĠTars": 6733,
      "ĠTell": 6734,
      "ĠTwo": 6735,
      "ili": 6736,
      "ander": 6737,
      "Ġweigh": 6738,
      "Ġweeks": 6739,
      "Ġatmosp": 6740,
      "Ġancest": 6741,
      "ĠSat": 6742,
      "ĠSqu": 6743,
      "ĠSum": 6744,
      "ĠSol": 6745,
      "ĠSleet": 6746,
      "ĠSilent": 6747,
      "allied": 6748,
      "iller": 6749,
      "Ġsold": 6750,
      "quite": 6751,
      "quick": 6752,
      "Ġshows": 6753,
      "Ġshirt": 6754,
      "Ġshivering": 6755,
      "Ġframe": 6756,
      "Ġmel": 6757,
      "Ġuplifted": 6758,
      "people": 6759,
      "told": 6760,
      "ulated": 6761,
      "ulting": 6762,
      "ulking": 6763,
      "ipple": 6764,
      "Ġlear": 6765,
      "Ġleather": 6766,
      "Ġlevers": 6767,
      "Ġleagues": 6768,
      "apes": 6769,
      "ĠBachel": 6770,
      "Ġvial": 6771,
      "Ġsag": 6772,
      "rive": 6773,
      "ĠWould": 6774,
      "ĠWhaling": 6775,
      "antage": 6776,
      "une": 6777,
      "unity": 6778,
      "unted": 6779,
      "umping": 6780,
      "Ġconclude": 6781,
      "rape": 6782,
      "Ġalarm": 6783,
      "poses": 6784,
      "pointing": 6785,
      "ĠPh": 6786,
      "ĠPl": 6787,
      "ĠPers": 6788,
      "ĠPhil": 6789,
      "ĠPorcelain": 6790,
      "ĠPliny": 6791,
      "Ġunman": 6792,
      "Ġunhar": 6793,
      "Ġunpleasant": 6794,
      "Ġuniform": 6795,
      "losed": 6796,
      "ĠCo": 6797,
      "ĠCook": 6798,
      "ĠCol": 6799,
      "inds": 6800,
      "inding": 6801,
      "indispensable": 6802,
      "ĠHur": 6803,
      "ĠHark": 6804,
      "ĠHundred": 6805,
      "Ġkick": 6806,
      "often": 6807,
      "ackened": 6808,
      "Ġoutward": 6809,
      "Ġfee": 6810,
      "oods": 6811,
      "Ġexe": 6812,
      "Ġexcess": 6813,
      "Ġexasper": 6814,
      "Ġabomin": 6815,
      "Ġabounding": 6816,
      "Ġintolerable": 6817,
      "ĠMart": 6818,
      "ĠMoreover": 6819,
      "ĠMapple": 6820,
      "Ġspent": 6821,
      "Ġspars": 6822,
      "Ġspilled": 6823,
      "ĠFirst": 6824,
      "ĠFurther": 6825,
      "Ġagon": 6826,
      "Ġdolph": 6827,
      "ieu": 6828,
      "ieur": 6829,
      "ĠStr": 6830,
      "ivot": 6831,
      "ĠNay": 6832,
      "Ġplane": 6833,
      "Ġplates": 6834,
      "Ġplanted": 6835,
      "Ġpoison": 6836,
      "ĠDid": 6837,
      "ĠDuke": 6838,
      "Ġaffected": 6839,
      "Ġstring": 6840,
      "Ġstripped": 6841,
      "Ġstraining": 6842,
      "olated": 6843,
      "olution": 6844,
      "Ġtrust": 6845,
      "Ġkneel": 6846,
      "ouring": 6847,
      "ĠLXX": 6848,
      "ĠLima": 6849,
      "Ġprolonged": 6850,
      "Ġherself": 6851,
      "best": 6852,
      "Ġwouldn": 6853,
      "Ġroaring": 6854,
      "Ġrobes": 6855,
      "Ġarmed": 6856,
      "ĠGl": 6857,
      "inkling": 6858,
      "inkled": 6859,
      "Ġamaz": 6860,
      "Ġbranc": 6861,
      "Ġbrains": 6862,
      "Ġgroo": 6863,
      "Ġhoist": 6864,
      "Ġhoisting": 6865,
      "Ġfled": 6866,
      "Ġflight": 6867,
      "Ġflick": 6868,
      "Ġflanks": 6869,
      "Ġuses": 6870,
      "Ġcoiled": 6871,
      "Ġpartially": 6872,
      "Ġimpe": 6873,
      "ĠOld": 6874,
      "ĠOur": 6875,
      "Ġprem": 6876,
      "Ġprepar": 6877,
      "dev": 6878,
      "dead": 6879,
      "hoy": 6880,
      "Ġsmallest": 6881,
      "ordinary": 6882,
      "Ġhereby": 6883,
      "adequ": 6884,
      "Ġscore": 6885,
      "Ġslave": 6886,
      "arbor": 6887,
      "ĠIts": 6888,
      "Ġquit": 6889,
      "Ġqual": 6890,
      "lier": 6891,
      "ĠEight": 6892,
      "ĠEvery": 6893,
      "ĠHeaven": 6894,
      "Ġcrooked": 6895,
      "Ġchains": 6896,
      "Ġchapel": 6897,
      "cloth": 6898,
      "Ġfond": 6899,
      "Ġfolly": 6900,
      "Ġfolded": 6901,
      "play": 6902,
      "planted": 6903,
      "Ġeverybody": 6904,
      "Ġspeech": 6905,
      "Ġclung": 6906,
      "Ġclaim": 6907,
      "Ġwhereby": 6908,
      "ĠJournalist": 6909,
      "forth": 6910,
      "forward": 6911,
      "forming": 6912,
      "Ġpron": 6913,
      "Ġpride": 6914,
      "Ġprime": 6915,
      "Ġcontents": 6916,
      "soever": 6917,
      "Ġdesert": 6918,
      "Ġeverlasting": 6919,
      "whose": 6920,
      "Ġobed": 6921,
      "pretty": 6922,
      "prehens": 6923,
      "ĠYork": 6924,
      "Ġunderground": 6925,
      "Ġsunk": 6926,
      "Ġlightly": 6927,
      "Ġsheets": 6928,
      "compan": 6929,
      "Ġcarpet": 6930,
      "Ġentry": 6931,
      "Ġended": 6932,
      "Ġbegins": 6933,
      "Ġsteer": 6934,
      "Ġsteers": 6935,
      "Ġsteep": 6936,
      "uppose": 6937,
      "unging": 6938,
      "except": 6939,
      "monster": 6940,
      "Ġinterl": 6941,
      "Ġdarker": 6942,
      "contr": 6943,
      "Ġforemast": 6944,
      "Ġappet": 6945,
      "struck": 6946,
      "stricken": 6947,
      "Ġcompare": 6948,
      "Ġcompared": 6949,
      "Ġhumorous": 6950,
      "Ġincor": 6951,
      "ĠTherefore": 6952,
      "Ġheavily": 6953,
      "Ġholds": 6954,
      "Ġsleeper": 6955,
      "Ġcircular": 6956,
      "Ġdrooping": 6957,
      "changed": 6958,
      "Ġhardy": 6959,
      "Ġwrought": 6960,
      "worthy": 6961,
      "Ġindic": 6962,
      "Ġindefinite": 6963,
      "Ġhighly": 6964,
      "Ġlargely": 6965,
      "ulture": 6966,
      "Ġburden": 6967,
      "flowing": 6968,
      "Ġclen": 6969,
      "prise": 6970,
      "ĠVirgin": 6971,
      "ĠVineyard": 6972,
      "Ġcheeks": 6973,
      "Ġlayer": 6974,
      "Ġnorthern": 6975,
      "Ġcapable": 6976,
      "aughter": 6977,
      "Ġsleepy": 6978,
      "Ġcoral": 6979,
      "Ġjoin": 6980,
      "Ġjoke": 6981,
      "Ġjoined": 6982,
      "Ġsingular": 6983,
      "Ġsingularly": 6984,
      "Ġseasons": 6985,
      "Ġlowly": 6986,
      "Ġhunter": 6987,
      "Ġhunting": 6988,
      "Ġkeeps": 6989,
      "undering": 6990,
      "Ġintention": 6991,
      "Ġintensity": 6992,
      "Ġbestowed": 6993,
      "ĠSebastian": 6994,
      "Ġmeanwhile": 6995,
      "Ġpeculiarities": 6996,
      "Ġwants": 6997,
      "Ġresumed": 6998,
      "Ġhammered": 6999,
      "ĠUpper": 7000,
      "Ġcolt": 7001,
      "Ġcolumn": 7002,
      "Ġreasonable": 7003,
      "Ġcharge": 7004,
      "ierogly": 7005,
      "Ġreply": 7006,
      "ysio": 7007,
      "Ġmainmast": 7008,
      "Ġprofession": 7009,
      "Ġconsiderably": 7010,
      "handle": 7011,
      "Ġdoorway": 7012,
      "Ġserved": 7013,
      "Ġportentous": 7014,
      "Ġspecimens": 7015,
      "Ġmadden": 7016,
      "Ġhappy": 7017,
      "allel": 7018,
      "country": 7019,
      "Ġconfusion": 7020,
      "ĠChina": 7021,
      "Ġwaiting": 7022,
      "Ġseams": 7023,
      "Ġexpand": 7024,
      "Ġexpense": 7025,
      "maul": 7026,
      "Ġaffright": 7027,
      "Ġparticularly": 7028,
      "Ġfriendly": 7029,
      "Ġhumanity": 7030,
      "Ġdecided": 7031,
      "regularly": 7032,
      "Ġmetal": 7033,
      "Ġthickness": 7034,
      "Ġrelated": 7035,
      "Ġfellows": 7036,
      "Ġcruise": 7037,
      "Ġodor": 7038,
      "Ġgrandeur": 7039,
      "Ġgazed": 7040,
      "Ġobserving": 7041,
      "Ġbuilt": 7042,
      "Ġdreams": 7043,
      "ĠNothing": 7044,
      "Ġdivided": 7045,
      "Ġrevel": 7046,
      "Ġlimit": 7047,
      "ĠSpace": 7048,
      "Ġprophe": 7049,
      "Ġwalk": 7050,
      "Ġinvestig": 7051,
      "Ġkilling": 7052,
      "Ġproceeds": 7053,
      "Ġtalked": 7054,
      "intervals": 7055,
      "Ġfreed": 7056,
      "Ġtowed": 7057,
      "versation": 7058,
      "Ġchapters": 7059,
      "Ġbelongs": 7060,
      "Ġbelonging": 7061,
      "Ġsnowy": 7062,
      "Ġblew": 7063,
      "Ġpriest": 7064,
      "Ġmystical": 7065,
      "object": 7066,
      "Ġcease": 7067,
      "Ġrocking": 7068,
      "Ġrecovered": 7069,
      "Ġinteresting": 7070,
      "passes": 7071,
      "abouts": 7072,
      "Ġviciss": 7073,
      "lecting": 7074,
      "Ġlurks": 7075,
      "Ġlurking": 7076,
      "Ġlurked": 7077,
      "Ġhastily": 7078,
      "Ġshrouds": 7079,
      "particular": 7080,
      "surface": 7081,
      "ĠArch": 7082,
      "Ġuncomfortable": 7083,
      "Ġjudge": 7084,
      "Ġimmemor": 7085,
      "Ġsilvery": 7086,
      "Ġschools": 7087,
      "Ġsupply": 7088,
      "Ġdestined": 7089,
      "AND": 7090,
      "Ġmovement": 7091,
      "Ġgirls": 7092,
      "Ġscrat": 7093,
      "Ġpromise": 7094,
      "uzza": 7095,
      "Ġeagerly": 7096,
      "Ġeagerness": 7097,
      "Ġannihil": 7098,
      "Peleg": 7099,
      "Ġcontrivances": 7100,
      "Ġtimber": 7101,
      "Ġtongs": 7102,
      "plicable": 7103,
      "plicated": 7104,
      "Ġsensible": 7105,
      "Ġmountains": 7106,
      "Ġestab": 7107,
      "Ġangle": 7108,
      "sleep": 7109,
      "Ġwounded": 7110,
      "Ġfrightened": 7111,
      "Ġignorant": 7112,
      "break": 7113,
      "Ġmedic": 7114,
      "iculty": 7115,
      "Ġapartment": 7116,
      "Ġscarcely": 7117,
      "Ġtubs": 7118,
      "engaged": 7119,
      "Ġdelicacy": 7120,
      "Ġdismal": 7121,
      "hardly": 7122,
      "Ġlandsman": 7123,
      "boys": 7124,
      "ĠBlack": 7125,
      "Ġknocking": 7126,
      "Ġswallow": 7127,
      "Ġpunch": 7128,
      "Ġloudly": 7129,
      "Ġearnestly": 7130,
      "twenty": 7131,
      "Ġwithdrawing": 7132,
      "Ġranged": 7133,
      "Ġrequires": 7134,
      "Ġshuddering": 7135,
      "Ġvanished": 7136,
      "Ġconvey": 7137,
      "Ġswaying": 7138,
      "Ġswayed": 7139,
      "Ġfowl": 7140,
      "ancholy": 7141,
      "leece": 7142,
      "Ġpotent": 7143,
      "Ġeffort": 7144,
      "Ġweapons": 7145,
      "ĠProv": 7146,
      "Ġperfectly": 7147,
      "close": 7148,
      "Ġbidding": 7149,
      "Ġinnermost": 7150,
      "Ġgeomet": 7151,
      "Ġstorms": 7152,
      "Ġspectacle": 7153,
      "Ġconfidential": 7154,
      "burgh": 7155,
      "darkness": 7156,
      "Ġfetch": 7157,
      "Ġgestures": 7158,
      "iciently": 7159,
      "Ġconsequence": 7160,
      "Ġunconscious": 7161,
      "Ġcomrades": 7162,
      "Ġverdure": 7163,
      "Ġinferior": 7164,
      "Ġdescribed": 7165,
      "Ġmajestic": 7166,
      "picuous": 7167,
      "intellig": 7168,
      "children": 7169,
      "Ġangels": 7170,
      "Ġsuspic": 7171,
      "Ġproblem": 7172,
      "vessels": 7173,
      "Ġdiminished": 7174,
      "ĠSpanish": 7175,
      "Ġdeliberately": 7176,
      "Ġbaleen": 7177,
      "Ġgulf": 7178,
      "Ġstubborn": 7179,
      "ĠTurk": 7180,
      "ĠAfrica": 7181,
      "Ġvengeance": 7182,
      "necessary": 7183,
      "Ġaccursed": 7184,
      "Ġservice": 7185,
      "Ġtiger": 7186,
      "ostrils": 7187,
      "ĠCarpenter": 7188,
      "Ġsplintered": 7189,
      "Ġdollars": 7190,
      "Ġgraceful": 7191,
      "Ġglistening": 7192,
      "Ġobliquely": 7193,
      "Ġendeav": 7194,
      "Ġtechnically": 7195,
      "bolts": 7196,
      "ealand": 7197,
      "Ġbunch": 7198,
      "Ġmasonry": 7199,
      "Ġfalse": 7200,
      "original": 7201,
      "Ġloung": 7202,
      "seamen": 7203,
      "Ġultimate": 7204,
      "Ġunspeakable": 7205,
      "ĠHistory": 7206,
      "Ġsparkling": 7207,
      "Ġplunged": 7208,
      "Ġavoid": 7209,
      "Ġghastly": 7210,
      "ĠMonsieur": 7211,
      "Ġjourney": 7212,
      "Ġtransparent": 7213,
      "iterranean": 7214,
      "Ġtobacco": 7215,
      "ĠSolomon": 7216,
      "ĠBachelor": 7217,
      "Ġbranches": 7218,
      "ieroglyph": 7219,
      "20": 7220,
      "50": 7221,
      "AS": 7222,
      "Are": 7223,
      "Again": 7224,
      "Aloft": 7225,
      "Back": 7226,
      "Cook": 7227,
      "Don": 7228,
      "Down": 7229,
      "EC": 7230,
      "Every": 7231,
      "EQU": 7232,
      "From": 7233,
      "Flask": 7234,
      "Folio": 7235,
      "Give": 7236,
      "Ha": 7237,
      "Hast": 7238,
      "Hands": 7239,
      "IP": 7240,
      "OF": 7241,
      "Octavo": 7242,
      "RO": 7243,
      "Rose": 7244,
      "Sp": 7245,
      "Suddenly": 7246,
      "Tashtego": 7247,
      "aud": 7248,
      "bal": 7249,
      "bers": 7250,
      "bust": 7251,
      "breat": 7252,
      "bag": 7253,
      "bye": 7254,
      "bits": 7255,
      "beneath": 7256,
      "cation": 7257,
      "cles": 7258,
      "dem": 7259,
      "ders": 7260,
      "different": 7261,
      "eous": 7262,
      "eves": 7263,
      "ecess": 7264,
      "epest": 7265,
      "field": 7266,
      "frie": 7267,
      "further": 7268,
      "fallen": 7269,
      "frequ": 7270,
      "gro": 7271,
      "gul": 7272,
      "gun": 7273,
      "gust": 7274,
      "game": 7275,
      "gue": 7276,
      "gging": 7277,
      "hish": 7278,
      "hung": 7279,
      "ias": 7280,
      "ius": 7281,
      "ique": 7282,
      "ieth": 7283,
      "jet": 7284,
      "ko": 7285,
      "luck": 7286,
      "lies": 7287,
      "lower": 7288,
      "mas": 7289,
      "mic": 7290,
      "maid": 7291,
      "nes": 7292,
      "nam": 7293,
      "nel": 7294,
      "name": 7295,
      "nels": 7296,
      "oil": 7297,
      "obo": 7298,
      "ohog": 7299,
      "post": 7300,
      "pans": 7301,
      "prom": 7302,
      "pike": 7303,
      "rs": 7304,
      "run": 7305,
      "rate": 7306,
      "rather": 7307,
      "rised": 7308,
      "rayed": 7309,
      "sat": 7310,
      "sal": 7311,
      "sent": 7312,
      "ske": 7313,
      "sus": 7314,
      "spo": 7315,
      "sav": 7316,
      "sens": 7317,
      "saw": 7318,
      "six": 7319,
      "since": 7320,
      "saying": 7321,
      "tur": 7322,
      "tion": 7323,
      "touch": 7324,
      "uing": 7325,
      "vable": 7326,
      "vance": 7327,
      "vail": 7328,
      "visible": 7329,
      "vading": 7330,
      "wen": 7331,
      "words": 7332,
      "yr": 7333,
      "yle": 7334,
      "Ġvest": 7335,
      "Ġtu": 7336,
      "Ġtant": 7337,
      "Ġtone": 7338,
      "Ġtons": 7339,
      "Ġtang": 7340,
      "Ġtread": 7341,
      "Ġtawn": 7342,
      "Ġtext": 7343,
      "Ġtapers": 7344,
      "hee": 7345,
      "hear": 7346,
      "Ġapt": 7347,
      "Ġawhile": 7348,
      "inery": 7349,
      "Ġsom": 7350,
      "Ġsong": 7351,
      "Ġsine": 7352,
      "Ġsister": 7353,
      "Ġwaving": 7354,
      "Ġwasted": 7355,
      "Ġwaved": 7356,
      "repid": 7357,
      "ndid": 7358,
      "ndered": 7359,
      "ndants": 7360,
      "eries": 7361,
      "Ġbas": 7362,
      "Ġbred": 7363,
      "Ġbrig": 7364,
      "Ġbiscuit": 7365,
      "isk": 7366,
      "eded": 7367,
      "itself": 7368,
      "iture": 7369,
      "itals": 7370,
      "Ġmoored": 7371,
      "oup": 7372,
      "ouis": 7373,
      "Ġful": 7374,
      "Ġfab": 7375,
      "Ġfren": 7376,
      "Ġfailed": 7377,
      "Ġoft": 7378,
      "Ġcu": 7379,
      "Ġcy": 7380,
      "Ġcost": 7381,
      "Ġcof": 7382,
      "Ġcash": 7383,
      "ongest": 7384,
      "enger": 7385,
      "orously": 7386,
      "arman": 7387,
      "arian": 7388,
      "arming": 7389,
      "arches": 7390,
      "Ġinhab": 7391,
      "Ġinland": 7392,
      "Ġinfl": 7393,
      "Ġinhuman": 7394,
      "Ġinnum": 7395,
      "stir": 7396,
      "stell": 7397,
      "story": 7398,
      "stock": 7399,
      "storm": 7400,
      "anation": 7401,
      "Ġtool": 7402,
      "Ġhilar": 7403,
      "Ġhyp": 7404,
      "Ġhieroglyph": 7405,
      "ators": 7406,
      "Ġdu": 7407,
      "Ġdom": 7408,
      "Ġdod": 7409,
      "Ġdies": 7410,
      "Ġdining": 7411,
      "Ġdashing": 7412,
      "Ġdotted": 7413,
      "Ġdazz": 7414,
      "Ġpin": 7415,
      "Ġpor": 7416,
      "Ġpack": 7417,
      "Ġpag": 7418,
      "Ġpike": 7419,
      "Ġpots": 7420,
      "Ġpush": 7421,
      "Ġpivot": 7422,
      "Ġlot": 7423,
      "Ġlash": 7424,
      "Ġlbs": 7425,
      "asks": 7426,
      "asping": 7427,
      "asmuch": 7428,
      "ascal": 7429,
      "Ġnap": 7430,
      "ĠIm": 7431,
      "uts": 7432,
      "Ġhem": 7433,
      "Ġhal": 7434,
      "Ġhailing": 7435,
      "imen": 7436,
      "immediately": 7437,
      "Ġbeard": 7438,
      "Ġbeasts": 7439,
      "Ġgn": 7440,
      "Ġgue": 7441,
      "Ġgrie": 7442,
      "Ġgames": 7443,
      "Ġeyed": 7444,
      "othe": 7445,
      "otent": 7446,
      "alous": 7447,
      "access": 7448,
      "idents": 7449,
      "verance": 7450,
      "Ġstun": 7451,
      "Ġstick": 7452,
      "Ġstories": 7453,
      "Ġsticking": 7454,
      "Ġstooping": 7455,
      "Ġstomach": 7456,
      "ethe": 7457,
      "irty": 7458,
      "irts": 7459,
      "enth": 7460,
      "entat": 7461,
      "entire": 7462,
      "entimes": 7463,
      "entively": 7464,
      "thed": 7465,
      "thee": 7466,
      "Ġsell": 7467,
      "Ġseals": 7468,
      "Ġsemi": 7469,
      "Ġwash": 7470,
      "urre": 7471,
      "Ġassail": 7472,
      "Ġasleep": 7473,
      "Ġrif": 7474,
      "Ġrout": 7475,
      "Ġripe": 7476,
      "Ġrays": 7477,
      "Ġforged": 7478,
      "Ġforbear": 7479,
      "Ġwhim": 7480,
      "Ġwhip": 7481,
      "Ġretain": 7482,
      "Ġreign": 7483,
      "cending": 7484,
      "ĠTom": 7485,
      "ĠTah": 7486,
      "ilty": 7487,
      "Ġweaving": 7488,
      "amm": 7489,
      "amn": 7490,
      "ĠAre": 7491,
      "ĠAge": 7492,
      "ĠAgain": 7493,
      "Ġallowed": 7494,
      "ĠST": 7495,
      "ĠSm": 7496,
      "ĠSal": 7497,
      "ĠSurely": 7498,
      "ĠSouthern": 7499,
      "allic": 7500,
      "rose": 7501,
      "roded": 7502,
      "asting": 7503,
      "Ġsober": 7504,
      "Ġsupre": 7505,
      "Ġsult": 7506,
      "quis": 7507,
      "quiet": 7508,
      "Ġshowing": 7509,
      "Ġshining": 7510,
      "Ġshores": 7511,
      "Ġshuttle": 7512,
      "Ġfruits": 7513,
      "Ġnote": 7514,
      "Ġmead": 7515,
      "Ġmeals": 7516,
      "thick": 7517,
      "Ġuprising": 7518,
      "Ġwhalebone": 7519,
      "Ġdeaf": 7520,
      "Ġdestruction": 7521,
      "gestion": 7522,
      "abor": 7523,
      "abol": 7524,
      "above": 7525,
      "abama": 7526,
      "abaco": 7527,
      "apted": 7528,
      "ĠBen": 7529,
      "ĠBas": 7530,
      "Ġvirgin": 7531,
      "riage": 7532,
      "ribut": 7533,
      "ctor": 7534,
      "ĠWoe": 7535,
      "unless": 7536,
      "unknown": 7537,
      "erson": 7538,
      "ums": 7539,
      "umpt": 7540,
      "umber": 7541,
      "uments": 7542,
      "Ġordered": 7543,
      "outon": 7544,
      "arts": 7545,
      "Ġbolted": 7546,
      "Ġbosom": 7547,
      "Ġliber": 7548,
      "Ġconstr": 7549,
      "Ġcontaining": 7550,
      "Ġconsternation": 7551,
      "Ġconclusion": 7552,
      "rait": 7553,
      "raged": 7554,
      "hanging": 7555,
      "ĠTheir": 7556,
      "owne": 7557,
      "using": 7558,
      "usants": 7559,
      "Ġalarmed": 7560,
      "Ġtherein": 7561,
      "else": 7562,
      "poling": 7563,
      "ĠPur": 7564,
      "ĠProp": 7565,
      "ĠPeter": 7566,
      "ĠPEQU": 7567,
      "Ġuniver": 7568,
      "Ġunited": 7569,
      "Ġunnatural": 7570,
      "Ġunreason": 7571,
      "lobe": 7572,
      "ĠCl": 7573,
      "ĠCXXX": 7574,
      "ĠCabaco": 7575,
      "istible": 7576,
      "istical": 7577,
      "istinct": 7578,
      "inder": 7579,
      "ĠHum": 7580,
      "Ġkicked": 7581,
      "Ġfever": 7582,
      "Ġfeather": 7583,
      "Ġcomment": 7584,
      "Ġcompl": 7585,
      "Ġcomplicated": 7586,
      "ĠMal": 7587,
      "ĠMace": 7588,
      "ĠMary": 7589,
      "ĠMEET": 7590,
      "Ġspar": 7591,
      "Ġspots": 7592,
      "Ġspires": 7593,
      "agger": 7594,
      "Ġjot": 7595,
      "Ġjets": 7596,
      "ĠFear": 7597,
      "Ġthence": 7598,
      "Ġyelled": 7599,
      "Ġagent": 7600,
      "Ġdogs": 7601,
      "itect": 7602,
      "ĠStates": 7603,
      "iless": 7604,
      "ilege": 7605,
      "Ġblade": 7606,
      "Ġblowing": 7607,
      "Ġblades": 7608,
      "Ġblasted": 7609,
      "Ġblazing": 7610,
      "Ġplight": 7611,
      "Ġplaus": 7612,
      "Ġpoles": 7613,
      "Ġpolished": 7614,
      "Ġseeming": 7615,
      "Ġworked": 7616,
      "west": 7617,
      "ibb": 7618,
      "ava": 7619,
      "teeth": 7620,
      "ĠDan": 7621,
      "forecastle": 7622,
      "ĠLo": 7623,
      "ĠLong": 7624,
      "ĠLouis": 7625,
      "Ġproc": 7626,
      "become": 7627,
      "bearer": 7628,
      "Ġroar": 7629,
      "Ġhandspikes": 7630,
      "Ġtwin": 7631,
      "ĠGive": 7632,
      "inked": 7633,
      "Ġshade": 7634,
      "Ġshapes": 7635,
      "Ġshaggy": 7636,
      "Ġheaded": 7637,
      "Ġbrit": 7638,
      "Ġbrute": 7639,
      "Ġgrin": 7640,
      "Ġhovered": 7641,
      "yellow": 7642,
      "Ġflitting": 7643,
      "Ġflashed": 7644,
      "ĠAndes": 7645,
      "Ġwatches": 7646,
      "Ġperf": 7647,
      "Ġcopper": 7648,
      "agement": 7649,
      "Ġparted": 7650,
      "Ġimple": 7651,
      "Ġimminent": 7652,
      "ĠOri": 7653,
      "Ġenl": 7654,
      "ancient": 7655,
      "elled": 7656,
      "holes": 7657,
      "Ġsmack": 7658,
      "Ġsmile": 7659,
      "Ġsmiling": 7660,
      "Ġsmiting": 7661,
      "Ġhereabouts": 7662,
      "Ġscience": 7663,
      "Ġslide": 7664,
      "Ġquo": 7665,
      "Ġdidst": 7666,
      "covered": 7667,
      "cogn": 7668,
      "Ġcouldn": 7669,
      "ĠEr": 7670,
      "ĠEast": 7671,
      "ĠEnderby": 7672,
      "Ġdismast": 7673,
      "Ġdisengaged": 7674,
      "Ġmightiest": 7675,
      "Ġcrushed": 7676,
      "arying": 7677,
      "Ġglowing": 7678,
      "Ġremotest": 7679,
      "mention": 7680,
      "Ġadmon": 7681,
      "Ġadapted": 7682,
      "clining": 7683,
      "Ġeverywhere": 7684,
      "Ġspears": 7685,
      "Ġspecially": 7686,
      "ĠRe": 7687,
      "action": 7688,
      "anged": 7689,
      "ernible": 7690,
      "Ġcontro": 7691,
      "soon": 7692,
      "Ġkeels": 7693,
      "Ġchoose": 7694,
      "Ġchowder": 7695,
      "Ġobl": 7696,
      "Ġobtained": 7697,
      "ĠYour": 7698,
      "ĠYarman": 7699,
      "merce": 7700,
      "Ġpresumed": 7701,
      "Ġshel": 7702,
      "Ġsheep": 7703,
      "Ġentering": 7704,
      "Ġconspicuous": 7705,
      "mechan": 7706,
      "measure": 7707,
      "mendous": 7708,
      "Ġsubt": 7709,
      "Ġsublime": 7710,
      "Ġopposing": 7711,
      "Ġdistress": 7712,
      "exact": 7713,
      "Ġaccordingly": 7714,
      "Ġaccustomed": 7715,
      "spot": 7716,
      "Ġbelieved": 7717,
      "azed": 7718,
      "Ġlandsc": 7719,
      "suing": 7720,
      "Ġinterrupt": 7721,
      "ĠSoon": 7722,
      "Ġsurm": 7723,
      "Ġsurve": 7724,
      "concluded": 7725,
      "Ġforest": 7726,
      "Ġforeign": 7727,
      "Ġcurling": 7728,
      "Ġapplied": 7729,
      "structed": 7730,
      "ĠThy": 7731,
      "ĠThree": 7732,
      "ĠThose": 7733,
      "grown": 7734,
      "Ġincap": 7735,
      "Ġincarn": 7736,
      "Ġincident": 7737,
      "Ġhearty": 7738,
      "Ġpurple": 7739,
      "Ġmoves": 7740,
      "fins": 7741,
      "ugitive": 7742,
      "Ġtears": 7743,
      "Ġteach": 7744,
      "Ġcircling": 7745,
      "Ġdripping": 7746,
      "Ġloving": 7747,
      "mbling": 7748,
      "Ġwrit": 7749,
      "Ġwrist": 7750,
      "Ġmargin": 7751,
      "ictions": 7752,
      "Ġindifference": 7753,
      "Ġinduce": 7754,
      "Ġindistinct": 7755,
      "Inn": 7756,
      "scuttle": 7757,
      "Ġbury": 7758,
      "ethinks": 7759,
      "pring": 7760,
      "ĠVen": 7761,
      "ĠVishnoo": 7762,
      "Ġcheek": 7763,
      "Ġpresents": 7764,
      "Ġchances": 7765,
      "Ġlaying": 7766,
      "Ġpossibility": 7767,
      "Ġnewly": 7768,
      "Ġsounded": 7769,
      "Ġdoubted": 7770,
      "Ġsleeps": 7771,
      "Ġcorrid": 7772,
      "ĠMogul": 7773,
      "Ġfasten": 7774,
      "brown": 7775,
      "young": 7776,
      "Ġhated": 7777,
      "Ġhatches": 7778,
      "Ġreturning": 7779,
      "Ġemotion": 7780,
      "Ġsnap": 7781,
      "Ġintrod": 7782,
      "Ġintrepid": 7783,
      "Ġdirected": 7784,
      "Ġbestir": 7785,
      "ĠSeas": 7786,
      "Ġpeculiarly": 7787,
      "Ġresult": 7788,
      "Ġdeeply": 7789,
      "Ġsmoked": 7790,
      "Thr": 7791,
      "longer": 7792,
      "Ġactual": 7793,
      "phur": 7794,
      "Ġboarded": 7795,
      "ological": 7796,
      "Ġhomeward": 7797,
      "Ġprofile": 7798,
      "Ġprofane": 7799,
      "remember": 7800,
      "Ġstriving": 7801,
      "Ġsoliloqu": 7802,
      "Ġconsiderations": 7803,
      "Ġaware": 7804,
      "Ġseriously": 7805,
      "Ġcircumnavig": 7806,
      "Ġtables": 7807,
      "Ġtablets": 7808,
      "Ġadvances": 7809,
      "Ġadvantage": 7810,
      "forty": 7811,
      "sword": 7812,
      "Ġinsens": 7813,
      "Ġmassive": 7814,
      "Ġcourses": 7815,
      "Ġappears": 7816,
      "Ġwidely": 7817,
      "Ġbowsman": 7818,
      "Ġsupernatural": 7819,
      "Ġheadsman": 7820,
      "Ġfinest": 7821,
      "Ġhundreds": 7822,
      "Ġfacts": 7823,
      "Ġmurdered": 7824,
      "Ġassist": 7825,
      "Ġbreathe": 7826,
      "Ġflee": 7827,
      "Ġdecent": 7828,
      "ĠYoung": 7829,
      "volent": 7830,
      "Ġ16": 7831,
      "Ġmetallic": 7832,
      "Ġpleasure": 7833,
      "Ġpleased": 7834,
      "Ġtremendous": 7835,
      "Ġguard": 7836,
      "Ġspiral": 7837,
      "Ġtribe": 7838,
      "Ġpalace": 7839,
      "Ġpersonally": 7840,
      "Ġmutual": 7841,
      "Ġcasting": 7842,
      "Ġdetail": 7843,
      "Ġdreaming": 7844,
      "Ġparl": 7845,
      "Ġcondition": 7846,
      "Ġrecall": 7847,
      "appeared": 7848,
      "moon": 7849,
      "molest": 7850,
      "slowly": 7851,
      "Ġcooked": 7852,
      "Ġlimb": 7853,
      "Ġbreakers": 7854,
      "Ġveil": 7855,
      "Ġhurled": 7856,
      "Ġstepped": 7857,
      "Ġstepping": 7858,
      "Ġproceeding": 7859,
      "Ġdescent": 7860,
      "awned": 7861,
      "Ġtalking": 7862,
      "Ġfatality": 7863,
      "Ġembark": 7864,
      "Ġembalmed": 7865,
      "Ġshoot": 7866,
      "Ġshoals": 7867,
      "Ġproduced": 7868,
      "obser": 7869,
      "Ġceremon": 7870,
      "ĠIsland": 7871,
      "ends": 7872,
      "Ġidle": 7873,
      "Ġstole": 7874,
      "Ġrecover": 7875,
      "Ġglasses": 7876,
      "drawn": 7877,
      "Ġviolence": 7878,
      "passed": 7879,
      "shaped": 7880,
      "Ġrule": 7881,
      "Ġcoasts": 7882,
      "Ġdescended": 7883,
      "porary": 7884,
      "Ġlurk": 7885,
      "Ġeffected": 7886,
      "Ġeventually": 7887,
      "Ġeternally": 7888,
      "Ġseparately": 7889,
      "Ġsuffering": 7890,
      "ĠCanallers": 7891,
      "Ġiceber": 7892,
      "Ġboundless": 7893,
      "acetti": 7894,
      "Ġdeclare": 7895,
      "Ġaddress": 7896,
      "Ġaddressed": 7897,
      "ANTU": 7898,
      "horse": 7899,
      "Ġgirl": 7900,
      "Ġgirth": 7901,
      "However": 7902,
      "chest": 7903,
      "ĠWherefore": 7904,
      "hames": 7905,
      "hammock": 7906,
      "Ġmember": 7907,
      "ĠHoly": 7908,
      "Ġmalicious": 7909,
      "idelburgh": 7910,
      "Ġcheerful": 7911,
      "useum": 7912,
      "Ġdusty": 7913,
      "Ġpanels": 7914,
      "Ġanchors": 7915,
      "Ġsensation": 7916,
      "Ġeste": 7917,
      "Ġsuccession": 7918,
      "Ġdevout": 7919,
      "Ġvigorous": 7920,
      "ĠCommodore": 7921,
      "Ġnecessary": 7922,
      "Ġpopulation": 7923,
      "Ġsurprised": 7924,
      "Ġcorpusants": 7925,
      "sleeping": 7926,
      "Ġchocks": 7927,
      "Ġdiam": 7928,
      "Ġdiabol": 7929,
      "Ġpenetr": 7930,
      "ĠFrenchman": 7931,
      "Ġlogger": 7932,
      "Ġgunwales": 7933,
      "orpoises": 7934,
      "arius": 7935,
      "Ġvolume": 7936,
      "Ġstretch": 7937,
      "Ġstretching": 7938,
      "Ġ183": 7939,
      "Because": 7940,
      "Ġbreadth": 7941,
      "Ġgrasping": 7942,
      "Ġincreasing": 7943,
      "Ġuncommonly": 7944,
      "broad": 7945,
      "mighty": 7946,
      "Ġmothers": 7947,
      "Ġhooks": 7948,
      "Ġmysteries": 7949,
      "riggling": 7950,
      "Ġnoiseless": 7951,
      "Ġknocked": 7952,
      "Ġprovided": 7953,
      "Ġsignificance": 7954,
      "Ġbuildings": 7955,
      "Ġsloping": 7956,
      "Ġfaithful": 7957,
      "Ġderive": 7958,
      "Ġcomparison": 7959,
      "Ġcomparatively": 7960,
      "Ġphantoms": 7961,
      "Ġwithdrawn": 7962,
      "Ġranging": 7963,
      "Ġshudder": 7964,
      "Ġextremely": 7965,
      "following": 7966,
      "followed": 7967,
      "Ġdestroy": 7968,
      "Ġtreated": 7969,
      "Ġfields": 7970,
      "Ġdifficulty": 7971,
      "Ġpuffs": 7972,
      "Ġvibrating": 7973,
      "Ġpreserve": 7974,
      "Ġsystemat": 7975,
      "Ġfero": 7976,
      "Ġcongenial": 7977,
      "Ġwhirl": 7978,
      "Ġabandon": 7979,
      "Ġimperial": 7980,
      "Ġprayers": 7981,
      "Ġsurvive": 7982,
      "continently": 7983,
      "Ġpallor": 7984,
      "Ġpallid": 7985,
      "Ġhauled": 7986,
      "avoid": 7987,
      "superstit": 7988,
      "sufferable": 7989,
      "Ġmurderous": 7990,
      "vocation": 7991,
      "Ġbuoyant": 7992,
      "Ġwedding": 7993,
      "Ġwrecked": 7994,
      "Ġcounterpane": 7995,
      "ĠBrowne": 7996,
      "Ġcomrade": 7997,
      "Ġdistinguish": 7998,
      "Ġdistinguished": 7999,
      "Ġpassionate": 8000,
      "Ġquestions": 8001,
      "generally": 8002,
      "similar": 8003,
      "sharp": 8004,
      "Ġidentical": 8005,
      "Ġsacred": 8006,
      "Ġpublished": 8007,
      "Ġthreads": 8008,
      "ĠSunda": 8009,
      "ĠSunday": 8010,
      "ĠCharity": 8011,
      "Ġexhausted": 8012,
      "ĠGrand": 8013,
      "Ġharmless": 8014,
      "Ġadventure": 8015,
      "Ġ177": 8016,
      "circumstance": 8017,
      "Ġapprehension": 8018,
      "middle": 8019,
      "Ġtapering": 8020,
      "Ġinfluence": 8021,
      "Ġfrigate": 8022,
      "Ġmeasured": 8023,
      "Ġdexterous": 8024,
      "Ġcorrect": 8025,
      "Ġrepresenting": 8026,
      "Ġphilosopher": 8027,
      "Ġexclamation": 8028,
      "Ġvigilance": 8029,
      "Ġsuggested": 8030,
      "civilized": 8031,
      "occasion": 8032,
      "Ġsqueeze": 8033,
      "Ġmagic": 8034,
      "Ġinscrutable": 8035,
      "Ġgaunt": 8036,
      "seventy": 8037,
      "Ġwelcome": 8038,
      "Ġneighbor": 8039,
      "Ġquadrant": 8040,
      "Ġfolds": 8041,
      "Ġcontempl": 8042,
      "cruising": 8043,
      "Ġaccomplished": 8044,
      "Ġjeopardy": 8045,
      "spread": 8046,
      "Ġwrenched": 8047,
      "Ġcounsel": 8048,
      "imagin": 8049,
      "Ġrubbing": 8050,
      "quarter": 8051,
      "Ġaggreg": 8052,
      "feeder": 8053,
      "Ġenemy": 8054,
      "Ġchimney": 8055,
      "Ġsubterranean": 8056,
      "Ġintellectual": 8057,
      "Ġawaiting": 8058,
      "Ġencountering": 8059,
      "Ġheathenish": 8060,
      "Ġbrawny": 8061,
      "Ġexcitement": 8062,
      "English": 8063,
      "vanished": 8064,
      "Ġmizen": 8065,
      "Ġhereditary": 8066,
      "Ġrescue": 8067,
      "ĠTyphoon": 8068,
      "Ġanxious": 8069,
      "ulsively": 8070,
      "Ġpolite": 8071,
      "Ġtraditions": 8072,
      "Ġtrumpet": 8073,
      "ĠOverworld": 8074,
      "Ġpreliminary": 8075,
      "Ġadrift": 8076,
      "ĠJerobo": 8077,
      "success": 8078,
      "Ġindependent": 8079,
      "Ġplaintiffs": 8080,
      "Ġpropriet": 8081,
      "Ġdelirium": 8082,
      "Ġinquiry": 8083,
      "Ġsymptoms": 8084,
      "aurus": 8085,
      "fashioned": 8086,
      "Ġsidelong": 8087,
      "Ġwoollen": 8088,
      "Ġfibres": 8089,
      "Ġpipes": 8090,
      "Ġserenity": 8091,
      "ĠTarshish": 8092,
      "ulkington": 8093,
      "Ġsagacious": 8094,
      "ĠHurrah": 8095,
      "Ġsteersman": 8096,
      "Ġclenched": 8097,
      "ysiogn": 8098,
      "Ġvicissitudes": 8099,
      "Ġcoffee": 8100,
      "Ġinhabit": 8101,
      "Ġinnumerable": 8102,
      "Ġguests": 8103,
      "ĠPEQUOD": 8104,
      "Ġuniverse": 8105,
      "ĠMEETS": 8106,
      "ANTUCKET": 8107,
      "ĠJeroboam": 8108,
      ".)": 8109,
      ".,": 8110,
      "51": 8111,
      "?_": 8112,
      "Ab": 8113,
      "Ad": 8114,
      "AHA": 8115,
      "BU": 8116,
      "BY": 8117,
      "Bel": 8118,
      "Cl": 8119,
      "Cle": 8120,
      "Cor": 8121,
      "Com": 8122,
      "CXXX": 8123,
      "Dimension": 8124,
      "EG": 8125,
      "Ex": 8126,
      "Even": 8127,
      "ECK": 8128,
      "Eloi": 8129,
      "Fin": 8130,
      "ID": 8131,
      "Ind": 8132,
      "Just": 8133,
      "John": 8134,
      "LI": 8135,
      "Lay": 8136,
      "Land": 8137,
      "Lord": 8138,
      "May": 8139,
      "Mast": 8140,
      "Machine": 8141,
      "Never": 8142,
      "Next": 8143,
      "Over": 8144,
      "Pres": 8145,
      "SE": 8146,
      "Sh": 8147,
      "Sha": 8148,
      "Sub": 8149,
      "Stern": 8150,
      "UB": 8151,
      "Whether": 8152,
      "Yet": 8153,
      "_âĢĶ": 8154,
      "bra": 8155,
      "bull": 8156,
      "bare": 8157,
      "brew": 8158,
      "bler": 8159,
      "bury": 8160,
      "books": 8161,
      "caught": 8162,
      "coffin": 8163,
      "coward": 8164,
      "dim": 8165,
      "det": 8166,
      "dain": 8167,
      "dam": 8168,
      "dish": 8169,
      "drew": 8170,
      "doub": 8171,
      "eb": 8172,
      "either": 8173,
      "event": 8174,
      "ended": 8175,
      "fre": 8176,
      "fur": 8177,
      "fam": 8178,
      "free": 8179,
      "father": 8180,
      "firm": 8181,
      "flesh": 8182,
      "fleet": 8183,
      "gg": 8184,
      "gre": 8185,
      "grew": 8186,
      "home": 8187,
      "hook": 8188,
      "horr": 8189,
      "honor": 8190,
      "iable": 8191,
      "iated": 8192,
      "jac": 8193,
      "jured": 8194,
      "kens": 8195,
      "kins": 8196,
      "lu": 8197,
      "lve": 8198,
      "lur": 8199,
      "lag": 8200,
      "lie": 8201,
      "lorn": 8202,
      "lances": 8203,
      "laid": 8204,
      "loose": 8205,
      "mou": 8206,
      "mother": 8207,
      "mits": 8208,
      "machine": 8209,
      "non": 8210,
      "ole": 8211,
      "oll": 8212,
      "oper": 8213,
      "oked": 8214,
      "pin": 8215,
      "pir": 8216,
      "pul": 8217,
      "pable": 8218,
      "ration": 8219,
      "rings": 8220,
      "rase": 8221,
      "sir": 8222,
      "sad": 8223,
      "sch": 8224,
      "sum": 8225,
      "sure": 8226,
      "sol": 8227,
      "spl": 8228,
      "soft": 8229,
      "sky": 8230,
      "tall": 8231,
      "tri": 8232,
      "took": 8233,
      "ture": 8234,
      "ties": 8235,
      "tling": 8236,
      "ttom": 8237,
      "turning": 8238,
      "ux": 8239,
      "ules": 8240,
      "uary": 8241,
      "ufact": 8242,
      "ulence": 8243,
      "vis": 8244,
      "vap": 8245,
      "vity": 8246,
      "wa": 8247,
      "whe": 8248,
      "wter": 8249,
      "wling": 8250,
      "whis": 8251,
      "worn": 8252,
      "whel": 8253,
      "xes": 8254,
      "yt": 8255,
      "yards": 8256,
      "zar": 8257,
      "zes": 8258,
      "zard": 8259,
      "zure": 8260,
      "zber": 8261,
      "Ã©": 8262,
      "Ġer": 8263,
      "Ġtick": 8264,
      "Ġtides": 8265,
      "Ġtaught": 8266,
      "Ġtones": 8267,
      "Ġtaffrail": 8268,
      "hent": 8269,
      "hears": 8270,
      "heaven": 8271,
      "Ġale": 8272,
      "Ġaim": 8273,
      "Ġaver": 8274,
      "Ġach": 8275,
      "Ġape": 8276,
      "Ġaint": 8277,
      "Ġahoy": 8278,
      "Ġavail": 8279,
      "Ġazure": 8280,
      "inst": 8281,
      "inth": 8282,
      "invest": 8283,
      "influ": 8284,
      "inisc": 8285,
      "Ġsap": 8286,
      "Ġsig": 8287,
      "Ġsour": 8288,
      "Ġsits": 8289,
      "Ġsized": 8290,
      "Ġost": 8291,
      "Ġoily": 8292,
      "Ġwre": 8293,
      "Ġwight": 8294,
      "Ġwaking": 8295,
      "Ġwane": 8296,
      "Ġwrest": 8297,
      "Ġwoof": 8298,
      "Ġwriggling": 8299,
      "rete": 8300,
      "reary": 8301,
      "rets": 8302,
      "haled": 8303,
      "haired": 8304,
      "eral": 8305,
      "erate": 8306,
      "erness": 8307,
      "Ġbay": 8308,
      "Ġbough": 8309,
      "Ġbust": 8310,
      "Ġbitt": 8311,
      "Ġbrew": 8312,
      "Ġbaw": 8313,
      "Ġbund": 8314,
      "Ġbarn": 8315,
      "Ġburned": 8316,
      "Ġbony": 8317,
      "Ġbuffalo": 8318,
      "ishe": 8319,
      "isle": 8320,
      "isure": 8321,
      "istern": 8322,
      "isdom": 8323,
      "edar": 8324,
      "edge": 8325,
      "Ġmap": 8326,
      "Ġmant": 8327,
      "Ġmess": 8328,
      "Ġmak": 8329,
      "Ġmace": 8330,
      "Ġmumbling": 8331,
      "Ġmuseum": 8332,
      "âĢ¦": 8333,
      "Ġfut": 8334,
      "Ġfem": 8335,
      "Ġfel": 8336,
      "Ġfol": 8337,
      "Ġfix": 8338,
      "Ġfacet": 8339,
      "Ġfaded": 8340,
      "Ġfugitive": 8341,
      "left": 8342,
      "leviathan": 8343,
      "lebr": 8344,
      "leader": 8345,
      "Ġcart": 8346,
      "Ġcave": 8347,
      "Ġcowards": 8348,
      "Ġcedar": 8349,
      "onn": 8350,
      "onation": 8351,
      "onted": 8352,
      "enious": 8353,
      "enetr": 8354,
      "arctic": 8355,
      "Ġink": 8356,
      "Ġinverted": 8357,
      "Ġineff": 8358,
      "Ġinasmuch": 8359,
      "Ġinsufferable": 8360,
      "anite": 8361,
      "anque": 8362,
      "Ġtops": 8363,
      "Ġtolerable": 8364,
      "Ġhol": 8365,
      "Ġhug": 8366,
      "Ġhoof": 8367,
      "Ġhoney": 8368,
      "Ġhomage": 8369,
      "atin": 8370,
      "atures": 8371,
      "athet": 8372,
      "atiate": 8373,
      "Ġdy": 8374,
      "Ġded": 8375,
      "Ġdum": 8376,
      "Ġdash": 8377,
      "Ġdents": 8378,
      "Ġdiver": 8379,
      "Ġdiet": 8380,
      "Ġdreary": 8381,
      "Ġpious": 8382,
      "Ġpink": 8383,
      "Ġpry": 8384,
      "Ġpump": 8385,
      "Ġpool": 8386,
      "Ġparent": 8387,
      "Ġpoured": 8388,
      "Ġporpoises": 8389,
      "esc": 8390,
      "Ġlion": 8391,
      "Ġlack": 8392,
      "Ġlose": 8393,
      "Ġluc": 8394,
      "Ġlarboard": 8395,
      "omas": 8396,
      "omatic": 8397,
      "asions": 8398,
      "Ġnet": 8399,
      "Ġnomin": 8400,
      "Ġnails": 8401,
      "Ġnumbers": 8402,
      "Ġnostrils": 8403,
      "Ġthres": 8404,
      "ĠIce": 8405,
      "uttering": 8406,
      "utored": 8407,
      "Ġhap": 8408,
      "Ġhaw": 8409,
      "Ġhaught": 8410,
      "Ġhawk": 8411,
      "Ġhazy": 8412,
      "lydon": 8413,
      "lynes": 8414,
      "imation": 8415,
      "immed": 8416,
      "imately": 8417,
      "Ġbend": 8418,
      "Ġbeam": 8419,
      "Ġbeheaded": 8420,
      "Ġbethink": 8421,
      "Ġbeware": 8422,
      "Ġgri": 8423,
      "Ġgather": 8424,
      "Ġgush": 8425,
      "seated": 8426,
      "icy": 8427,
      "icing": 8428,
      "icable": 8429,
      "ickest": 8430,
      "Ġecon": 8431,
      "Ġumb": 8432,
      "Ġugly": 8433,
      "veh": 8434,
      "alive": 8435,
      "aloft": 8436,
      "althy": 8437,
      "ache": 8438,
      "aculous": 8439,
      "idious": 8440,
      "versed": 8441,
      "vernor": 8442,
      "Ġstab": 8443,
      "Ġstately": 8444,
      "Ġstamped": 8445,
      "Ġhissing": 8446,
      "etace": 8447,
      "etian": 8448,
      "irr": 8449,
      "irs": 8450,
      "adise": 8451,
      "thest": 8452,
      "Ġseal": 8453,
      "Ġwasn": 8454,
      "Ġwashed": 8455,
      "urance": 8456,
      "urry": 8457,
      "urches": 8458,
      "urday": 8459,
      "urgeon": 8460,
      "Ġrand": 8461,
      "Ġrowing": 8462,
      "Ġrises": 8463,
      "Ġringing": 8464,
      "Ġriot": 8465,
      "Ġripple": 8466,
      "ainted": 8467,
      "Ġforbid": 8468,
      "Ġren": 8469,
      "Ġrept": 8470,
      "Ġresp": 8471,
      "Ġrearing": 8472,
      "Ġreceive": 8473,
      "Ġreplaced": 8474,
      "Ġisle": 8475,
      "ooke": 8476,
      "ĠTowards": 8477,
      "ĠThames": 8478,
      "ilies": 8479,
      "andy": 8480,
      "Ġweed": 8481,
      "Ġwears": 8482,
      "Ġwestern": 8483,
      "Ġwealth": 8484,
      "Ġweaver": 8485,
      "amount": 8486,
      "amps": 8487,
      "ĠAmong": 8488,
      "Ġattained": 8489,
      "Ġattended": 8490,
      "cho": 8491,
      "Ġanom": 8492,
      "Ġanvil": 8493,
      "Ġanger": 8494,
      "Ġanalo": 8495,
      "Ġallow": 8496,
      "ĠSP": 8497,
      "ĠSen": 8498,
      "ĠSub": 8499,
      "ĠStop": 8500,
      "ĠSpring": 8501,
      "orers": 8502,
      "illa": 8503,
      "illuminated": 8504,
      "aster": 8505,
      "ifull": 8506,
      "quid": 8507,
      "Ġshred": 8508,
      "Ġshower": 8509,
      "Ġshifted": 8510,
      "Ġnotion": 8511,
      "Ġmend": 8512,
      "thunder": 8513,
      "cked": 8514,
      "ulted": 8515,
      "ulged": 8516,
      "ipotent": 8517,
      "Ġdey": 8518,
      "Ġdefe": 8519,
      "Ġdefin": 8520,
      "Ġdeepest": 8521,
      "ardon": 8522,
      "Ġlege": 8523,
      "rederick": 8524,
      "ĠBar": 8525,
      "ĠBet": 8526,
      "ĠBel": 8527,
      "Ġvind": 8528,
      "Ġviv": 8529,
      "Ġvile": 8530,
      "Ġsaith": 8531,
      "ongregation": 8532,
      "rian": 8533,
      "ĠWashing": 8534,
      "antation": 8535,
      "essor": 8536,
      "Ġorange": 8537,
      "Ġbol": 8538,
      "Ġbolt": 8539,
      "Ġconstell": 8540,
      "hank": 8541,
      "hant": 8542,
      "owned": 8543,
      "Ġalle": 8544,
      "Ġaloud": 8545,
      "Ġalbatross": 8546,
      "eled": 8547,
      "polit": 8548,
      "perpendicular": 8549,
      "ĠPan": 8550,
      "ĠPat": 8551,
      "ĠPass": 8552,
      "Ġunb": 8553,
      "Ġunin": 8554,
      "Ġunite": 8555,
      "Ġunrest": 8556,
      "Ġuncond": 8557,
      "Ġunavoid": 8558,
      "Ġunimagin": 8559,
      "lod": 8560,
      "load": 8561,
      "ĠConsider": 8562,
      "indoo": 8563,
      "Ġneared": 8564,
      "ĠHy": 8565,
      "ĠHave": 8566,
      "Ġsomebody": 8567,
      "inea": 8568,
      "ineer": 8569,
      "ineveh": 8570,
      "Ġnoises": 8571,
      "Ġoutside": 8572,
      "Ġoutlandish": 8573,
      "Ġfeast": 8574,
      "respect": 8575,
      "rescent": 8576,
      "Ġexter": 8577,
      "Ġexist": 8578,
      "Ġexposed": 8579,
      "Ġextending": 8580,
      "Ġextended": 8581,
      "orty": 8582,
      "Ġabrupt": 8583,
      "Ġabroad": 8584,
      "Ġaboriginal": 8585,
      "Ġcommen": 8586,
      "ĠMass": 8587,
      "ĠMark": 8588,
      "ĠMethinks": 8589,
      "Ġspades": 8590,
      "Ġspinal": 8591,
      "aging": 8592,
      "Ġjib": 8593,
      "Ġjamming": 8594,
      "ĠFate": 8595,
      "ĠFleece": 8596,
      "ationary": 8597,
      "Ġwhoever": 8598,
      "Ġaged": 8599,
      "Ġagony": 8600,
      "Ġdoct": 8601,
      "ĠâĢľ_": 8602,
      "ishop": 8603,
      "Ġoverhead": 8604,
      "ilence": 8605,
      "ĠNarwhale": 8606,
      "ĠNatural": 8607,
      "ĠNANTUCKET": 8608,
      "ĠNineveh": 8609,
      "hable": 8610,
      "Ġpla": 8611,
      "Ġplate": 8612,
      "Ġplacing": 8613,
      "Ġpolic": 8614,
      "ibilities": 8615,
      "avity": 8616,
      "ĠDr": 8617,
      "ĠDes": 8618,
      "ĠDoes": 8619,
      "Ġafar": 8620,
      "Ġafore": 8621,
      "olat": 8622,
      "Ġtrance": 8623,
      "Ġtraces": 8624,
      "Ġknot": 8625,
      "Ġknives": 8626,
      "forehead": 8627,
      "ĠLinn": 8628,
      "ĠLangs": 8629,
      "quest": 8630,
      "quered": 8631,
      "Ġprogress": 8632,
      "bec": 8633,
      "beyond": 8634,
      "Ġroad": 8635,
      "Ġrooted": 8636,
      "Ġhandled": 8637,
      "Ġtwine": 8638,
      "Ġark": 8639,
      "Ġaright": 8640,
      "ĠGlobe": 8641,
      "Ġcanoes": 8642,
      "Ġgoble": 8643,
      "Ġshallow": 8644,
      "Ġshame": 8645,
      "Ġshaken": 8646,
      "Ġwilling": 8647,
      "Ġbrass": 8648,
      "Ġbrows": 8649,
      "Ġbraces": 8650,
      "Ġgrotes": 8651,
      "Ġgroup": 8652,
      "Ġgranite": 8653,
      ",âĢĿâĢĶ": 8654,
      "Ġflound": 8655,
      "Ġflies": 8656,
      "Ġflowed": 8657,
      "Ġflashing": 8658,
      "Ġflavor": 8659,
      "Ġflashes": 8660,
      "Ġflaming": 8661,
      "osea": 8662,
      "few": 8663,
      "fear": 8664,
      "Ġlongitude": 8665,
      "Ġperman": 8666,
      "Ġperched": 8667,
      "Ġperished": 8668,
      "Ġperceive": 8669,
      "Ġpermitted": 8670,
      "Ġcoal": 8671,
      "Ġcoil": 8672,
      "Ġcoins": 8673,
      "Ġcosy": 8674,
      "Ġcovering": 8675,
      "Ġparties": 8676,
      "Ġparticulars": 8677,
      "Ġseeks": 8678,
      "Ġimpressed": 8679,
      "need": 8680,
      "neither": 8681,
      "ĠOut": 8682,
      "ĠOnce": 8683,
      "Ġpretend": 8684,
      "dec": 8685,
      "death": 8686,
      "Ġsmiled": 8687,
      "Ġsmitten": 8688,
      "ailing": 8689,
      "ordinate": 8690,
      "Ġhereafter": 8691,
      "Ġsche": 8692,
      "Ġscrape": 8693,
      "Ġslipping": 8694,
      "Ġslabs": 8695,
      "Ġslackened": 8696,
      "?âĢĿâĢĶ": 8697,
      "Ġhowled": 8698,
      "Ġoffer": 8699,
      "ĠEmper": 8700,
      "ĠHead": 8701,
      "Ġswore": 8702,
      "shot": 8703,
      "shire": 8704,
      "Ġyourselves": 8705,
      "Ġdisordered": 8706,
      "athom": 8707,
      "Ġglanced": 8708,
      "Ġchaps": 8709,
      "Ġchasing": 8710,
      "Ġremove": 8711,
      "Ġowned": 8712,
      "mentioned": 8713,
      "Ġado": 8714,
      "claimed": 8715,
      "Ġfoes": 8716,
      "ization": 8717,
      "Ġspecul": 8718,
      "Ġclue": 8719,
      "Ġclimes": 8720,
      "Ġwherefore": 8721,
      "ignant": 8722,
      "pses": 8723,
      "ĠJung": 8724,
      "ĠRom": 8725,
      "ĠRome": 8726,
      "ĠRem": 8727,
      "ĠRachel": 8728,
      "Ġmaternal": 8729,
      "ensed": 8730,
      "angway": 8731,
      "angling": 8732,
      "Ġcontempt": 8733,
      "Ġdesires": 8734,
      "Ġdesolate": 8735,
      "Ġchips": 8736,
      "Ġchorus": 8737,
      "Ġchurches": 8738,
      "Ġbetrayed": 8739,
      "pregn": 8740,
      "Ġknowest": 8741,
      "Ġgoodness": 8742,
      "Ġunderstood": 8743,
      "merchant": 8744,
      "Ġpresume": 8745,
      "HAR": 8746,
      "Ġworlds": 8747,
      "withstanding": 8748,
      "Ġsunny": 8749,
      "Ġlighter": 8750,
      "Ġlighting": 8751,
      "Ġshelf": 8752,
      "comfort": 8753,
      "Ġcarving": 8754,
      "Ġentr": 8755,
      "Ġenters": 8756,
      "Ġentreat": 8757,
      "Ġentrance": 8758,
      "Ġconsists": 8759,
      "Ġconscient": 8760,
      "Ġsteered": 8761,
      "Ġlifeless": 8762,
      "likewise": 8763,
      "speed": 8764,
      "speech": 8765,
      "exc": 8766,
      "exper": 8767,
      "Ġaccum": 8768,
      "Ġaccident": 8769,
      "Ġaccidents": 8770,
      "spades": 8771,
      "Ġwoven": 8772,
      "Ġbelief": 8773,
      "Ġlandlad": 8774,
      "asked": 8775,
      "Ġinterven": 8776,
      "Ġinternal": 8777,
      "Ġinterrupted": 8778,
      "ĠSoci": 8779,
      "Ġsurrender": 8780,
      "Ġforemost": 8781,
      "Ġforebod": 8782,
      "Ġcurved": 8783,
      "Ġapple": 8784,
      "stranger": 8785,
      "Ġcompet": 8786,
      "Ġcompact": 8787,
      "grow": 8788,
      "grim": 8789,
      "grad": 8790,
      "ifications": 8791,
      "Ġhumming": 8792,
      "Ġearlier": 8793,
      "eware": 8794,
      "Ġpurse": 8795,
      "lson": 8796,
      "Ġsleet": 8797,
      "Ġslender": 8798,
      "Ġslept": 8799,
      "Ġsleeves": 8800,
      "Ġmole": 8801,
      "Ġfeelings": 8802,
      "finally": 8803,
      "jecting": 8804,
      "Ġtear": 8805,
      "Ġsweat": 8806,
      "Ġdram": 8807,
      "Ġdrab": 8808,
      "truck": 8809,
      "Ġlosing": 8810,
      "Ġmarching": 8811,
      "worship": 8812,
      "Ġindispensable": 8813,
      "Ġgenerous": 8814,
      "scar": 8815,
      "Ġrights": 8816,
      "flung": 8817,
      "Ġcleared": 8818,
      "ampus": 8819,
      "ĠVI": 8820,
      "legs": 8821,
      "Ġcheering": 8822,
      "Ġcalam": 8823,
      "Ġcalves": 8824,
      "oolish": 8825,
      "Ġimpro": 8826,
      "Ġwilderness": 8827,
      "whatever": 8828,
      "encil": 8829,
      "Ġwarri": 8830,
      "Ġcreation": 8831,
      "Ġspouted": 8832,
      "Ġspoutings": 8833,
      "Ġreader": 8834,
      "Ġreading": 8835,
      "cracy": 8836,
      "critters": 8837,
      "crimin": 8838,
      "Ġbreast": 8839,
      "Ġdoubts": 8840,
      "inese": 8841,
      "Ġsleepers": 8842,
      "Ġcorroded": 8843,
      "arric": 8844,
      "Ġrestless": 8845,
      "Ġjoints": 8846,
      "prop": 8847,
      "prov": 8848,
      "proper": 8849,
      "proceed": 8850,
      "profound": 8851,
      "Ġattitude": 8852,
      "Ġattentively": 8853,
      "Ġfurious": 8854,
      "brought": 8855,
      "Ġsignal": 8856,
      "Ġhath": 8857,
      "Ġfinished": 8858,
      "ontory": 8859,
      "Ġmini": 8860,
      "Ġmincer": 8861,
      "Ġretired": 8862,
      "Ġdrops": 8863,
      "Ġhearth": 8864,
      "Ġcompleted": 8865,
      "smoke": 8866,
      "Ġfinds": 8867,
      "Ġresuming": 8868,
      "Ġharpooned": 8869,
      "Think": 8870,
      "Ġvisited": 8871,
      "Ġcollected": 8872,
      "Ġvocation": 8873,
      "Ġmaintain": 8874,
      "Ġcontinuous": 8875,
      "Ġwondering": 8876,
      "Ġmiscell": 8877,
      "Ġthirds": 8878,
      "ĠLeviathans": 8879,
      "sailor": 8880,
      "knives": 8881,
      "somewhat": 8882,
      "Ġcareer": 8883,
      "Ġawakened": 8884,
      "Ġserve": 8885,
      "Ġserpent": 8886,
      "Ġcircumference": 8887,
      "days": 8888,
      "Ġportents": 8889,
      "Ġportrait": 8890,
      "Ġartificial": 8891,
      "swift": 8892,
      "Ġextent": 8893,
      "Ġspecific": 8894,
      "Ġspecimen": 8895,
      "Ġbowl": 8896,
      "Ġlady": 8897,
      "nights": 8898,
      "allet": 8899,
      "penters": 8900,
      "incial": 8901,
      "ĠChurch": 8902,
      "ipelag": 8903,
      "Ġmerid": 8904,
      "Ġinfidel": 8905,
      "ĠBeale": 8906,
      "Ġunde": 8907,
      "Ġforthwith": 8908,
      "Ġrefused": 8909,
      "White": 8910,
      "Ġcountless": 8911,
      "Ġafforded": 8912,
      "auses": 8913,
      "waters": 8914,
      "watches": 8915,
      "Ġassure": 8916,
      "Ġassume": 8917,
      "Ġassaults": 8918,
      "Ġbreathes": 8919,
      "Ġtopmost": 8920,
      "Ġdecor": 8921,
      "Ġviewed": 8922,
      "Ġrigged": 8923,
      "Ġshades": 8924,
      "Ġaccounted": 8925,
      "Ġideas": 8926,
      "Ġrelief": 8927,
      "Ġsixteen": 8928,
      "Ġodds": 8929,
      "Ġhillside": 8930,
      "Ġlater": 8931,
      "Ġspiracle": 8932,
      "canoes": 8933,
      "Ġspoil": 8934,
      "Ġcommonly": 8935,
      "Ġproperly": 8936,
      "Ġcontrad": 8937,
      "Ġobservation": 8938,
      "Ġfluid": 8939,
      "Ġdragon": 8940,
      "Ġdragging": 8941,
      "Ġpursuing": 8942,
      "Ġpursuers": 8943,
      "Ġbottomless": 8944,
      "Ġdetached": 8945,
      "Ġdreamed": 8946,
      "Ġparallel": 8947,
      "Ġgallows": 8948,
      "Ġgallons": 8949,
      "Ġdiving": 8950,
      "Ġdivide": 8951,
      "Ġdividing": 8952,
      "Ġequally": 8953,
      "Ġrecently": 8954,
      "Ġrecalled": 8955,
      "Ġrecorded": 8956,
      "ĠAmericans": 8957,
      "appearance": 8958,
      "Ġsalvation": 8959,
      "ission": 8960,
      "Ġcatching": 8961,
      "ĠSpouter": 8962,
      "door": 8963,
      "zzar": 8964,
      "Ġvelve": 8965,
      "Ġwalrus": 8966,
      "Ġmagnetic": 8967,
      "thrown": 8968,
      "Ġblinding": 8969,
      "Ġblindly": 8970,
      "consider": 8971,
      "considering": 8972,
      "helm": 8973,
      "Ġfurnishing": 8974,
      "Ġsteps": 8975,
      "Ġtowers": 8976,
      "ĠTranqu": 8977,
      "ĠTranque": 8978,
      "Ġcrowds": 8979,
      "Ġcrowding": 8980,
      "Whales": 8981,
      "stitute": 8982,
      "Ġproducing": 8983,
      "Ġregarding": 8984,
      "Ġceased": 8985,
      "Ġcelest": 8986,
      "attling": 8987,
      "Ġguns": 8988,
      "Ġrocked": 8989,
      "nibal": 8990,
      "Ġidiot": 8991,
      "Ġhulls": 8992,
      "Ġpainful": 8993,
      "Ġpainting": 8994,
      "Ġantiqu": 8995,
      "Ġadmire": 8996,
      "uggling": 8997,
      "Ġillust": 8998,
      "foot": 8999,
      "sheets": 9000,
      "Ġbillow": 9001,
      "rooms": 9002,
      "ciousness": 9003,
      "presented": 9004,
      "Ġdenomin": 9005,
      "Ġhasty": 9006,
      "Ġrespects": 9007,
      "Ġsufficient": 9008,
      "Ġsufficiently": 9009,
      "Ġsuspected": 9010,
      "âĢĶâĢĶâĢĿ": 9011,
      "ĠAlabama": 9012,
      "extra": 9013,
      "ĠChristians": 9014,
      "Weena": 9015,
      "afterwards": 9016,
      "Ġschol": 9017,
      "Ġvalue": 9018,
      "Ġvainly": 9019,
      "Ġexamine": 9020,
      "Ġsaddle": 9021,
      "Ġhighest": 9022,
      "Ġhangs": 9023,
      "Ġshouting": 9024,
      "Ġpromised": 9025,
      "evening": 9026,
      "ĠQuohog": 9027,
      "Ġmilitary": 9028,
      "Ġdriven": 9029,
      "Ġlaws": 9030,
      "Ġannounced": 9031,
      "Ġapproached": 9032,
      "Ġrevolved": 9033,
      "Ġunfathom": 9034,
      "ĠHope": 9035,
      "Ġintensely": 9036,
      "Ġheeded": 9037,
      "Ġheedful": 9038,
      "Ġcontrived": 9039,
      "Ġbreaths": 9040,
      "Ġtimbers": 9041,
      "Ġtrag": 9042,
      "Ġtraged": 9043,
      "Ġlevelled": 9044,
      "Ġprobability": 9045,
      "Ġsensations": 9046,
      "Ġbadly": 9047,
      "Ġdefici": 9048,
      "Ġleaky": 9049,
      "Ġpopular": 9050,
      "Ġclothed": 9051,
      "Ġappearances": 9052,
      "Ġmotives": 9053,
      "Ġchoice": 9054,
      "Ġvaguely": 9055,
      "Ġunwonted": 9056,
      "Ġdrawings": 9057,
      "Ġdoubloons": 9058,
      "Ġfrequented": 9059,
      "battle": 9060,
      "yourself": 9061,
      "Ġcrept": 9062,
      "Ġvolition": 9063,
      "ĠLikewise": 9064,
      "Ġcompasses": 9065,
      "ĠSeeing": 9066,
      "clear": 9067,
      "clean": 9068,
      "Ġtube": 9069,
      "Ġbubble": 9070,
      "Ġfashioned": 9071,
      "Ġexcited": 9072,
      "Ġgrasp": 9073,
      "strangely": 9074,
      "Ġincrease": 9075,
      "Ġaffairs": 9076,
      "ARD": 9077,
      "Nothing": 9078,
      "ezing": 9079,
      "subject": 9080,
      "substance": 9081,
      "Ġoperation": 9082,
      "Ġeastward": 9083,
      "Ġstuffed": 9084,
      "Ġargued": 9085,
      "Ġtriumphant": 9086,
      "Meanwhile": 9087,
      "shoe": 9088,
      "Ġslope": 9089,
      "Ġpunct": 9090,
      "Ġstudy": 9091,
      "Ġridic": 9092,
      "Ġreeled": 9093,
      "Ġvillage": 9094,
      "Ġpeaceful": 9095,
      "Ġcomparative": 9096,
      "Ġmurmur": 9097,
      "Ġprivilege": 9098,
      "ported": 9099,
      "Ġauthority": 9100,
      "Ġauthorities": 9101,
      "Ġobeying": 9102,
      "Ġcoolly": 9103,
      "Ġlucky": 9104,
      "Ġthroat": 9105,
      "Ġmechanism": 9106,
      "Ġcomprehens": 9107,
      "ĠMayhew": 9108,
      "Ġsatisfaction": 9109,
      "Ġinvolve": 9110,
      "Already": 9111,
      "captains": 9112,
      "spermaceti": 9113,
      "Ġfiercely": 9114,
      "Ġinquiring": 9115,
      "Ġpirate": 9116,
      "Ġstirred": 9117,
      "thousands": 9118,
      "Ġvibration": 9119,
      "Ġclimb": 9120,
      "Ġmonomania": 9121,
      "ictionary": 9122,
      "number": 9123,
      "Ġcongregation": 9124,
      "Ġinexplicable": 9125,
      "Ġragged": 9126,
      "Ġwhirling": 9127,
      "Ġvacant": 9128,
      "Ġuniversally": 9129,
      "Ġarchitect": 9130,
      "Ġscrewed": 9131,
      "kerchief": 9132,
      "oclydon": 9133,
      "Ġpillow": 9134,
      "Ġbellies": 9135,
      "ippling": 9136,
      "Ġprinciple": 9137,
      "Ġprinciples": 9138,
      "Ġfiends": 9139,
      "Ġnurser": 9140,
      "Ġnavy": 9141,
      "Ġhempen": 9142,
      "Ġresemblance": 9143,
      "ĠAbove": 9144,
      "ĠAdam": 9145,
      "Ġsucking": 9146,
      "Ġfragrant": 9147,
      "peculiarities": 9148,
      "Ġventure": 9149,
      "Ġunconsciously": 9150,
      "Ġstruggle": 9151,
      "Ġtranquil": 9152,
      "Ġscorched": 9153,
      "Ġinferred": 9154,
      "Ġundulating": 9155,
      "barrels": 9156,
      "bulwarks": 9157,
      "general": 9158,
      "Ġerrors": 9159,
      "Ġmultip": 9160,
      "Ġpublic": 9161,
      "Ġwestward": 9162,
      "Ġangel": 9163,
      "ĠShall": 9164,
      "ĠHarpo": 9165,
      "Ġhospitable": 9166,
      "Ġcollapsed": 9167,
      "Ġpossessed": 9168,
      "Ġcrawl": 9169,
      "Ġcrawling": 9170,
      "Ġaccompanied": 9171,
      "Ġaccompanying": 9172,
      "Ġcomprehend": 9173,
      "Ġastonishment": 9174,
      "craft": 9175,
      "square": 9176,
      "Ġtenth": 9177,
      "Ġbalanced": 9178,
      "Ġinnocent": 9179,
      "Ġlingering": 9180,
      "ursday": 9181,
      "Ġascended": 9182,
      "Ġflourish": 9183,
      "concerning": 9184,
      "Ġimpatient": 9185,
      "Ġhatchway": 9186,
      "Ġvertical": 9187,
      "Ġphrenolog": 9188,
      "Ġtumultuous": 9189,
      "Another": 9190,
      "wondrous": 9191,
      "ĠZealand": 9192,
      "Ġaxis": 9193,
      "ercules": 9194,
      "Ġanatomical": 9195,
      "Ġshrieks": 9196,
      "ĠEuroclydon": 9197,
      "Ġremorseless": 9198,
      "Ġfossil": 9199,
      "Ġfossils": 9200,
      "complete": 9201,
      "supplied": 9202,
      "Ġcurrents": 9203,
      "Ġequatorial": 9204,
      "Ġeddying": 9205,
      "Ġadmirable": 9206,
      "balls": 9207,
      "laboratory": 9208,
      "uvian": 9209,
      "Ġinsect": 9210,
      "Ġinevitably": 9211,
      "Ġpistol": 9212,
      "Ġninety": 9213,
      "Ġsevere": 9214,
      "Ġsociety": 9215,
      "Ġdeliverance": 9216,
      "ĠPlaton": 9217,
      "igris": 9218,
      "Ġspasmodic": 9219,
      "Ġstrictly": 9220,
      "Ġbrilli": 9221,
      "Ġcopy": 9222,
      "Ġpreceding": 9223,
      "ĠEgyptian": 9224,
      "ĠThrough": 9225,
      "Ġloomed": 9226,
      "Ġacceler": 9227,
      "Ġsnuffed": 9228,
      "Ġsympathet": 9229,
      "Ġsatisfied": 9230,
      "heavy": 9231,
      "Ġsanct": 9232,
      "Ġmachinery": 9233,
      "Ġcreamy": 9234,
      "Ġlazily": 9235,
      "Ġfrankly": 9236,
      "ippery": 9237,
      "ĠStraits": 9238,
[...]
